믿는다
척도
가까워졌
119
협력
쉬웠
ⓑ
뮤지엄
바른미래
부화
돌봄
성수기
레스터
제기된다
사회주의
##억5
기여를
서비스도
히트
채로
격인
##꽈
혼자
##지부
설계를
##치에
2건
had
수유
50개
노령
이물질
甫
선호
갑의
어렵고
55
계통
##교수는
##ON
##늘
깨고
全
28일까지
롯데칠성
텔레비전
君
3개월간
안되
＆
체크인
륵
남은
##가중
많다는
핏줄
불안
분석이
국립과학수사
성모
거침
지선
순매수
물량
됭
탱고
##컨티넨탈
국민과
등대
큰딸
삼성이
생각으로
착용감
브루스
##서
아낌
맞추
아랍에미리트
##신도
임자
##받기
충북도
멘사
어떻
흩어져
갈아입
어류
급작
울창
돈을
##렌트
##열
##맥상
난폭
여객철도
##화하는
파병
협의회
##조달
다를
에바
하반기에
Ph
이만저만
##춘기
der
##대학
더할
김태환
식의
터무니
싹쓸이
衙
폴크스
##루엔자
신중
거뒀
이월
체전
그렇습니다
불스
총잡이
기업은
##져스
##il
이용자에게
포지션
의사를
2018년도
버린다
한국사
티아
최선을
힘겹
마오쩌
역사학자
오리
사우디아라비아
넘어간
보내왔
##하다고
우후
행여
걸고
전북도
사당
히말라
##투를
徳
손발
摩
獨
전망에
넒
4차산업혁명
제제
She
점
스포츠유틸리티
려다
따름
대한민국의
연연
##ull
인정한
민주화운동
축이
진갑
수출은
호황
연방
씨
배트맨
선곡
당뇨
성우
인파
공사가
##끈한
로다
婦
당기순
##서비스
##펀드가
##어났
중대장
##배출
자수
행패
어휘
우르
모진
우세하다
천수
추진하기로
？
하얼빈
##Body
##aster
신세계백화점
올림푸스
연천군
##😱
鎬
470
전주시
안토니오
##승원
##므로
야권
붙여서
귀를
레바
##興
스케이트
양재동
』
스파이크
良
비장
몰라도
임진왜란
치어리
##쪽에
##前
당황
21일부터
내려앉
##기술을
霞
문건을
늠
카바
##관절
사주
劉
맨해
배송
보이스피
안드레아
중요합니다
아벨
위원회는
통하는
##운동을
##로호
황제
잃었다
속아
체인지
한자리에
공급을
말에
화학
관리소
女
누계
오프
생기는
사우나
중퇴
##출산
엄격히
끼어
##꼼
김회
##바닥
##宣
두레
사생활
시각이
경륜
##스피
김보
프랜시스
40
we
##빙상경기연맹
##뚱
기저귀
한풀
제일제당
하지
##래곤
보일
2013년
접시
화성시
2억
##해달라고
커피숍
역량
##검증
##관계가
투명성을
##걸이
1
같아서
미혼
스크래치
##6년생
##공사의
만류
反
북제
요구안
―
##마킹
본회의에
뼈대
BC
쟁반
사귀
스러워했
##민의
재판에서
국제적인
라크
교황청
##GS
水
양상문
대변
##해지면서
극복할
떨어뜨렸
바
예식
송지
김종효
유산소
생중계
노원병
가입하면
정책위의
旦
부츠
공장이
크리티
피고인
영등포구
⑥
강우
##졈
게르
##mb
하지원
##행은
르노삼
서너
복식
몽골
표지판
슈퍼스타
노멀
##예요
급급
##수산부
더위가
猪
##잖
##pp
##6개월
우대금리
##단지는
안성기
어지럼
오해
스스로를
그레
배상금
돌보
##만3
집사
이하인
잽
효과는
사안
부상
농협
##거린다
여덟
이문
등락
아닐지
##킥
버틴
덕목
##로부터
책은
템플
재원
일까
##산리
Ag
##속에서
고창
마라톤
대두
##중단
꽝
##od
김두
출세
225
현대차와
기자들에게
談
심정
##00만원으로
##rans
속박
奎
학생들
妓
才
誓
⑧
송
고군
마켓
부인했다
부업
프로그램을
기암
방송이
력
필요성
막걸리
##커버
조인성
이용호
유로존
포함
3건
단통법
팔
昧
사단
##꽉
마초
거부했다
##리우스
##용준
鎌
62
##판이
##마력
부장검사
##랩은
쫓겨났
공기
아메리카
사은품
화의
국토부는
兼
솔로포
지원에
대치동
편성
MS는
무상
SDI
실시간
##카페
배를
1억원을
로그
400만
KF
해왔다
아님
시화
유예
몰카
##공단은
국정원
##번째로
전자기
통틀
1981
질병
폴더
단계
##바우
취약
전방위
이불
##농가
##내륙
위를
대립각
##보험공사
##쳤습니다
분석을
##심에서
各
$
##버그
적절히
췌장
##셸
권성근
##화재
지
관우
지쳐
해주
밝혀야
##했다면
조연
최남
##필더
ps
70대
##해볼
##넸
갠
알록달록
범띠
예년보다
##돝
감염된
##OM
##티스트
유시
##미와
배속
폐회
##과학관
경찰대
緊
기공
바이스
껍질
고만
##지인
##권력
산물
HU
힘들어
##산업에
차단하는
강용석
쵸
동사
##의전
늘어남
노후
##엔터테인먼트
##는지에
내용에
諡
이내에
반대하는
看
개시
연비
계기
내용과
제일모
절실히
##웃
구하기
김주혁
오래도록
湘
##회가
새끼
수천만
하녀
핵과
느낀
난
호국
##키스
많게는
법정에
고부가가치
##설비를
day
송혜
지정
크리스티아누
佛
을
계열
다시피
##석유화학
리서치
##예프
일대기
할까봐
무어
부류
부렸
허경환
일교차가
내로
위기관리
‥
스피어스
안부
##二
등정
펄
磨
##74
빗나
과반
棟
공약
3000억원
불명예
있었
곳의
한국거래소
사관
함께하는
사례다
500여
減
15일
ahk
##룽지
슬라이딩
마이너스
出
공제
제목의
언론의
區
밀집
##병대
險
필라
이르면
##연구센터
공공기관의
해봐야
전교
氏
교만
크나
슈터
단위로
정치국
##해왔다
##융합
歷
내년에
읍내
동문
쟝
관측이
허경
##현준
두고
대우조선해양
악마의
막는
시종일관
상황과
생겨
해시
카이사르
인정받았다
FS
##erry
낮췄
156
980
예문
않겠다고
스테이트
자급
가압
경호
##되더라도
죄다
2009
##표
##ang
몰아가
선출
이글
곤두세우
더덕
터리
장치
낮에는
팽팽히
1월에
컨설팅을
랴오
거
은신처
##법인
불금
스튜디오
##펜
시베리아
쳐들어
##부문의
여경
타사
무역
굉장
##호
ㆍ중
실은
두지
안영
박정호
菅
전분기
높았다
7500
과감
비린내
배운다
박성현
일동
별로
업계의
긍정
아시아나항공은
1999
네덜란드
확인한
도하
##블록
음악
희소
##중한
lib
동그
##이게
로
요구한
##화되고
쓱
망명
##ort
경기도
공산주의자
주관하는
조금만
ᄒ
점검해
정신을
##뿔
cit
녠
생산량이
재일
蔚
염화
##람회
##마니아
물어
튿
몰리
경진
틋
천도
카풀
8대
유치
효율성을
검토를
##청년
에볼
주의
업소
탈선
##도르
탱탱
##앓이
##화문
##치다
배당
안정적
건데요
끄덕
悅
달라
스타일은
경험과
##조명
林
##봐도
레반
##학회
나폴레옹
##바이저
크라우드펀딩
수속
##국세
##어도
부기
##십자
강조했습니다
지류
관공
나폴리
것에
##어진다
붓
폼페
핵무
豆
목숨을
##뎠
##드
##젱
俗
내는
약식
##분께
장나라
허겁
##콜리
연결돼
확실히
하이데
OEM
곤경
선거는
API
瞻
##찝
혐의로
番
발길을
붙잡혔다
##성모
서
포맷
솔선
지방정부
##連
##正
중국의
정지
##根
관찰자
두부
주관
으려는
##주도
맹타
##사에서
##inyoung
인정받아
나간
##렸을
소비자는
셀러
명의로
KT
검색어
관용
벗어나
폭탄
계획대로
103
컴퓨터를
김천시
PC를
되살아나
전공자
뚤
학살
##싣
납품
저자는
궁금증
땝
쨰
##기업의
질서
바가지
할아버
1000여
양현석
1층에
통보
현황과
과징금을
chc
하루빨리
튤립
양사는
편지를
face
100여
끌어들
1928
비키니
종전선언
됐
총대
정부세종청사
억대
딸기
아이스
대대로
환승
爐
정육
주자
불식
黒
珠
유원
짜증
이들도
2000만
양지
##11
꺾
##전화
드러났
저조
있으나
##지역의
적용될
부대시설
사실도
격차는
##통수
##시설과
##싹
행군
13일까지
##류는
1953
감식
방남
필요하다고
섹터
주목할
판도
##중
뭘까
은행은
##살롱
##엉이
##재
확인됐습니다
므로
께선
손실이
##효과
音
브리핑룸에서
차렸
㎝
우성
프로듀
衛
해산
의무
소지자
프
다채로운
판매하는
##중이
일종
투입된
홍춘봉
##박질
군도
바람에
렌지
아디다스
옮김
##종합
하락하고
신약개발
허덕이
염기훈
어렴풋이
수탁
2∼3
약속했다
##되어야
러닝
진급
이시종
장진영
##경찰청은
NIE
물감
24개월
속초
##숭아
오름세를
##공사는
아레나
##감이
개혁의
재질
넥스
이끌
전망치를
##ier
포
##움을
고도
럭키
##안의
##히지
##엾
부딪히
개폐
##조로
愼
체력
전원이
막론
문란
##)
종합적으로
퓨처
ᄌ
아무렇
11시
아메리칸
##료로
십의
투게
구길
서건창
양극화
한국가스공사
팬
##ould
가입하는
갈
##팩트
##쟉
무척
jay
##차가
차근차근
갈라져
안팎의
내에서도
輕
대외
데는
마이애미
협력이
치명적인
피아노
진단서
자투리
내일
꿎
주유
최하
홀
외벽
진행하고
零
가슴
연구진은
##테러
경산시
수면제
##윙
지친
둘
쌌
아닐까요
단일팀
그러니까
##기획
1994년
동시간대
첫째
에르
##특파원
Group
局
##사고가
장제스
강덕
밖에
얘기다
증편
볼륨감
전
##네스
국무위원장이
##업체를
아뢰
8월까지
들어왔다
1년을
음양
주민자치
악연
상속세
어긋나
캄
배포
전통시장
##앴
계기가
내외로
정보기술
술을
도마뱀
ASF
일종의
나오자
사라질
윳
사람
정확
지프
거주하는
그리핀
해로운
기술의
PT
화질
##쩝
구조조정을
우
##평화통일
시군
디즈
좋은
##중소기업
띤
오월
##태그
##다닥
둔치
##강
##힌다
살렸
##unic
출시
오르면
附
목표물
마드
받았고
없다는
##냘
##평생
이동식
평했
일부는
of
언뜻
스토
투척
곬
드러냈다
무
글라스
사생
완충
청장
파프리카
초고층
내기
존재
##眞
주신
제공자
슨
아파트의
포인트를
万
의미를
지원금
풀려
신뢰를
▶
김훈
발바닥
마카롱
동주민
계단
들썩이
##만원의
음란
좋아하
도전
便
##시행
##나기
124
##ner
##통화
閣
변변
나누고
나왔습니다
들린
앞선
26일
상승률을
핫이슈
##저모
##실련
전투기
##관리를
무게가
##비슷
플레이스
축구단
경무
노동자들의
평창동
##라든지
세계인
학생회
##가에
가맹점
걸어
泳
주목된다
##뼛
달라는
넘지
되어
##달래
자처
영접
시선을
##유국
블레이드
##oug
突
움직이
소소
Time
##어드
간격으로
아일
쥴
기부
콜드
##략
잴
트레이너
교문
미술품
월평균
헌법재판
28일
수난
됴
##얹
보행자
##가타
엘스
your
김태균
##상고
였을
##달라는
지난해보다
거만
연석회의
마무리하고
히
논의하는
호
데
오디
##기관은
썰
아나
특이
夏
팀원
##연료
노무현
용납
##earch
가능하도록
##지원금
작년보다
辛
알렉
서독
Top
음식점
법대
##사회복지관
속상
가린
이방인
수프
구간을
##커
리베이트
##토리코
중소기업을
갇힌
기껏
##로가
정원
術
##er
내홍
비핵화와
번째는
봄의
중소기업의
位
시사
해봤
오십
에릭
불리우
차익
##대왕
황토
맞섰
메리
보통주
발표를
동서
습격
변조
선사한다
岐
조건에
메일
소송법
최선윤
엔지니어
성패
있었는지
왕관
##랜차이즈
끌어
돋
더더욱
##회를
으려고
샴푸
상파울루
재취업
##드의
과정
회담에서
불필요
한국농어촌공사
나이지리아
##동과
키워드
##하겠
확연
관계로
서울시와
에어버스
##라운
src
에르도안
3300
11월부터
인문
조항을
시립
##나가고
Act
부분이
5일간
참회
피싱
내정자
원활히
독해
적용해
다세대
의존도
임명
2002년
##◎
젠더
##씨에
찬성표
늘려야
진짜사나이
채널
동굴
긴밀히
욕실
염려
##운동장
거창
##강은
대한상의
작업실
삼성의
말도
■
통솔
따라잡
##독부
장면을
많은데
이끌려
김우
원했
##추세
확보가
할부
##일과
보르
관념
뷰티
풍수
유럽
셜
닻
호인
해밀
아이패
자판
부장
현장
外
보컬
회의는
늘어놓
오간
##진과
##십리
소홀히
무궁무진
해외파
관행을
##합격
기업은행
잃고
세전
##ran
다주택자
음파
##뿐
T
거짓
빌리
인근에
비용도
테이
카스
##프랑스
##밸
##쳄
흰색
##잖아
##그래
걸어야
시장으로
리커
했다는
운영된다
##규
##舊
소각
추진을
회오리
##b
비싸
비닐봉
사용했다
송파
##구를
10대
##터의
안나
교역
끈끈
게으름
시즌을
##직
스피드
##개토
##소송법
임직원
조합원
분별
이체
떠오
이주영
##은혜
일성
AIIB
검찰
명소
##벙
머무르
남하
##맥스
##고양이
“
너구리
민주당
##컨벤션
저울질
패턴
애리조나주
내세웠다
2013년부터
##ve
##바바
탬파베이
철저하게
나트륨
장점이
양해각
이전까지
##해왔
##사업은
했기
##메달
소비자
##엘라
드니
극단
WW
듣기
･
국제법
박병호
죄송하다
힘써
합성어
홍역
채널A
리틀
검토하는
육성
해봐도
자본금
4월에는
##錫
제조업체
낮췄다
보관소
항공
어김없이
##봉
커져
즐
##루살렘
홈스
mark
내민
##치고
선정된
금융위는
해소하고
진도
상품이다
당일
수그러들
수석대변인은
앞마당
산속
##박자
최경주
童
비트코
말했습니다
##린이
들을
##당국이
사고방식
원칙으로
병해
현대카드
통신
##묽
##비전
의사결정
5일부터
섭취량
인덱스
유승민
##연대
따님
##보전
짭
신뢰할
자연스럽게
##사업자의
등록세
보였
##에고
##여행을
회의가
늦어
특위
럴
곰곰
존재하는
지지율
지난해와
였으니
##숩
찔러
존슨
##시리즈
남미
피켓
그만두
중앙당
증가했지만
느끼는
EN
김준호
##타마
김부
인증샷
키보드
##쿠
고속철
맞는
비켜
석차
불타
컨소시엄을
##밖의
정도였다
##곡
잇따랐
중책
標
최종구
1명은
사무실
반대
이슬람
##룽
윈드
있기에
소홀
투자에
##모빌리티
경상남도
만한
요직
##부리
여수시
방통위
행사의
닙
디자인으로
기금운용
뒤틀
##쯩
브라
로저
미지수
할수록
현상학
##ith
##놋
히든
연휴를
시제
이같
부닥
아웃
알코올
물동량
##들일
되묻
바르샤
안무가
칠
##.
뒤편
축의
상성
더불어민주당과
##야대
##그때
김영삼
이병
##렸다는
核
##칩
##에버랜드
##히코
##무리
##겨진
품목은
저작물
건물은
꺾였
연구진
수위
선취점
원하는
##젼
jikime
파이트
팔릴
감세
슈가
변했
##받은
위험요
체가
질소
혐
입증
##에스
없어요
새벽
##읊
나토
##최
병마
낙담
겊
遠
##보우
있던
녹음
나누는
브리튼
보유세
##력과
騎
흡족
간헐
건국대
##77
##위원장은
암호화폐
##율은
선동열
[PAD]
탕진
뮈
말려
##유지
반겼
뜀
기관과
정론
거처
정우택
닮
유치원생
불가
위상
정치를
##당을
귀가
##22
화를
담회
활동했다
부가가치
야스
활용이
라며
em
鶴
##둔
##뜯
선보였다
나가겠다
강화에
##자전거
위용
지적이다
##게이트
돠
인간
속삭
제출받은
##과학원
신뢰감
언데드
냠
지하
반기문
보건복지
하남시
회담을
慧
서랍
ㄷ
묵
탄환
경제인
##EC
##bp
추진된다
양측
공덕
시민을
##TC
일어났다
##냉장
엥
블루
이름
##소득이
구원
치열한
있기를
##크로
주민이
넘어서는
##북한
know
합의
쿠팡
뭉친
원조
##왱
##41
수출규제
해설자
##강전
패소
##PP
유튜버
기업체
김일
##대병원
생산된
둘러싸인
선보인다고
##손
달아나
##익이
보류
##정
푼
노비
걸렸
백혈병
한국거래소에
의혹은
##활약
정준호
지각
앞날
삼국사기
넘어설
ms
총의
兎
버럭
##초리
목걸이
꼽히는
로봇
고민
##경제의
##맵
##뜨렸
실린
저점
확대는
엊그
버튼
##세이
세난
천안함
나왔다
케인
##부아르
사물인터넷
##전의
244
떡국
##거래
불러일으키
11만
##play
총선을
##관측
과외
##과장은
征
##ug
완수
떵
돌아왔
업체인
어쩌
적극
##land
##뎃
益
공격
imzero
##자산관리
경차
송신
꺽
양승
##시간에
성공
설교
무례
##커스
취업에
과정을
시스템을
##인한
적을
마이너
때부터
비즈니스를
조치를
논리
주주
인치
쿠퍼
##불이
외국인과
##파리
USB
##도사
측의
기술은
ㆍ사회
보이콧
주인공은
##장도
몸이
신용
마늘
체육회
user
이곳
부담감
정재
하느님
경찰
##ⓒ
확률
밀려났
맞물리
EG
##드러
얼
고블린
##부에서
돌아다니
있거나
전기가스
살상
##득점
카우
수입은
호조
보유액
냅니다
골고루
남을
##경제
CNS
징조
##■
얼리
비핵
동양
조약
##we
##發
않겠
어드
惡
높아지면서
결정될
##뀔
곳에서
협상에
##이슈
주효
##출동
EA
전소
##21일
국내는
##eek
다가올
##튈
박차를
##이오
84
채권단은
표현
제시문
##츳
##단은
인도네시아
어딜
베네치아
가치가
방향을
대공
친구가
네타냐후
네바다
巡
환자와
실리콘밸리
발목
기숙
네팔
##곳을
현대중공업은
네거
제도개선
귀순
인턴십
적이
##와대
조선시대
간
건조한
공정성을
지금의
상선
##사업자
##五
구체화
정신건강
hy
구간에서
스펙트럼
엾
15일까지
둘러보고
선방
##적
없었다
청사진
태극
공동주택
심신
##ey
##곡히
##행정부
시도한
이예슬
최고
730
심층
교재
cl
잔디
말의
나타내고
ⓐ
눈높이
著
초원
##변속
##부머
ㅕ
교정
2008
출입문
낙태
항목
전초
##쮸
聯
##날을
김소연
5개월
법원행정처
증과
분야를
##쬐
놀란
라지
테라
대군
돌연변이
Green
고환
##학년도
따
전반기
##사항이
딜러
도주
문화관광부
여당은
##로웠
당분간
출간
sp
지하드
射
조용히
고령자
##하시는
요즈
감사합니다
関
관해
인데
섣부
##뗑
다시는
##봐
봤습니다
썼
##버릴
이라는
田
주다
##괍
##석은
##튜브
品
레인보
hong
충분히
장착
명과
비극
구길용
꽌
너
북한군
##앰
수인
전혀
행주
##ise
국민권익위원회
온화
觀
코리안
붕괴
동탄
별도로
단계에
예방할
세리머니
##줬다
달했다
##피탈
카페베네
요인을
헤어
삼켰
##범죄가중처벌법
구조를
융성
급속
모습이었다
##엌
##치우
적대
종로구
##가정
▣
차남
##밌
##일까지
앤
임의로
워런
왔지만
부행
변화가
##어티
##宮
##함과
##모는
변신
##색의
μ
독보적인
##청원
숙이
##공원과
##善
모험
수컷
격식
👊
보입니다
비쌌
홀딩
답한
##뱁
옵션
싶다면
전산
세븐일레븐
##3000
한겨레
209
六
269
신동빈
MTV
내부에서
무게감
가능
수모
자포
##3년
밴
달하고
한진
입구
공개된
혼란
변명
핫
벌어져
서상준
웨어러블
Mod
張
is
유안타
필로폰
STX
SA
들이대
미오
다년
다우존스
넥슨의
근처에
감싸
고층
기정
기업에
텃밭
뷴
##푸르트
박명환
극찬
##뮤지
고가의
##oney
##느질
플랜
소속
부진
명중
령도
코
트레이
ᄀ
##샜
##스크포스
지코
대회를
수요가
지명자
놀이터
금융
슛
겻
당뇨병
클레어
우규민
##구니
印
조계사
돌이켜보
뽑혀
맡게
##북자
구덩이
시흥
원두
둘러싸여
도운
발언을
금호아시아나
전장
지식산업
성폭
떨림
##징
만주
베를
비나
에너지가
형용사
1의
업
지저
공산주의
쿨링
##분해
간주
나바로
구미
##으므로
출연금
녜
셉
끌어올리
농작물
설명했다
매번
301
개발사
우천
나물
생산성을
살려
가정에서
거래대금은
변액
173
토큰
##생활
김순
고든
gor
##냉
왕세
##폴트
##만은
##브이
교육
해상도
하네
##튀김
##그레이드
하기
##현석
##해야만
감시
##내역
제주도와
상승폭이
생산량
##됴
##군데
##수영
엘리트
고려해야
비춰볼
##유도
##용한
³
항일
##키퍼
##화되는
휩싸였
누른
돌아섰다
##재는
좥
찮
##군수
##M은
디스
넉
회차
정치민주연합
[
증시가
부끄럽
선불
라이즈
##문을
색채
실격
삼중
시스템이
포백
##단에서
김기원
광해
역사의
##난방
竝
##L
맞이
##학의
第
##희정
경축
조절할
4월에
무지막지
철폐
煩
마블
손수건
##af
데려갔
단둥
주원
이강
판화
달러에
THAAD
페이스북을
##orge
魯
시부
석조
영업이익률
항공모
##계좌
##회의에
창안
##조사는
서강
박테리아
미국과의
상한가
단자
힐링캠프
있나요
GB
##세에
개로
##세우스
漸
이상을
재판부는
타카
곶감
West
해장
이효리
ㅆ
참고로
##탄생
핵융합
소드
파수
근거지
꼭대기
##부인과
²
CJ제일제당
기량
영유아
워싱턴포스트
심정수
추구
비빔밥
버무
말하기
##시에
저주
##내야
사육
초단
주선
왔으니
테러
외교관
엉터리
재능기부
##MW
건강기능
늙
책임지는
월성
##가격은
차세대
소득이
다이나믹
內
기초자치단체
찍고
이견이
추진한다
드문
勳
냄
강보
국가안보
가려져
hani
여행기
훈련을
생생
얼어붙
이어지고
서청
동화
Sp
들어서
세리
O
맞물려
##ung
##지오
엽서
예상되는
의료
##돤
논어
전희
##레이드
빽빽
봉지
엑스트라
드려
THA
시선
법원이
수요는
##양호
6시부터
사업비를
##켈레
문안
##모델을
視
알람
##연했다
Win
과하
##南
밥
가로지르
정당한
상담을
##하게
Th
쿠폰을
##건은
다양한
원지
적지
##인데다
MR
공산
금호산업
스승
가래
확대했다
서러
캐
적용돼
임직원들이
##결과
5일까지
나누
304
浚
윗
봉황
90
있었다고
기아차가
주범
까마
생각은
lj
🌟
유상증
꽃피
##본부가
##됭
스웨
난무
설문조사를
##중지
발찌
JR
##렛
분석
절의
##룡
堅
을까
층간
남북
적조
최전선
한게임
유지보수
후드
##원이다
보령시
##리아노
주도주
산문
##캠퍼스
Hub
프레스센터에서
관전
천일염
##밀히
##75
레인저스
##실적을
정려
##ody
공간에서
마스터스
픽
투자비
경부고속도로
##스와
군이
##런트
관심이
행동이
참여하고
이익을
요구사항
신흥국
워스
자존심
Int
한수원
perse
서거
쏠린다
호시
의무자
반박
지피
빼고
연합군
##문화재단
SK하이닉스
마칠
만든다고
시공사
##인으로서
요청한
생방송
거래되고
사쿠
고열
펼쳤다
##티가
##화로
미녀
김우빈
鄧
그간의
폐의
비중
직위
연례
판별
다져
실질적
임종
남주
관리원
佃
다이아몬드백스
칸트
##沈
달러당
현충
##other
3대
출석해
바뀌는
쉿
사사
妄
##5만
##정책의
삼성카드
원내수석부
박용택
747
손승락
##식품
사업비
##먼스
갖춰진
燈
구입
퉤
와해
어루만
파국
##만치
상반기에
륨
기록했다고
뚜껑
세율
址
##車
학습을
##₩
반란
하한가
펜실베이니아
쨍
##장에
장애인
유능
개선될
##화점
인칭
##쿠니
mk
공장장
폭우
경제성
##켭
종류의
##파로
국민연금의
김기태
뭄
모습에
아즈
수입원
##마저도
행진곡
덴
내셔널
##26일
##펩
기술과
김희
스튜어
제의
관제
##티브이
##자산운용은
##악관
일반적인
360
차차
적설
코스피200
##F
보름
##즈의
##그리드
##00만원
##LA
국화
##시대의
언젠가
웃겨
廬
##깸
##학과를
가져온
糖
3당
##개국
제보자
##스플레이
##만의
폐지
소나타
##티드
나섰지만
##하자고
錦
붉
K5
정규직으로
##장비
넝
사용한다
해의
최고치
시합
50억원
지부장
壤
아울
mg
##BO
##🏼
전체회의를
동맥
선거에서
처에
저러
##天
##분을
희생자
지점에서
그것
발렌타인
푸이
사업이
##밈
올라왔
且
杞
곤란
##RT
먹은
selfie
##양식
머니투데이방송
威
감찰관
소총
謙
전해진다
민트
항문
jp
##아들
사업을
阮
png
사업부
피
##관리원
담겼다
국민건강
##럼프
검거
라멘
##IG
분리
1990년대
##泉
상회하는
갈릴
혜택도
##os
1곳
徒
디펜딩
##경주
##두부
원수
확연히
800
수많
모색하는
원으로
연
쭉
상상력
무함
源
날라
##양함
##I는
##행사
유배
사회단체
참으로
된답니다
에프
292
장녀
원점
의심되는
몸매
##경기연맹
##후이
##ian
김시
정진석
호주머니
드래곤
邑
##센터가
평가에
무엇일까
미워하
원장
피클
매끈
미켈슨
내보
결과도
name
이보
개인용
울타리
성장이
두둔
##고래
##자치단체
ml
##ell
고양
신
참신
pc
매춘
저온
눌려
실학
##대와
##실은
앱에서
주식시장
다가온다
절반에
받으면서
장작
가군
그이
증권업계
생생하게
욱
중장년
##종이다
니즈
##면의
회복세
##소환
겠
상회
##업종
중개업소
대법원은
정부는
세습
일로
가라앉
답변이
##vent
친수
프리미엄
##산업의
노조는
높
火
이진아
타격감
왕건
허벅
217
성호
쳅
##오스
초코
d
공식적인
##액이
영향은
해집니다
김민
유신
3위를
조직개편
사이의
유은혜
개인이
겸비
##유의
한국산업
시체
거라고
상한제
##르자
##콸
##곗
자생력
AD
이에
##모금
##뷴
절세
It
본인
분석해
윤동주
불리
##성분
葬
후보를
갑상선
표현한
##메시
힘든
콤비
신성장
##푼
점유
1978
기기를
오전까지
채비
##들기
##트워크
##범죄가중처벌
클라이언트
##erv
나호
전세가
난리
진과
한국을
주기적으로
동급
탈바꿈
폭행
무식
##korea
총
연거푸
감안해
선제적
빌어먹
스튜어트
다크
발령
공과
##젠
공격자
지원해
경제부
공로를
독립운동가
졸업하고
혼
피해는
관광객을
알뜰폰
경색
강원도
##ank
사령탑
심사를
차선
辰
백화점
##웨이는
##찌
프리랜
외고
권한이
강도
판권
대웅전
친화
사회생활
전자레인지
CJ오쇼핑
汗
##선에서
리마
1인당
그것이
졌어요
##랍니다
硏
천변
##발
금기
더벨
##공간
듯한
사라져
분위기에
##ㄷ
동사무소
성능을
규모는
연구회
##희망
임산부
정보의
김을
##자리에서
시행령
대거
위드
부산
##C는
1938
하니까
##간담
처가
##憲
cnn
거예요
3차
나홀
로미
공간이다
이구
圭
애드
##로직
##학적
나올지
size
경남기업
##송
휴양지
허영
FA
모차
처사
대관
반출
한국
지도력
##느리
출시되는
정서
휩쓸려
인터넷에
철제
특화된
지켜본
実
000여
70년
습관을
트
사이먼
CNBC
##지주택공사
##확
133
김해공항
폭격
육의
인위
설전
😙
##궜
아쉬운
찬찬히
##퇴직
퇴행
LG전자는
들어가면
반향
초기에
양배추
##관의
##￦
##긿
勿
始
날렵
##제한
프라이빗
인용해
##신의
하려
##ct
話
상표
貝
이용대
여야가
해서라도
##해왔던
##통에
있습니까
토목
메릴랜드
우미
대대적인
한화그룹
다하고
밀레
橘
끌어안
평년보다
An
기다리고
##gr
##카르타
傾
AN
유치장
##공
##☎
예비역
##측근
어머
##자료
압력
사회는
습지
인정받
##여중
##공사에
##학교를
아름다웠
##엿
결단을
이사로
송환
구내
개최된다
방호
##픕
하늘을
##❗
姓
히가시
히로시마
##보좌관
동료
진실로
造
힘입
##샙
신분당
가져
션
노려볼
에스토니아
서울외
펀드
개신교
##nes
##히트
이목구비
예지
##봤
느릿
##과이
캔디
月
살인죄
럭셔리
능통
효도
##동욱
느낌을
부모님
이슈로
##기름
경보
개업
직구
윤성
##덴티티
趙
목욕
폭언
가져간
몽땅
##부장
밀워키
별개로
상지
우리
##ople
수익률은
공주
작별
장주
학회
팀의
자리에는
they
##up
NYMEX
검찰을
산산조각
보직
극히
만하
조준
ch
신빙
먹구름
##점이
암스트롱
베네딕
##용
봐야
지난날
##포먼
일대
동유럽
徐
튬
Inst
전한다
벰
##렁크
공민
픽업
이봉주
속에서
케이스
비용을
팬미팅
명물
티켓
헀
경포
뽀로
파면
쩨
베이컨
프란치스코
즘
인단
##뚤
활용한다
부러워
DLC
exp
일도
입상
1번
직급
창출
J
翰
##취약
외가
소매
##분쯤
조치
간만
부분을
3조
임시국회
따위
신조
밝힌
Com
거절
完
##LED
幣
보국
##냉면
NG
금융투자
냉각
가요
세면
##시민연대
쟁점이
태운
발전기
잠겼
법치
ES
확인이
쓰러
본부
榮
안다고
공분
맹목적
##꺽
서울경제
##껑
받으며
##oph
매리너스
데코
재해
##은행의
다스리
윤지
마법사
종사자
투자한다
슈트
속했
따끔
렙
알렉산
가속기
솜씨
중상
兩
##노스
실
##소에서
자동차와
다니엘
##야구장
##종의
행정자치
콘텐트
원주시
팔레스타인
사유가
겨냥한
kkw
켤레
##수에
초나라
찾아낸
##드랑이
##래요
##터로
미확
의결권
Good
플렉스
##나잇
질책
형
확대되는
불공
영감
이성계
수준까지
##ail
##렘
라틴어
우빈
職
##바퀴
속내
전화가
세미
비관
펀
##성원
자숙
알아채
재량
##선과
행복주택
비운
참조
치명
선도하는
##레마
##十
참고용으로
지역으로
결연
싶었다
크레인
지식재산권
버지니아
연구에
톤
삼시세
랍니다
##라이트
기준금리를
##심의위원회
데이터
블룸버그통신
아픔을
추적
파
##㉠
##따
광복절
##닮
세상에
국장
##사업자가
##방안에
##쨔
이공
다름없
대승
엔비
International
우려했다
##펀딩
##성장
예고
복용
어린아이
설명
##데
최철
부랴부랴
울려
어다
##봄
대통령의
깔
데이빗
공간과
안희정
법조인
강해서
묘하
Mart
ge
관례
벌어들이
치달
##건에
원빈
평화와
##ets
글로브
-
툴
열애
##승차
더한다
최대치
##하는데
도착한
절대
증정하는
##93
박정아
중세
보급
##냅니다
떨
거장
여기서
실시했다
수혜
##小
삼촌
20억
##된다
휴가
##씁
문화체육관광부
랜턴
도상국
202
##취소
테크노
국제선
산업통상자원부는
전후로
##웠
온다
취학
우버
갈색
교수와
전문가들의
##커뮤니
鞍
##일답
구도심
yreporter
골득실
##슴
낮춰
##dong
씰
NATO
부산과
註
뒤를
##리온
##분야
융통
다이
미궁
눈감
그대로
10도
휼
##魚
1912
편집자주
내주
집중해
현정
僕
담뱃값
식약처는
##co
패키
점유율은
파일
叔
유동
적용됐다
##빛
탸
弓
##툇
구체
##포럼
함량이
짤막
##니치
윤후
경협
대형마트
정치외교
법제
인상으로
말씀드리
군용
kjy
전설
이국현
##해경
였어요
배드민턴
중의
테오
도리
##라우
돋보이는
통감
##pic
빠져서
메리트
미칼
##장은
충동
애기
呪
강릉
256
건수
학력
수원시
1964
ｇ
끼리
학위를
전시한다
오우
현대건설
금전운
느
고속철도
오스카
유럽에서
##디는
##아트센터
세계가
영남대
8명이
##놓은
줄기
아아
멧돼지
원만
율곡
아우크스부르크
커미
야심
코넥스
왔습니다
163
Ac
잡혀
카자흐스탄
삼성생명
돌
획득
정통
재보
오르겠습니다
농악
감
미제
23일까지
예술감독
##스윙
자생
냑
섬뜩
일직
##거리에
양준혁
##등급
##교육이
일할
재가
나오지
기업의
찍히
get
##ㄱ
공인중개사
후폭풍
웜
##썻
지나가
뉴델리
박진
밀폐
萬
소공
##픽
된장
##30
컨테이너
부처
스러웠
UR
득표
클론
##건을
미용실
무표
샐
158
됐지만
##보유
楚
陸
쳐들
전화기
壬
논란에
코드
##로는
MBN
마찬가지
박철
느껴졌
보온
규정했다
지라
불거지
자유한국당이
됐으면
효력
데얀
##실업
##이라도
판매하고
##력은
약제
##갛
##깠
망라
죵
정보와
지키는
김치
dB
이날
屛
무턱
##제약
비일비
숙지
권성동
##잴
척이
방송통신위원회
유용
##곶
성명
##아리
담양
##igital
대관령
확산을
두리
퍼펙트
유람
실패
荷
추수
그럭저럭
양호한
우방
기자회견을
사후관리
나와서
##院
형사
참여한다
##더
♣
##금으로
1975년
##00원으로
바이든
효과적
##통합
교통비
3사는
신재생
부소장
진군
##키는
##지방법원
남긴
계획서
강경파
그러면서도
전성기
조화를
##어린이집
##주의를
신용장
함의
##5명
삭제
##wn
빈손
상가
간염
덮밥
카디널스
아쿠
치하
센터장은
신조어
호통
정무위
콘스탄티노
Sun
생각나
사춘기
텝
辭
1544
합의를
##개미
인상이
베네수엘라
트위터에
##생명이
##균형발전
승마
숙여
##도가량
시시
磁
##든지
##에서는
##토모
##밥
리무진
IB
대도
반칙
인식하고
3도
##지구에
EXID
마리오
기자와
수염
영화관
파주시
큐브
##da
기관장
여실히
正
##활력
##특수
걸린
백지
학창
쾌적한
##반이
야쿠르트
##련의
셸
과제를
결정에
용역을
##자금이
제외하면
수준에
지역을
내놓는다
망했
##금리
뒤흔들
그들이
질병관리본부
수경
공모주
##갉
실에
산유국
...
끝낼
염기
개명
법외
庭
강보합
##마한
저희는
##공식
SK
로리
시장
방식이다
맥박
티몬
##라호마
배기가스
국민체육진흥공단
뿡
조강
즐긴
갰
노동자
파고들
##희
淵
!
공방을
4억
일각에선
굵직
행위에
시에는
##대장
렴
대화와
##겻
길을
##동의
오로지
책임지
안전교육
간편
폭소
원인으로
##보험에
강대국
데스크톱
##기관
4배
지적
😂
헷갈
후미
메디컬
전현무
영역에
##킴이
해치
무속
창업주
매스컴
側
땃
사키
조달
년간
프랭크
##지점
강원영
##훅
쉴
존엄성
왕위
미뤄졌
Alex
##백여
마스코트
정통부
꺼진
You
2017년
가지
##사업이
왕가
생각도
##캤
붕어
현관문
##경영자
하이트진
양용
인간이
함부르크
때문이다
수비진
최태
##활동을
작가는
그렇고
갤럭시
헤어지
277
##메모리
당해서
최대치를
##리스크
이브
미분양
##객이
D
대상을
로션
정미
논란의
집회에
##가족
##학규
무엇보다도
南
남중국해
초창기
제멋대로
른
없기
다루는
관계자의
嘉
##돋움
##차도
##땜
용인
6000
사돈
##모습
헤겔
##버리
속삭였
권다희
과거에는
반응
투자액
교보증권
##혈을
상승이
두개골
으면서
##국민
순이익이
명중률
##62
나에게
보이스
특수관계
느껴지는
미끄러지
법적인
태백시
kydjt
성배
奇
##무라
##박스
스테인리스
비슷한
고마워요
보조금
스티브
특기
가곡
1990년
하기로
##도급
##보고서
범인
##복지관
##흡연
땐
질리
한국야
동그랗
수행
묵묵
칸막이
떡볶이
유순
집
편히
김치찌개
일반고
400
은메달
그리스
축축
나눴다
김화
##泳
육아휴직
##역이
평균치
서킷
제주도
재정
후쿠시마
27일부터
PCS
생산되는
##심한
내렸습니다
쿼
털어놨
으냐
만족
레
길
##들만
PF
마필
세계의
베타
드러내고
2시부터
티브이
화이팅
##품질
핵심은
트렌드에
9명
한눈
선언문
외에
업체는
##동맹
청와
풀백
##통제
##스트림
테슬라
종식
Red
이번에는
##떄
1991
기뻐
마진
##변인
주의자
##도르프
배영
격려
만들어
##起
숨기
보령
효용
##둡
오고
##기술원
휴게실
卞
다툼
스콜
熟
##당에
lovely
##격은
나서면서
지식
설명회
사실로
##76
튜버
재촉
端
##엔
閭
̥
큰데
시설을
경기침체
JP모
##po
연평도
출혈
##쭙
잣대
##둥
남겨
국무원
##선물
대결을
##티에
일보
당과
지킴이
##lle
면제
##主
角
부회장은
##딛
실적을
잇는
##분과
##쌕
키위
재수사
준공식
접목
화기애애
도깨비
주의가
중추
실수요자
이사진
석상
##깃
OS
여성가족
6억원
##렌드
힘듭니다
양계
펀드의
차지하며
##파라
그려지
조윤
265
##re
pe
##귤
정병국
뒷심
두툼
만반
핀테크
불거져
기여하고
科
엔드
丑
부의장
육성하는
##껫
##메트
치료법
세웠
이광
동대문구
萊
하한
뒤진
개최한다
계열사인
높기
##발전에
F1
호주
리가
##져서
주권
라파
궐련
근성
사업회
대덕구
락의
##반기
수평
##비시
##호기
채용할
리니지2
보육
기인
하차
면허증
석학
1943
강연을
##😥
쥬얼리
##뒀
##팩토리
豫
##숄
##다녔
운용하는
한국당
섬세
엿보인다
올라오
시행
##수지는
불가피할
IPS
##용은
파킨슨
주변에
표창
나서
오르고
지훈련
론스타
더군
챙겼
##실내체육관
비겼
노자
##브스
蘇
위
배꼽
##전략을
한국도로
발행한
미나미
유세진
클레오파트
##hoto
일수
민
김밥
과도기
밸런스
으론
얼핏
嫡
버팀목
##니터
바꿨다
래리
비상대책
##움이
기자단
컴투스
##독
세권
1984
파악할
확인되지
판매됐다
추억을
##집니다
전문성을
닫
발표문
##메뉴
착하
##as
전하는
##현우
##aph
##스가
사업
일을
밝힌다
스위치
실생활
단원고
금리인
칸타
커머스
웅크리
##버렸다
LED
한테
교동
##만
##유기
청하
캅
1000명
는
##п
달래
룬
지오
히스패닉
학습법
값싼
##con
지나간
로망
##'
樹
높다고
##자체
11개
정치적인
도발
어부
##스타
요미우리
##프레스
부끄러워
장교
왕성
뉴욕시
삼계탕
##토
보내는
정거
##이므로
히딩크
ldmsys
모국어
하락한
梵
##몬
승무원
움츠
농식품
하였다
라인은
힌트
외할머니
쯧
변기
꽁
동행
알려준
박세리
완료할
현
수로
##트로닉스
알리기
침입
고려하고
자장
##라고
억누르
##통
급여를
개성
들려왔
판단에서다
텀
프리메라리
곁
단기
읍면
##마크
##발표
##해졌다
들린다
가계부
아쉬워
하나도
세포
##ea
##콘신
에이핑크
빠졌
헤즈
net
##비츠
##였지만
삼위
踏
PBR
알약
프랜
정확하게
勢
밝혀
##교육청은
확보하기
##맬
받아들일
줄거리
##잽
사외이
주소를
are
호리
피터
노동당
원양
##에요
감독원
한국자산
특산물
공직선거법
컸던
##II
##스포츠
살살
##실태
##英
##라이언스
釋
엿새
왼쪽부터
울부
전환을
傅
본
410
##적한
##병원으로
##수산식품
포커
기재부
배민욱
매장
컨셉트
##풍경
노른
##aver
##🍃
##테크노
가문
##gi
##전히
우의
결속
##겨
##2일
코트
중장기
##심장
입니까
갈취
제2회
깽
되며
하로
몰려
체결한
취한
##데자
앤젤
김시진
맛이
부시장
영상물
박모
흔치
사용료
벌금
##으면서
초전
냘
성준
##궁
신라
##0년
아예
건물주
##ble
야구장
##광고
생기고
시호
아수라장
유니크
뼈
정몽구
##츰
명단을
엄격하게
##oe
좌지우지
🎉
##환
잉태
페이지를
홉
##en
으시
179
노약
아끼지
들으니
파악됐다
Don
콜센터
해남
다닌
잔잔
때와
YG
부양
##帝
##업체
산업은행
충청도
서태지
##착륙
정보국
흥국생명
이재오
因
##지마
모티
동질
##잗
151
본작
깐깐
##철수
폭행한
버릇
立
건너갔
디자인에
사립유치
입단
##ally
첩
아티
원서
소라
역주행
##쓰레
약재
기치
##部
수료
시뮬
음미
급증하는
##놓는
우가
제니퍼
투어
공무원
##각을
멘트
##川
상징물
청백
er
입이
추정되는
산업은행은
줄지
준비해
↑
##ated
에인절스
뒤지
##치의
##↘
PBR은
벌였다
오케이
##경쟁력
##티크
스펀
##썬
##ear
안아
다수의
##세와
한국여성
##토토
퍼포먼
천막
슬리
플래너
갛
밝혔지만
##저축
풀리
막내
정답
Mbps
작품
조시
##리고
##이란
##망울
백미
##승을
경력자
215
표방
여주인
##계산
멸종
카레
##틉
일반직
발전에
왔던
자체는
부분에서
庫
코스피지수
통
##바이스
역임한
바른미래당은
주얼리
합법
디비전
##대까지
개개
졍
삐
사랑을
William
전미
##시간이
揮
회담이
적자가
증명서
신병
보탠
기행
자랑하는
##오롱
지방에서
트랩
##머신
퇴근길
우선주
조망
禎
흡혈
##추진위원회
평이
재산세
연속
##지르
워크래프트
구주
당국이
총점
섭
사무엘
임지
핏
배민
신차
이언
발간한
##기록원
없었
목장
Har
도시바
스톡홀름
OT
jb
책임을
겪는
김은
쥔
극명
긴축
일석
##rown
꼽힌다
비행사
13개
##만9
##CS
암석
시장에서의
ssy
왈
그리고
joongang
질의응답
##к
불러
요금을
전환해
##손해보험
超
##워킹
##캬
강수
외교통상
급감했다
XX
allday
신용정보
배동민
대첩
로마인
이어갈
4시
산도
라이언
대추
##인터
삼청
##리며
MT
고민을
심도
인쇄
시커먼
##위권
띨
신공
이라며
위함
##매수
26일까지
9시부터
5배
신약
##병
따라가
##투자자
현행법상
벌크
모른다고
이진
라비
리
워치
부린
흉노
유니
기득권
민감
코치
쓴
없을
임시회
남겨진
거래처
파장
##숀
가파르
우선시
음대
지고
怨
오거
목적지
오닐
대량
꼿
무거운
악명
전해져
떠돌
근현
그었다
##선거법
예상을
##바라
가진다
비행
무상으로
경비
가뭄
큅
NPC
이동하
謨
슬래
△
예상치
기대하는
수익성을
선선
##액을
##기야
삽입
##북도
천황
동양인
욧
인먼
실존
宣
창구
살포
관계없
것이며
거꾸로
대회의실에서
##으니
분쟁
권한다
확인서
생각해
접종
근본
엄마가
트리
임산
##SW
입장에서는
심리가
##블릿
공포증
##질환을
교도관
##대리
동원
##만두
##버스터
세워졌
제외
##걱
함유
일축
##ondon
주식회사
관련된
총동원
하겠다는
사석
##소울
수요도
평가단
손녀
투자자별
업체로
승자
엘리스
김창
##교안
1건
##좌
>
킹
트러
##질이
매너
##짬
PDP
병행
파일럿
##쑥
DLS
가입자는
제일
이뤄낸
##궐선거
핵심인
##더미
의논
광안리
투자자들이
往
은행이
억류
단위
반영할
남아공월드컵
산업혁
##kang
杖
섣
요정
##쫄
세모
##준혁
추앙
열광
굳건
고등
조사는
인터파크
##류에
스타트업을
젊음
살펴보
겠다는
##00억원의
추성훈
야간
##erc
！
쥬
휴양
##mm의
얼른
##기부
상파
선포
##000억원
##슬리
틀리
고단
1898
책임은
칼럼
고물
最
피에
본능
##마리
##사리
공경
직선제
돌파한
가성
두들겨
한국과학기술
##로운
반문했다
##성향
🏃
퍼시픽
반영될
IR
##했는데요
참석자들은
내장
한국학
이벤트가
##pm
浦
##리움
##꽁
응급처치
알라
외형
##승용
모습은
##ites
##개편
##업체들이
스탈
고루
다단계
xxx
음식료
풋볼
진피
재미를
290
경제사회
발라
토르
font
든든한
도박
기아차
독서실
坊
채색
##숏
프로모
노이
손잡고
ktman
제고를
덩달
그럴듯
##쳇
쾌
일간지
철분
얼마나
##더니즘
공간의
정경호
##MS
한스
213
감명
아틀
대가로
ijo
157
간단
수질
창립자
##보안
뮌
후유증
엇갈
성원
그랑
대학원생
##실에서
우기
##전화를
味
##✨
다산
##관절염
CV
주를
팔리
팔라
서울의
##어마
주어진다
訪
낯
目
발로
##사와의
격
이
##과장
반환
##프라이즈
##영재
탄식
삼은
##四
到
##겉
선팔
범죄에
포함하여
가능하다고
스테이크
25일부터
##ur
손흥민
슬로
지구촌
따돌림
다시금
네비
카드를
黃
##분
혈통
요건을
주말에는
##national
공사비
어스
사극
불량
##반의
도출한
아랍어
ㅎㅎㅎ
마고
무안타
##영양
통행
저기
프록
##리조
활용하면
단숨에
증인
세상
저렇
##덩
##리얼
관현
플로리다
시작된
역대
움켜
힘없이
##iff
원에서
앤드
순익
128
넷마
##떻
전지
장래
어종
정부가
쪼개
서식지
의원실
보이고
되지만
알레르기
분야
레알
工
금
동조
2년을
글
놀라울
젖소
맥주
父
코믹스
가까웠
178
홀대
홍차
줄임
브리핑에서
감점
지남
행한
##enn
##주에서
성체
멸시
練
坂
허상
카리
설기현
瓦
의미가
慈
지치
군사분계선
싹쓸
주치
##oom
간극
##부분
무서워서
준비해야
##무성
稿
부드러움
인천아시안게임
##House
금호
수업료
극비
이형
영미
후보군
##란을
커튼
대상에
갖은
돌아다
예방법
##처스
##장에서
골칫
소비를
##usiness
국무장관
귀족
주거
사가
방탄소년
종부세
서비스의
중심이
단행했다
기초
되새겨
##父
하락세로
긔
죄악
##여겨
미술가
##이행
다던
현안
대표에
정세
불완전
돌린다
##관이
맡고
터보
씨티은행
##점으로
분명히
발사
류
일깨
등과
관하
내보내
시일
점진적으로
##적으로
##미포조선
소방
##콤
플라이
도난
매각이
유해진
해결을
립스틱
계획안
최우
찍
유준
한계를
후보로
관측
ah
일제강
남아메리카
기꺼
환
만들어진
소나기
갖가지
공개될
PR
한국토지
되돌아가
이력
자리잡은
4900
프로그램으로
심했
장마
##젯
순방
중동
조광래
帖
임할
뗀
특보
##났다
실수
恩
갇
안색
지만은
상암
##동성
돈가스
뒷좌
화전
제조
2017
보유한
ss
##마음
최고가
놔
개발
주어지는
지진이
신하
##센서
이르지
##朱
##R
취재
빼앗겼
1982년
아니겠습니까
기폭
문제삼
공연
분해
1기
연구와
##껄
박주호
##도그
저명
##빵
河
웃음을
마련하기
부서진
맹비난
##늬
쓰레기를
필두
섀도
품질을
출전
순매수했다
전국
군민
졈
은밀
##러기
순수한
유재
팽이
이란
산행
떠올릴
##느냐는
주저앉
1만5
예천
내년에는
##까지
부문
막무가
문화재
구간
##도서
상임위원
미디
##色
석탑
틴트
##OA
lov
옥천군
##금액의
물대포
30일
김승현
따돌리
원한
학자금
소리를
신남
2주
진전이
카피
두텁
짐바브웨
실베
##년을
##체스터
腐
##photo
윤난슬
돌이켜
투게더
##용석
당국자는
##되는
LG유플러스는
니퍼트
##ject
묘사
##퉜
세상이
葛
경주시
##afe
볼티모어
##테리아
##근
기타
오피스
한의사
날개
重
##은식
##론
##omen
윤재
##세종
명의의
에브리
##이식
아자
부치
##했다는
격차가
코오
연차
방과후
은혜
선진화
걸친
##회째를
박명수
스마트폰에
영역에서
##함에
노력은
##깐
상승률이
탄두
##음은
##천구
모래
##aid
스윙
미가
조흥은행
만남
##았으며
네이
감탄
##동물
亮
몽
지났
부지런히
금호아시아
탕수
오피
으라
빙의
내년에도
г
##넣
##sh
258
멨
파와
세이브
떨구
##겡
##에이
##춘
기업들은
보장하지
미스코리아
總
치렀
납세자
군림
벌일
##두천
##55
몸의
##되지는
행적
새로움
##orts
##짤
질린
##케이블
##修
##서와
##😙
임기는
이룰
태어난
구만
미지급
##선진
😥
##쓰기
##갚
誤
##찌개
보였지만
로크
도읍
확보해
로열티
뭐라고
경로를
깃발
##어치를
광진구
평평
로스앤
총괄회장
I
시간이
all
알파
冷
##리스트
혼잡
피로
농담
둥근
##화에
P
##시계
1952
대부분을
아니더라도
달
하치
못해서
##티는
스태프
곳이
역경
상장된
…
1주당
없이
툽
##썹
평균자책점
##て
득표율
진행
최대토크
作
##師
신문지
협상의
##얽
박정
이뤄져
##니엄
연구개발
##kin
요강
내년부터
##하기로
##ster
접점을
##선까지
박차
##위원장이
##훔
개신
세도
반공
중얼거리
직원
翊
경쟁
누리꾼들은
배트
생리
해요
관사
슬로프
접한다
예의주시
화두
에디
누군지
##1년생
B씨
##방의
선형
##낢
91
려나
차지해
더빙
풍력
세안
##베르
증설
음모
추동
일의
근현대
1949
지으
##『
박신혜
활력
내놓
##▷
선이
##인원
해결책을
##널스
가는
비씨
##기준을
pjy
##가을
##ohong
황급
무려
사용될
ㅈ
적료
수익성
스플릿
6시
안타까움
전재
##눅스
##전략
전문의
泗
다섯째
##청은
제네시스
아수
연탄
AOA
스팸
감염병
##도미
막혀
치솟았다
##長
##쇤
하품
아프가니스탄
이두
경험한
움직임
##드리드
che
忠
##갇
##스트리트
리모
우려가
반영했다
##소를
아니한가
황후
돈독
마주
소시
현재의
기능
공터
제공한다
##굿
국민안전처
깨뜨리
강제
송정
오락실
어려
당무
##얼
원가
세조
mkbae
가지고
##아르
공감대를
관련해서도
##경을
절감
해다
쥰
김한
다이어
보이기도
연구
##웟
소리야
##가전
지나치
식
김계
##원인
조아
푸에르토리코
##억9
그레이스
in
후라이
최첨단
메리츠
핵무기
이드
깻잎
최민
독립영화
불가리아
연착륙
파우치
나폴레
위스
교권
##무가
서번트
##토니오
##쩍
마는
##은지
펜티엄
역투
등이다
##연주
禁
다독
어렴풋
가족은
기네스
성적을
베란다
체형
##업
##무
##캐피털
헌금
정경심
알았다
##비용이
씁니다
관계자
피하고
엉덩이
##GB
장서
위암
불러일으킬
몰아
보이기
요구에
벤트
기성
##운
에이피
장례식
뭐냐
낸
##센터에
전혜정
현장에서는
1880
개발해
뵐
##변속기
머스
만듭니다
발랄
본격화
토하
한국석유공사
누워
군복
##천시
구슬
건강운
현실
450
love
##우돌
전수
요양원
##닻
##우마
##ood
상아
물품을
기쁘
수수료
올라가는
조명균
ㆍ고
화물차
자율주행차
뵙
대상으로
청각
경계선
집주
##일은
박
깜
해줘야
여사는
##산도
잡는
연아
신부
쓰지
한국수력
##아버
세계에
돕
##되었으며
어워즈
관람
강압
식료품
전정
꽃가루
58
전국에
게임
포수
평원
##큐브
濁
수영장
저것
정글
선재
##질환
##하르
##을까
시장도
1명이
문화의
##럭스
##문화
전망은
##子
굶
깜박
共
제정안
yns
분야의
News
알려졌
멈
사회봉사
LG전자의
Best
관련하여
관광객
720
방바닥
붑
자유선
어설
##50
자선
취지
편할
점에
맹비
뚝
환매
접해
집중적으로
과테말라
기획재정
위기가
총영사관
친노
JcontentHub
트림
거룩
선두
다진
신념
##자들
불임
아슬
언급한
##하듯
▲
1962
일이
경남도
례의
##해달라는
마모
비법
##저히
##경찰청
분당
반영
##쟁이
고교생
##드라
MK
##ak
월등
국회의
국회에
응한
관공서
閔
##rol
차려
휘말려
청주시
으나
열성
고위
농경지
서울행정
감독상
경량
청년
##문화예술
출시된다
##익스
9년
##스테이
망고
##고에
본회의
선뜻
부부장
##얗
완료한
고사하
송혜교
최고액
창
크라
극작
##니어
간접적으로
신제품
싸구려
공산당
##헙
##수범
쏜
##질렀
지수를
##우치
높아져
庄
##투자증권
허술
##차는
보여왔
유나이티드
운용사
리얼
뉴스를
유라
신대
더니만
##회의소
히트곡
주목했다
선발해
鴻
정개특위
박대
출연자
있지만
제단
기존에는
釜
지도자
편안히
##저
풋
順
고육
두근
##조9
캐머
성격
##슬
광주시
제고
##꾸러기
성적
짙은
시킨다고
선거법
테스트
오하
##ox
고마움
푸념
肉
발대식
우발
부르주아
다주택
원주민
##서도
리메
멘
용두
절절
도이치
드루킹
刊
134
##파이낸
뮐
즐기고
탈락
자궁
송영길
##모
건강관리
의복
##놈
##질과
##리니스트
##비안
흩어지
버전
##카드를
지키지
다라는
여겼
모자라
록의
도로가
##다툼
박재원
갑작스러운
세계보건기구
안정감
저마다
부터
발전할
##차례에
##스크린
##실험
드럼
100일
후대
유휴
공존
##맑
자아낸다
##2년
제약사
약했
50분
러쉬
홍영
蔭
真
행보
성직자
개가
골드
준이
늘어났
##통신은
이스트
강사
육식
🤩
죄질
나오고
활발히
영산
저물
혈전
에버턴
Be
호가
살생
##받침
어젠
사망했다
중학교
먹스
김의겸
P500
주지
기관차
총알
프로젝트가
체조
영공
있지
병원이
13일
멕시코
기하학
인산
사정이
바꿔야
어울린다
요르
아태
이나
오면
담을
다들
##우기
난생
쓰러뜨리
초구
민중
바라보고
모처럼
단체장
禮
##믈
##고의
##한도
손을
전년
흐를
단풍
나카
외계인
버렸
우스
##tern
거림
개축
인력
##TA
유교
##다지
재미있
경로당
롯데홈쇼핑
학부
우위
세계대전
簡
괵
##몽
특강
테르
##만9천
하자
빼돌려
수리
한도
宗
들어갈
발생하고
##서리
기괴
이슈팀
소띠
아야지
우림
검문
속셈
집무실
##렁이
채웠
끼우
붉은색
한국농
담화
루마니아
##드린다
지역별로
턴어라운드
득실
별세
한국수
面
이별
달구
##사업장
피에르
운명
내리면서
핸
쪽에서
##업계가
崔
방문하고
양주
##쟀
1명
레노
풀리지
##벅스
우경희
양당
압력을
221
##주년을
업체들은
한국으로
1914
철자
##let
상징
확정했다
지속될
이해
김상
몸싸움
70여
당기순이익
청구
아이러
취업난
인원
입자
이태
파멸
현대차가
##바람
조합
이한구
나타냈
##두리
##저럭
조원
용인대
##층이
름
정보통신기술
근데
불법체류
오가
##쭐
우상호
지아
바람직하다
양을
톨스토이
신입사
癡
##리니
앞섰
경청
최근에
##닭
어원
##진이
경건
##창출
태어났다
혼재
##심은
kjm
예예
서희
출렁
成
##대성
전문가는
거트
당겨
##량으로
포항제철
일대는
##과를
변협
합숙
공국
##받고
준비가
것이라
##워프
확대한
약간
##슬라
수입액
아이디
외제
##불어
라틴
토핑
발언에
깨어나
그러면
비교할
mod
##olor
스탈린
##쿠버
1억
양육비
위니
##都
##업계에
에이즈
香
830
유조선
##유럽
피조물
수석실
##ove
군산시
대응하고
대통령과
SK텔레콤과
가로막
나고야
그녀는
고통
운동권
##돈다
현대차그룹은
협동
산란
설정한
대원
##동반
구속된
般
의거
컴퓨터
위태
계좌로
굶주린
##뮬러
석굴
공장은
경비원
기술이다
##주거
##지방선거
범위에서
##섣
##로
초급
1학기
아이다
##밍
치웠
크리스털
않습니다
통증을
당파
##리에서
가입자를
업무와
##ore
간소화
##널드
수행할
統
者
덕분이다
##힐
##칸
바빠
맞췄
전진
몰라
동반성장
대한항공은
##예정
##ME
볐
##돛
호반
##츠하이머
##리도
##號
본지
##까
경지
water
##포즈
카톨릭
활성화를
2등
상당
##v
최적의
가로등
수급측면
의사
편곡
조조
bord
##호영
박서
직권
##주기를
레시피
기존
느슨
사업자가
카미
##я
두만
EL
자오
극단주의
황재
##이브
데카
재심
殉
화제를
눈치
비대위
고취
따듯
디카
말할
##텍사스
정치학
##SI
##시키고
설치된
높아질
후속작
##기금
##시안
싫
늘렸다
왜냐면
국가와
제공하기
券
함안
秩
##행위
녔
왠
##か
구하
무서웠
ass
어릴
##힌
매물
1924
##해지
틸러슨
경성
개선하기
대회장
Is
차두리
아닌지
일파
cm
대림산업
스페인어
꽃을
로프
자아
조례안
##카카오
자작
##원들이
교육은
상황에
##출
아이패드
8600
##짙
박보영
유지하면서
지적재산
세자
관저
제소
##빌
1970
이렇다
##通
주진
die
회복이
㎾
일감
레이팅
임단
##굛
내려오
##개발연구원
찬반
죄수
달팽이
사청
##먼지
##하러
##~
##터넷
지목된
중심
##힉
Soc
무렵
조정할
주가가
##세르
쿠
트립
한국야쿠르트
국비
##ㅠㅠ
##유통
BP
늘면서
등록을
유엔
##요구
WSJ
馮
메세
껏
지분을
##대한
宅
김부겸
세르
댕
의무가
구축했다
토트
피지
##만원대
평지
해봐
타임스
軌
호두
편안
군요
兒
과학부
내륙
기세
##lin
정수기
접어들
수수께
여러분께
##달을
오브
##팝
단백
결과물
챌린
시리즈의
##통화기금
기다린다
케리
展
공명
강남역
시공
cc
선례
전위
늘리고
토론
##했는지를
##배우
덮친
계장
총력
말다툼
뮤직비디오
##찹
김명
수출액은
苦
예약
쓸모없
마이너리그
무분별한
진달래
말을
164
해발
작품을
包
해맑
수단으로
요번
s
빛나
부추기
제이슨
##욋
광개토
예술가
당시
講
##현이
툇
##어야
봣
민방위
##대학원
##經
단순한
최전방
ㅂ
금남
기관투자
버크
어벤져스
기업들의
관련한
##사박물관
##플레이오프
스토리지
귄
알아주
인명피해
나서지
깝
1995년
신문은
##짢
이끌어냈
변성
연달아
포기하는
공용
청계
분신
phs
불법행위
관영
##광
관리인
박수를
본사
유고
출시될
요거
는가
도널드
4차
종목별로는
견
##🌸
섞어
되자
당연히
우대
기본법
도로교통
##⑤
##ollow
##조트
졔
주력
가정의
점대
골밑
방문객
##아일랜드
헴
菴
간접
幢
폐수
##조직위원회
파크
사춘
준수
망쳐
소통할
HSBC
##날리
비좁
육즙
변환
곁들여
해변
##겠다는
자녀의
공지
않았을
살고
고생
세계사
병력
鄕
관통
답이
독감
는지라
재치
AI가
崖
옐런
생물학
露
##었어요
뒤따
##취업
환경을
##臣
KT는
##에서부터
##뗄
운석
##면
##htan
소개했다
아래로
제품의
맥락
##가구가
FM
##서쪽
깔깔
##일에
잠수사
##비중
##¹
Ⅱ
노점상
##항은
성과에
진행하기로
만점
##도에서
뉴욕
2001년
가면
과거와
##과열
신동주
두산그룹
누
☆
결승타
##상담
##더라고
출고가
냉장
인디애나
예보
게장
카카오페이
호전
##에이터
##트럭
##매출
하물
尹
슈팅
콘텐츠로
공은
##무늬
봉기
##위대
##◆
보물
##엷
맞설
2002
##뉜
기러기
맞물
안양시
양주시
좀처럼
국가보안법
##active
커지고
승률
공동대표
잘
조정
크레용
기판
박춘
위성
밤사이
직장인
꿰
##플릭스
##닦
교향악단
땡
마누
##신용
안성시
투명성
현수막
거래일보다
힙
겔
또는
오빠
대충
높여야
교류를
##조선
##책임자
제설
##여
四
컨
ㅤ
##좥
밀실
시작하는
한마당
노무
##검사를
##라이드
법률안
##법안
邦
ME
받기도
전략에
터졌
이정희
모토
연찬
조승우
수은
유토
엉
##린다
소득주도성장
모여서
기르
노조의
##되며
닥
##백과
수식
연구위원은
이해를
부담없이
젱
해프
회사와
##oc
혈세
집집
##숱
##지자
##sch
수협
분란
##1000
환담
카운터
아마도
기자재
배차
IMT
연가
크리스틴
신입생
강의
이었다
친이
정도를
이고
##히는
불후
##정부
주세
참담
##햔
와이어
##te
은서
과정은
싸웠
살핀
크리스마스
##VER
재건
노량
직분
##목이
감사
실패한
삿
인스타그램
역차
되돌
##론도
##고요
##크루즈
불고
##이에요
경각
上
금리가
##백화점
우위를
줄어들
함께한
레터
장부
등장
타르
확대됐다
침체
비틀
티웨이
치켜세웠
작심
프란체
보호를
첩보
이래저래
둘째
##주파
##첨
초등학교
총출
丈
산수
오스트리아
也
세계보건
##경민
##드리
지배
소방대원
특이한
노른자
뇌물을
##락이
직감
##시오
쫓겨난
한국이
멎
상하
으니까요
힘쓰
예체능
sophis
먹인
일기
버스를
의원의
점수차
##테리
소문이
##듯
빵집
딱히
공휴
은
박영환
##분야에
爵
교의
자칭
정석
현대캐피탈
##튜디오
손호준
NFL
급수
축제
재미
소식통
신시
발색
애프터
##스톱
사측은
죽일
피시
구글이
KEB하나은행
又
중처
읽을
발의
147
논평을
취지로
브라우저
友
감안할
단체전
침례
마침내
불신
뉴타운
##받을
달라이
경유
##북부
반도
추가경정예산
##선으로
설마
##ates
날씨가
ㅁ
높았던
집무
무색
활용도
엔고
나갈
파행
날씬
카드는
거점으로
기수
##녔
gogogirl
##보기
코피
##ch
歸
##체육관광
##협회장
연락
##any
설치
##음이
겪었다
6500
딥러닝
##명
원치
밋밋
노라면
담아낸
협상에서
관리도
깃든
##👻
오하이오주
##에이치
##율도
嘗
에드워드
##하키
홍정
지킨
투박
이대로
산업안전
법사위
비시
##중에
##실이
현저히
북제재
IF
##그룹
ㆍ도
##스트롱
라니까
인터넷
토미
학의
최고령
유급
상존
##목적
##격이
##리치
연설회
##won
자동변속기
없다면
적었다
정성
커브스
##어촌공사
연말
##코니
그려져
##논
추첨해
온다고
주인이
##장관이
##나카
되었고
##랏
##ohn
##요일
국민학교
국민연금이
재능
##핥
##방울
##보겠습니다
개도
압수
inst
최원
차량을
될지
빈발
초당
이들이
보리
##키스탄
나락
햇
지휘자
세이
항공기
남아있
590
만을
당선된
방문은
회개
설명이다
아인트호벤
쇄도
##oo
민사
##릿지
##경기장
0121
생소
10년
인증서
다시마
트렌드를
비교해도
질
여고생
레바논
갈고
尉
##술은
경과
강행
ironn
도예
곽
오류
##응
이인영
손이
랙
신비
비뇨기
전라남도
봄날
##면으로
확산되고
라든지
신한국당
##arch
생길
박찬
전해졌
스탠퍼드
물량을
##츤
라임
巳
계기로
거쳐서
##전력
최고치를
표절
##나들
다원
늙은이
##없는
##급한
##els
공시를
성명서를
넘어서
##엡
보여줘
버지
컨설팅
##이죠
##듭니다
##슐린
연민
입수
##시간의
미시간
리콜
##휜
수출국
제조사
느냐고
##士
候
촬영을
배부르
##단
##란스
한반도를
자본
명령을
##디드
##zero
##초를
##란다
준비물
퀼
대표적
몸값
메뉴로
얌
##바구니
1만8
杉
##une
안녕
##렌
두유
##배를
##교차
문구가
빽
초에
아닌가요
그랜
석류
탄원
제비
##대식
주말
白
재결
맞춰져
방법을
포즈
##넘기
하야
넘게
기싸움
조남
##부부
쾰
잡아가
16년
감방
달이
빨
##절을
국자
한국판
편이었다
다루
태워
점이다
지역주민
##쌌
교복
고액
쿠데타
##ㅏ
디어
George
뽑아
尾
니
##매니
운영과
##소리를
##에미리트
##눈썹
맥주를
ы
##빨리
##8억원
주변을
제트
Charles
##유산
##낼
투자가
난관
관세를
쫀득
1911
할로
어디
##😛
예금
맡겨
제각기
열리고
맞
卓
##기구인
하사
온다면
버리고
##골프
淮
##right
버블
오현
##콴
仲
지역인
도시로
기간
응수
연장선
여행자
추후
##TM
##ML
정홍원
타계
빠졌다
製
早
놨
박인
##휴가
##지방경찰청
##연설을
기능에
소유진
##종환
돌아간다
실업자
돕기
축제가
##～
이정현
벌어지는
##만이
서비스가
##만4000
##낙
한낮
실용
##언정
발표하는
think
##펼
찐
맛과
고성능
포함하는
##DC
때의
궤도
오미
돼야
##가짐
손
dawn
92
고원
이틀째
완료되면
면회
진다고
##버린
가장
##이었다는
입법부
포스
견뎌
모으
없이는
김성
##벌레
신일
실적에
단행본
일세
변속기
##hy
수진
바라본다
##적이며
니코
살아
진흥원
발견
키즈
##징계
AI
자동차업계
부풀
紫
기민
book
반려동
기울
조양
담사
##됫
신해
미코
도미
유병재
한길
김규
체포
마지못해
나를
##9년생
선정됐다
령
않으면
결산
의장국
실태
공인
테마파크
｣
##기능
해법
##학위를
96
포용
청렴도
개발의
남아프리카공화국
화살
1000
탐색
되돌아보
방식을
결정적인
two
이뤄져야
걸리지
이동하는
그때
응급의료
삽
##─
이뤄지는
언제
프레드
이경규
達
고효율
##스탠리
대세
매진
도시철도
##사태
##백만
서인영
kr
성종
변제
겋
샾
흑자전환
SK텔레콤의
CS
중진
산책로
출몰
휘둘렀
##겜
트인
##컬레이터
걷는
일손
가방
게임이다
드
4일까지
##금지
버려
##?
골밑슛
##경쟁력을
##이든
뿌듯
최상급
중에서
##é
자신은
내준
시효
신학교
판결을
연계한
반기
##되었고
JC
어려우
306
에인
쐈
##만원에
플란트
가디
그립
물으면
##땀
##윗
컨설턴트
2천
##Hz
베풀
##층의
##CT
##그래프
##방문
期
편집자
##종금증권
펠레
모릅니다
##양이
방안에
막히
값비싼
##담보대출
벌떡
실비
핵실험
정치개혁
우려에
것이지만
않기로
부럽
협주곡
◀▶
##끄러미
탓에
리크
om
발행인
거버넌스
기에
샌드위치
방식과
한반도
도로공사
새겨
정오
##소시
박용
06
거미줄
풂
브랜드다
조력자
영어
대학은
면은
현장의
##sm
최저치
무료
메이저리그
상비
염색체
30분부터
수화기
##클레스
1907
반정부
수만
3000만원
겠죠
수사권
##만감
뀌
##묶
흑
백마
지르
보가
논의에
롯데시네마
이지스
위키
##위탁
후한
가로수길
바리
국제기구
##플란
루피
##큅
##위원장의
Am
에이전트
##디자인
전에
##장군
😳
척척
토너먼트
되돌리
캠
관망
정읍
확보했다
매물이
패러디
姜
방어력
창간
지켜봐
중앙선
혁신성
광선
보험료가
방아쇠
아날로그
소박
##남부
망할
행각
위원장
숟가락
는데
대표단
##대비
비해서는
인도인
미륵
써먹
기색
##하기에는
속속
점과
마케팅
김호
온실가스
베테랑
독일군
노론
계속
필러
제품으로
좁은
원색
매출액이
견적
##카드는
전입
파출
아테
檀
불협화음
##준다는
페퍼
낯설
##축제
##드가
겁먹
##앳
##웹
영양
셍
##웍스
샤워
oj
1930
曹
미스터리
나들이
휘둘리
사전에
윤은혜
증빙
＄
두근두근
수자원
##괴
독과
##애틀
스피
자리매김
##됐을
영향
##제일
##불을
악성
투톱
##프로젝트
묏
마케팅에
##文
국무조정실
토시
경제성장
된지
지칭
국민연금공단
허점
1983
서울국제
##추세츠
거지
▪
스몰
담고
##식과
떠
겨룬
초상
였
코레
통화량
왕래
진심으로
ETRI
1960
방송통신
동북아
##팍
대국민
로빈슨
##해양
from
쌀국수
말했다
유가
소감
##조7
임수
##황색
##行
채집
##되지
##베이터
판시
자발적인
헌병
장치가
가격으로
」
지난달
1만6
세대
##향을
##ttp
##포먼스
프로세서
페
mp
자상
고쳐야
기온이
협업해
리차
협의체
들끓
##괜
엿보
계략
조건으로
데리고
##건물
관한
##뱡
이동해
정해졌
산은
난이도
뺍
관람객이
잃어버
매립지
##94
淨
실감
구절
이븐
훌
##당의
##록
증여
##보안법
##회의를
##무시
아끼
##됐고
##이었으며
국당
꼬박
ｍ
외식
##단이
##육성
필로
연구하는
60일
엔씨소프트
달콤
묀
손대
낮잠
##항공사
삼성전자와
이대
서로의
진시
삼성전기
솜
맟
보며
민폐
눈여겨
소모품
##갔고
演
##호테
지도를
yulne
##PM
##병에
軍
빈센트
알레
양수
1억원
실적도
##4개
터트리
주식의
트렌치
##어가
잡히
찬찬
##혈
황태자
##혔다
문자를
꼬마
솔루션
##자원을
세일
茶
겪고
유전체
요미
경영지원
##PO
거죠
##수익률
β
16일까지
대포
방사
eb
##ham
324
벚
##교원
펌
##르의
경리
직결
빨강
후인
관련자
뒤섞
##친구
발목을
##컷뉴스
마포
내게는
지역에는
##berg
의령
##익은
한국통신
汐
안지율
도의원
조공
自
짜릿
머무를
##ost
경이
목표주
둘레길
의원은
서비스
화이트리스트
##너지
실효성
##헀
교통법
남는
결의문
##피털
엑스레이
밝혀져
무료로
서에
승부주
1500
이전을
거침없이
##앤드
외딴
철
읽고
남대
3만원
인류의
내내
클리블랜드
이창우
이런
남경
엔씨
삼성전자
##틀랜드
활용할
2∼
비율이
어리둥절
Day
는다는
일정이
##석
소탕
추계
사바
효과와
##위로
고뇌
160
필살기
이범
##드리히
속설
되살리
몸부림
차분히
대목이다
##아이즈
걸맞은
##제지
금융주
운행을
KS
격의
3명
##명인
커밍
증류
더군요
##균관
##촛
양면
충정
MBC
수색
환멸
ssyoo
숨지고
##마스
##랑이
##PS
금은
구축이
##현장을
스토어
버튼을
탤
뽑아내
알선
총학생회장
국회의원이
영변
##兵
😉
조깅
선물세트
앞장서
1만5000
##컬러
씌워
경향을
##양을
사악
굴비
정부의
##땝
실험
##수지
유감
중국산
재빠르
신세
그렇다면
진천군
CJ제일제
참가할
##볼루션
거리
김희준
백과사전
프랑스와
3100
##개발원
##줘야
곳곳
넛
시대가
감면
究
골치
심청
적다
북유럽
크림치즈
전선
용
준우
##막염
빠를
성차별
메뉴를
모였
도살
##뚝
옥수
금지법
##챔피언십
##루이
##올로
洗
기피
##념
html
부진한
아론
뺑소니
##方
챱
##히로
빠져들
풍부한
##會
상실
##륏
대
WTI
드라이
소용
##리조트
음란물
무바라크
지단
물류
##깔
계올림픽
##에게도
경우에는
김구라
출판물
유엔군
역전패
##공항공사
켄트
약의
녹색당
##옳
사민
##펀드를
어이없
많습니다
요구
일본
##짐
갑옷
##ini
사직구장
##튿날
담당
모듬
수익형
가족과
##갸
못했지만
##졌을
##lay
손주
가족의
Ⅴ
##아웃
##세가
菱
##껐
로우
회고
2004년
다큐
하늘
##캐롤
장도
검사는
걸었다
팔고
##됐는지
##예금
니혼
##ene
유포
방수
옷차림
전극
면역
마태
승
얇
봉우리
##공모
벌인
벱
##넥스
뒤에
약탈
소공동
저평가
현상을
船
식이다
메르세데스
선물로
바울
－
새롭게
융
##🙈
들어서는
##실내
##anc
구로
바란다
제라
파고드
5개의
무엇인지
시집
사업에서
##통행
원유철
알아냈
##찍한
경진대회
잔혹
적용하면
##끄러운
##텟
로스
일지라도
익스프레스
##폴레
妃
##허가를
sc
의원에게
学
##연
이정하
현대자동차
국제
페어
더운
카디
©
七
징용
똠
##거장
과목
황인
것이
##셩
##aker
주말극
막걸
늘어나고
진행해
영혼
국사
공식적으로
차지하는
초저
##언스
이자
##태프
양재
것도
y
찾는
공허
영동군
##하에
모독
대체
↓
##쉽
서초동
헤어스타일
##닉스
유흥
배터리를
뚫
짜
교차
이동평
清
엑
탐사
거침없
그레이엄
주기도
사람을
힘내
한반도의
##파인
결렬
요람
열풍
잠
야유
##미칼
교총
있으니까
웨이보
강일
##씩을
폐암
##수무
쳐다
고모
병들
야마
처음
##티지
희망퇴직
걸요
선택하는
아몬드
##다리기
##ital
##텔링
##겸
A씨의
##FL
오르는
##志
떠오른다
콘텐츠가
돌아오
##효과를
요코
나쁨
마리화나
고급스러운
신음
##파이터
마케팅을
펀드가
서건
무뚝뚝
중에
걸쳐
조직을
낮았다
방출
남자부
포항
##리코
##싱턴
식단
납니다
DDR
브레이브스
says
여전
차츰
요일
棍
되찾
소유권
분할
아와
9935
피부
확대하는
총액
숨통
증가할
Gl
##K
­
가오
평결
오종택
##inon
##권자
기억나
만드는
##리포트
화교
가능성에
우리투자증권
피처링
위상을
공격수
자택
##스에서
제프리
김지영
증가로
證
건축사
벌어졌
부가가치세
##해줄
됏
패스트
##yn
카자흐
해외
##트니
##덮
り
컵라면
留
1학년
##낟
생략
난로
네타냐
THE
소유하고
주제는
올라갔
실소유
성평등
구속됐다
睿
유림
##시장은
하이라이트
거두고
㎒
LTE
기프트
가죽
##경정
숭고
더라
젠틀
##킨슨
상품도
##볐
루블
##총회에서
주인공이
나오면서
🙌
##들여
모호
淑
려다가
린드
LG
광
소송에서
감돌
##조사에
국민청원
##PD
자리를
##마른
시어
히히
돌아온다
김기춘
당한다
문화와
투명한
빠진
Ar
콘셉
서툰
##롯데
도입할
20
于
1908
던지
확
唐
보시
가쓰
##라면
사업청
2호선
먹이
중요하다고
지미
관계
더위를
누적
육상
하얗
일요일
기장
구토
모양이
고조선
부시
구경
수뇌
치장
몸뚱
알아보겠습니다
존
칭하
선회
樑
라커
두드
캠페인을
##떳
##업소
##베리아
혈액
##르지오
영치
파헤치
건강기능식품
소니
Ant
##치로
롼
끈적
실시된
##지수도
쾌락
김덕
갈망
실거래
땟
증감
말하는
투영
드러낼
부전
최신호
행사
다승
몄
##아울
골프장
##OU
시발점
김인
노면
호들
동속
구간에
수사하고
##선주
##禪
반응은
2학기
조성사업
예비
旣
##든
규제혁신
브리즈
건달
혹시
홍수
큼
공직선거
강수확률
##자들과
Black
프린세스
93
동해시
성장세가
진압
원시
##렐라
##유틸리티
불길
백영미
현혹
재발
정무
무마
일하는
3종
##교육은
선망
##처분
710
나타나
하여간
##없다
송이
차질
양복
군락
고용노동부
##원
원인
몬스터
부작용을
알려줬
길래
방송국
진필
##웰
##1천
15일부터
堂
시아파
개막전
장기전
표한다
##黃
테란
##회에서
##민수
彰
##넷
##바다
무너뜨리
기생충
헤드폰
##파는
교차로
조사에서
초월
주장하며
꽃잎
박물관
월가
NA
인권위
##레드
주는
생겼다
엄밀히
주체별
한국예술
GPU
총장
마에
버프
발주자
오지
##官
齡
화천군
NC
LG이노
구명
사이에서는
걍
나눴
Univers
티스
임채
##습니까
김병지
篆
확보한
로스앤젤
갓난
8만
부합
연구실
있을까
생각할
씩씩
ap
YoY
빚고
##봉근
귀금속
누구도
지을
절망
이놈
당할
나라는
이지예
##PL
그보다
##pen
쉥
자원을
한순간
적발
고석중
라돈
중개사
후려
##기능을
##권역
##보면
탄압
사업가
운전
NT
여부도
발견하고
##소송
겸한
##조정실
부르고
바우
##외
완강
##unication
##겔
첸
증축
##의전당
봐서
##렝
보냈
한잔
내려다
토탈
자부심을
신뢰
여전히
낯선
##영향평가
식품의약품안전
##페
0307
##헉
##장이
위인
공존하지만
한쪽
##흥민
작곡
시우
1분기
##%
밀착
포켓몬
달아
차상
↘
영역을
샤
##하긴
현대오일
와이즈
##孫
팔았다
대기업과
##낍
눈을
렌의
##운다
형체
##의당
김현철
##랫
판매한
농
광주광역시
점프
통곡
대니
궁전
##ournal
김성주
##램
대다수
수목원
충만
##일리
분석과
예정지
그토록
소지가
수익을
응급실
寡
살펴봐야
峨
2일부터
환송
간절
응답이
회식
이종욱
취하
감가
##국사
##제출
관원
##her
##어들
선사
웨딩
도입된
銘
##오면서
수익
65
지지가
국채
##일
##걔
##내기
깐
봉산
##학대
되돌려
375
모른
권혁
오뎅
일광
準
LH는
무임
##민정
##오고
해양
숙주
오마이뉴스
##공연을
아프리카돼지
바라봤
펼쳐왔
14일부터
강영온
자신들의
장과
革
변국
차이가
연준
##뵌
유러
니콜라스
약체
멜론
넘쳐나
눈물을
선수협
일석이조
추위
오수
##했습니다
세팅
증가에
따르면
##텐트리
해당된다
제로페이
징역형
주파
일신
이산가족
針
감사원장
임영
생산하고
월터
증가세를
##해수욕장
##꼬박
전망입니다
부위원장
부부가
스스로
##위원이
환태평양
접목한
##자동
##amb
##ust
보험료
##협회와
룸메이트
한단
입장
NSA
위원은
##공은
##뮌
자리는
##풀
이상수
보건의료
불면증
##ype
심폐소
##😌
##조합
대교
몰아붙
금융회사
강서구
한빛
##광물
가구당
선사할
중수부
주주총
그래야
삼화
신다
챙긴
차상위
마스크를
괴테
자금
코비
서초
무더위
길방
특수강
배우
샅샅이
##세포
해양경찰
##엎
프로
수긍
띱
##계는
좋아하는
체의
##̈
##女
원구
##규민
페드로
응급
집어던
매니
아라
##연합
오물
레오나르도
차고
##구치소
향방
투자는
##간다는
삼각
성토
지정학
##취를
얘기하는
壯
ㆍ시
소비자물
프리드
점쳐
대신
충무로
사선
재무건전
피해를
애교
##자리
##86
㉰
海
희비
입지를
확정된
NO
딜레마
반도체
기생
등급을
이재은
##채를
##일본
##시험
쾰른
가치와
##리거
##보며
남북은
목적을
인터넷전문은행
곤충
거취
밝히
aBody
받았습니다
알펜
##체가
튤
##마의
여긴
자아냈
유지해야
얇은
허위로
세컨
지방비
장만
阜
##저감
소형차
도시가
##시원
##띨
떨어뜨려
릎
離
053
생계비
공간을
NX
홍성흔
부사장
창단
연찬회
띠
차후
얼굴이
##정신
높게
##만3000
##텡
결론
인멸
마케도니아
보도자료
##할까
##레인
##ello
하수인
대변인은
회전
벤치마킹
협상
국립과학
##분류
더했
살펴
만기
까다롭
B2B
冬
지지
紙
2016년
노인
할까
하림
유린
수증
판단하는
것만으로도
##륵
체류
소통의
3기
복안
섬유
##쎄
##ius
▼
박살
수식어
지바
임기
부끄러운
생긴다
##글라데시
##은행이
아츠
프로그래
인내심
시킨다
니콜
테임즈
아닙니다
받
시초
free
##씬
깜찍
취약계층
石
##시울
##원을
활로
최악의
판매된
쎄
거부한
프라이팬
먹는
의례
수입을
iOS
금요일
##카트니
진술한
이여
侯
선고한
911
증선
샤브샤브
##해영
폴리
정거장
禍
##rat
남양
백색
말살
아이들의
다리가
협약서
베이징
##픈
저하
꼬치
역임
잠적
##역량을
302
##진우
##형의
이집트
양천
우등
##하며
내수
합의했다
펼쳐질
순순
미망
데이터를
##자이
창덕궁
##보조
師
아편
커스텀
##였고
祚
정감
##만4
주임
##일지
헐리
발부
어차
데뷔전
##소현
구의
임모
피서객
플로리다주
안타까
먼지
실책
助
계획으로
판타
심문
##농업
필자
소화기
검사와
답사
무너진
풍자
산입
메달
단열
수줍
택하
위해서다
신장
4개의
손질
맹주
물적
##리더
비서
잠수
##ef
시가
팬클럽
혈액형
##주얼
마약
파기
기소된
코스닥지수
성교
신경전
우리가
되는
며느리
비무장
합니다만
하나금융
갯
어렸
##지요
여야
임명을
167
목동구장
유해
##ery
개정안이
이의
법무부는
석의
정교회
##옭
있으면
뿐이다
계주
꺅
알베르토
##덱스
사신
이병철
양문
##기준이
유틸리티
개포
받은
##장난
쉽지
종
ISD
놓칠
나아질
돈이
한진중공업
##셔너
##스프링
포섭
지마는
##차를
다수당
직의
핸드폰
소통과
선착순으로
##놓고
컷
거론된다
##인사를
James
##효
노트
완료했다
일찍이
##트와
##ide
##뉠
##비한
214
현철
자질
내놨
장터
베니
운영해
내실
개각
친서
이용하는
##카데
평가는
대한통운
더라구요
##동자
1조5
近
지배구조
勸
채찍
뉴욕증
다이애나
끼칠
영양제
이달
이내
주에
##산업개발
식빵
권력
##ince
하디
체결
법적으로
지회장
##美
##톤
리얼리티
망막
맘
폭력을
##리브
새누
한상
3세대
1000만
##등
단행
##비뉴
들썩
##젤레스
2년간
친환경
20일까지
문을
상충
애프
쏠려
손에
주력할
##사의
석연
##멩
김정일
##쾨
화제
자회사인
국민이
판사는
그들의
패시브
녹이
동종
##팃
##스마트
생의
##가르트
물티슈
響
##으로서의
피임
##핌
괴롭히
청이
가능했다
##빙상
2500
AK
민주노동당
블라우스
BMW
삼성
자원봉사
동향을
방법이다
성묘
##合
화재가
4대강
##링턴
방대
계속되는
힘들다
##분양
索
검증된
흩어진
##협동조합
아랍에미
헤지
증가했고
인한
경제난
단신
좋지
앞다퉈
1926
박혜미
수성
창업에
앳
##60
드넓
그렇다고
적용된다
번째
기준치
기준에
묶
깸
##조원을
孤
2020
6∼
탑재해
한다던
신청
기조를
찍을
##파이
##칠
##터스
누드
워프
반딧
2015년
영사관
호날두
보호
고덕
문이
노래
##제과
전야
의무화
시범
##짚
驅
미래에
##양군
브리티시
치는
##지먼트
한입
##운전을
한다면
KE
BN
제철소
##계획에
이것이
교실
조현아
켁
상생협력
넘겨
##코노미
조합장
타깃
건보료
👶
난입
근로시간
2001
날린
##공동
애도
예정된
김광수
불편
가다듬
260
났
가깝
약혼
우크
##볶
거래는
바이어
테크윈
시간당
Korean
##치를
한솥밥
괘
합쳐서
할머니
선수상
##內
그리워
취할
필더
선
특유
비로소
취약점
##속의
반점
잃어버린
심각
노동계
불순
원을
시작하고
끝자락
도움
해프닝
여섯
##온
##ano
관악구
##어지고
##원자
##부대
성형외과
몰리는
##소드
회의소
폭죽
원천
세계은행
깄
珪
스턴트
5월
##쓸
정다
울진
코펜하겐
있을지
뻔한
유연석
레인지
전류
넘어
손실을
필리버스터
🤗
##돔
당원
KB금융
##기관에
과정에
사건은
단위의
정보위
hsh
아요
초연
으라고
이르러
##선수촌
##◇
풉
맞추고
##6개
인기를
탁월
##인데요
##생제
권순
이룬
1300
태그
생김새
##스럽다
셀피
불편한
플루토
일일이
##받는다
환경청
##리라고
##래
요가
필사
각오
2개월
관중
개비
##던트
아모
칼라
專
격변
##위생
바치
예산결산
매월
齊
One
문병
소매업
직원들이
애널리스트는
댄싱
##해상
초과한
신호를
##잣
##시킬
아이스크림
없앤
잠정
회계사
양성
##모비스
오퍼
뼈아픈
羅
이통
내놓을
서포터
새의
##하우스
린다
##반을
判
내용은
지냈다
에겐
##립니다
##속도가
천만
증시는
올려
아찔
성균관대
##카락
불러도
픽셀
##종합학교
##이버
내역을
조씨는
##진화
씁
종묘
동
구멍
鳥
했습니다
##티컷
##설팅
床
측도
凡
저자
##방은
원한다고
인슐
##박혀
##베니아
##나는
決
확대하기로
용역
었
드린
신청하면
##감증
은둔
##티시
유기발
분양
##륄
보도합니다
회의에서는
과자
부과할
스티커
아케이드
우편
##MG
##위원회는
군정
생활고
##율이
국민대
때문입니다
고기압
GS
불협
질수록
후
##색으로
例
재적
##반도체
배웠
모금
##원식
JYJ
오명
박남
지원을
##채널
사이렌
안간
폭이
흐르는
측에서는
얽혀
UA
##예고
왼
충북대
1조원을
형질
섹시
소용이
1946
순조롭게
Instit
##맷
압박
사격
아이구
##마리를
제수
##채용
##ille
범행
단단
방송에서
##조회
동치
학대
미국으로
포병
매출과
약해진
그리운
마타
쌍용자동차
서울역
내다
꾐
시스템은
지낼
모인
이같이
숱
구라
MBA
연결하는
마련하는
강남점
독이
12만
제8
글씨
##펨
제막
Public
##3만
지적했다
데이터베이스
##트라이트
지랄
맥아
무서워
분식
무상급식
노약자
로마
매수우
사교
봤다
여당인
그제
빈약
##직으로
剛
진보당
관위
미국을
##공사
##르다
솔로홈런
치마
구소
자산가
스팩
##ww
##and
금융정보
##공장
빈도
블레어
펼쳤
##스톤
##우트
쾀
##바인
차량의
뻔
##마저
여부가
사각지
시키는
협력사
페널
아이슬란드
모창
##만원까지
올린
들려오
57
답
쏠렸
박연차
參
팀을
하와이
보장하는
速
洞
유닛
킬로미터
기후변
한가득
윌슨
국토교통부
자국
광경
182
】
리그
##of
모공
陽
쫓아가
기념비
##미노
고려할
##녀
이시아
구속영장을
##에이지
당국
##터카
##료
##기념
빨아들
##골
##느
나눔
슈퍼주니어
자동차를
밝히기도
6만
할인해
##>
사상
대부업
쉭
아래
판다
운항
이야기가
##해진다
고3
##짧
어색
##란시스코
지냈
선비
지나갈
제3
포함한
MERS
응용
##패드
컬투
나쁜
추가된
소와
제임
##전과
불가피
사태가
전면전
아래층
기준으로
가리지
전속
벨
발휘
무인
##리서치
윤리학
₂
##20
공연에
환경영향평가
데르
💓
조사가
합창
데님
사진으로
##애
것입니다
血
##8
##연상
##훑
막혔
##았지만
##ie
제한
국교
##↓
##레스트
합참
활자
초청
저그
##ring
사다
윤동
상황은
가격은
재개발
최저임금이
신고서
래요
승복
담기
셜록
##광다이오
동의
들어왔
11일까지
##프리미
연관이
아일랜드
코스트
과장
분석하여
담가
폭넓게
정도만
##다른
운의
남북경
RE
##ity
선우
시문
##erm
정밀
일면
제국
##드리는
극복하고
##곳은
불명
서울특별
豐
여기에는
오일
그윽
혜의
쁨
##7
대해
곯
##교육의
##발이
##요소
##펜하
고객만족
典
워커
취임
##bl
##늉
팝스타
150여
鎮
저소득층
##ㅂ
入
늘어난다
발끈
도자기
##출판사
노무라
##시가
約
살아오
드린다
국악
외국계
##전거
바에
기법을
유탄
##량의
독자적인
매도
게임과
ju
SNL
옆에
국제금융
치안
내과
설치돼
정권이
盤
삼성바이오로직
급하게
기관총
##경정예산
양원
무분
케이블
##됐다
##사법
##연은
우후죽순
##겠습니다
##지역을
켜졌
비영리
##진행
##코타
소프트
대해서는
전달하고
##페스티벌
Smart
즐겁
보람
이청용
##헬기
상자
怡
##포털
##ley
1945
##예산
장안
신제품을
7시
공소시효
처한다
멸치
진행하는
아사히신문
미래를
##칼
pjk
채취
團
NBA
소지
갱단
봐야지
다르게
꺼지
##싸
##자드
두터운
묶인
수감
##무진
로브
display
ii
11월에
말에는
##陽
끝없이
팻
ET
어렵
스케치
14일까지
단다
방송법
소매점
정공
낙마
김포공항
급속히
신해철
##풍을
##만히
㈏
루비오
문제제
항목을
##슷
알려져
3학년
그러니
리스
객원
내일까지
형성돼
글쎄
MF
볼륨
익산
구설
어울리는
를
ㅗ
더욱이
계집
per
잉글랜드
주상
##충
##쉰
분당구
촛불
##🤭
놓치
의문
사온
장물
명지대
자비
목조
여지없이
빗대
전의
차관보
일러
분야로
皆
테마로
다국
볼게요
끌리
필적
왝
##칙
경쟁자
중남미
불려
이안
##재판
꾸준
크루
##ild
줄곧
철기
##면은
sup
##본부를
##떼
팽목항
휴대전화
355
물거품
입주
##업체는
乎
17일부터
##V
마리아
예인
##力
거뒀다
##차별
512
추궁
##국어
의료기관
스캐
세단
너무나
무산됐다
언론사
How
확대로
암살자
외교적
좌월
박태
##올
精
견의
수종
청나라
과징
회장은
펙
로열
보유국
##로스
1986년
메이플
👍
전기전자
##ake
파헤쳐
발행을
空
투입해
르
모델은
용서
싶어요
야외
##뤼
쓰나미
줘요
전문점
청구서
생활에
제주특별자치도
사라졌
구용희
季
라인업
스타크래프트
##쵤
신설해
comm
3600
機
바클
##웨어
네스
##자에
주요
##회의
햇살
텍
롯데백화점
捨
한림대
차갑
정기
##거나
더위
감칠맛
정상회담에서
##병의
##FP
25
정적
##하시기
LG유
예비후보
##국당
Q
##자카
선지
쩝
翔
##관광
##진출
##이너
참석했다
그나마
##법을
딜
발표
😎
가가
경시
약도
rep
9개
크리스
劑
##폭이
##먀
포토
堡
*
토털
사퇴
상태가
오장
나빠
제재가
청소
##열병
페라리
신임
鏡
미세
상조
중앙대
033
윤이상
내놓는
금리는
칼국수
網
저렴하게
파트너십을
㎸
자물가
雨
정례
미공개
항고
##토건
##마르
##만6000
청문회를
臣
결승선
##팻
후천
##중을
계좌
특징을
개최해
공모를
녀
골든타임
한석규
계획이다
신뢰성
광주의
환자를
기어
서울행정법원
다졌
냉방
##TT
펑펑
##본부에
슭
애원
##스턴트
로맨
플레인
##종영
각계
이규
종횡
긴급
분석가
청천
잘리
##시에는
켑
고
냉전
없앴
참고인
얘기
버팀
말해
頓
##괌
다퉈
🌿
황선
필름
서울시
께
부동
바뀐
뷜
㏃
반듯
마저
##손가락
##al
박철우
나머지는
갈등을
달리는
29일까지
두산위브
낙인
다문화
내분
##메가
전차
전송
고인
肥
##3일
착잡
노랫말
포만
최민식
##경찰서에
##메라
##일부터
##셋
연습
徵
나타났으며
##식을
열의
주도하는
이것을
선거
종근
다투
옳
##와의
치러
주물
적용
예탁금
조정을
##사나이
권리를
☞
WK
##책임
彈
동반
부모
선적
역이
저희가
경기도의
작업에
##역할
뭣
랗
치우
면하
던지라
##최고
##부를
십억
##高
한일
밴드
하츠
realpaper
멱살
자초
각자의
##㉡
벙
사망
국토부
274
참된
독촉
##하임
##보험공단
달아났
예루살렘
합시다
특색
수취
mdh
다이아몬드
재팬
##충전
황혼
시스템
개발할
3분
7대
동남
이룩
지원자
더러운
밝기
재인
##＜
낙엽
헤아려
하는지
부주석
태종
##2차
아이돌
심리로
스프
송파구
명나라
삼
##기념관
##부림
##す
그간
##책은
흉부
부드럽
──
스카이
유사
상주
속한다
평균
똑
선거제
##강사
결정력
성장동
쟁
##평
꿇
迷
550
공간으로
徹
曲
블랙박스
60세
務
##연방
신형
##lic
레지
澄
생각보다
각기
##햄프
後
히메
6차
눌렀
볼보
판단해
말까지
증이
기반을
##품이
진격
##이사
발생하지
이를
근접
역량을
재조사
##라이브
##걱정
아이덴
피케
이따
구위
촉박
천장
##BI
섬기
백의
측정하는
이끄는
도장
부제
나온다는
요컨대
##플래
있음을
##소한
학교와
##建
으로부터
당대
鬱
기준으로는
##테크
이케아
않아야
6월에는
##레스
2040
종종
물망
탄성
이명
##리어트
及
##촤
수업
##데일
재직
勒
豊
##월드
종주
기만
##보육
생명체
261
자극을
##해서는
한국은행은
##범위
##그
##말라야
##햇
悲
가정
어야지
계획은
눈높
ö
미얀마
유벤
사각
활성화와
甘
건방
전병헌
확보
절반
연이
##장구
독식
가을철
##여고
읍
##방사
가로채
이스타
이것저것
덫
시대에
楊
받았다는
환희
교직원
Inc
驪
##터미널
맞고
##이거나
100명
사계
분홍
중소벤처기업부
아메
악용
잔재
주무관
##교환
뾰
만년
프레임
생크림
히어로
##괵
##연락
##玉
고의로
nlight
쌈
중첩
채광
야시장
##진한
양치
강과
수자
시행자
옭
금색
##용차
##ener
서브
화창
##차와
##과점
토론회를
##Ⅲ
##iet
않았습니다
모르고
자크
근래
##시네마
밸류
支
군인
남부지방
둘러싸고
한국당은
파악한
당해
출발
병합
이승훈
요란
금융소비자
추진될
##빨
조작
경치
파이어
나눠서
금빛
한보
통보를
출가
##reat
동양그룹
시상식
띌
이재만
국영
홈경기
금지령
##이라면
額
욋
황보
아줌
방문한
싯
판매액
외환보유액
되짚
복제
덜하
콜롬
코스를
##공증
불분명
생사
KGC
구요
홍어
실력자
##ö
##난
慾
오보
안정세
의혹을
몸과
입소
쪽방
##😏
##ada
대제
##인의
그러한
##잇
##가지
.
오신환
소말
백범
吐
굿
들판
판결문
##후군
거로
작중
만부
사전예약
가짜뉴스
타격이
차체
##ris
##인과
헤
##재활
한다고
##aniel
솔라
남부
에너지원
빠지는
사이트
남길
장충
충실히
##뵙
로이
격추
요통
산소
##정보화
##rc
터닝
##비오
빅리그
편법
현무
인사청문회
##위원회
지력
##소시효
##evelopment
아시
D램
성장률을
사수
##영업
##첸
어머님
주변
伴
##의정
전달한다
남
조직법
기권
은행
찾아간
밀어내
극도
발자취
原
위대한
볍
무형
빨간색
자이언트
악어
##가중처벌법
胤
건설에
920
##좋은
중심축
##벨트
복구
다가왔
웃
훙
##포스트
발행하는
한시적으로
##체어
것인가
살균제
##bc
스틸
페스티벌
수강료
당시에
하이브리드
번화가
폭스
약수
##상승
##과목
##젝트
적폐
사천시
코스피지수는
미소
방탄소년단
다중
##전망
머드
일관된
234
##동을
코코넛
##ura
황당
편견
필요할
##부는
쪼끔
##이기
의장은
카지
뇐
##차이즈
작품이다
보고서를
shoon
이윤희
##아요
있다
##렜
##물을
##억원이
다문
박삼
화상
뻑
진심
요구하며
가고
스케
##GF
탈모
즐비
##여명의
등장한
혼의
획득할
돌아가셨
견과
출범
금통
변경할
반면
반죽
방석
##­
禦
총독
伏
##왁
앞서
산탄
##정치
하염없이
##적용
격화
과민
콤
어린이들이
여성에게
늘리
흐
스피치
혜성
##생명은
##재단이
설립하고
소장
출동
##결정
국책
꼴찌
실내
바야
##미국
노컷뉴스
인허가
4도
밤새
설명한
견조한
깡패
주민들
홍보
각성
유료
개헌
##●
##운용
상견례
##타르
閉
##의실
경실련
##둬야
몬
MVP
올레드
기로
선수를
안경
##포츠
UE
주면
있으
마우스
##솟
계상
##레일
중랑구
##뺄
월드
마자
##세도
##지사
순이익
임시국
하도급
##곳이
5500
탑승객
매티스
것인지
중증
수백만
로직
한국당의
##ath
추사
##대회는
##넌
##탈리
굴러
##생태계
##일의
돌아섰
부회장을
기원전
플레이오프
도쿄대
##아리랑
농부
##창구
합하
이석기
##배기
장이
회사는
##기를
##당한
##문이다
몰렸
##주민
徽
##하기보다는
해임
제이콥
##겠지만
요즘은
悟
의견도
ST
공격력
燦
##ⓐ
에메랄드
방
##매
창동
신바람
방울
##베이스
래미안
##훤
##항공
탁자
현지시간
테레
##컨드
미일
히스
조림
욕구
도화
이유식
차단제
안구
인구
라그
상황도
협력의
##병원에
어머니
꽈
졸지
건장
기회도
##전남
내세운
뉴스가
##위원회와
반바지
인생
##느냐에
##깅
찜
시한
세아
News1
중서
자격이
##총연합회
좁히
울컥
첵
##ald
제거하고
얼굴
적막
##우지
세계유산
##자고
絃
##anna
찾지
자리로
경련
하드디스크
부유
##드립니다
##거릴
의식한
리오
5743
薰
##관광부
非
실시한
##인수
법원은
속살
끌려갔
밝혀지지
진두
참모총장
노라고
산불
소외된
논란으로
##계선
##nal
지자
떨어질
일시적으로
코스닥은
보우
폐기물
드라이빙
207
마감한
〓
규직
##之
6400
회신
13만
##속도
##가시
평균자
##햄프셔
환경과
은색
프라임
역행
鷄
판매원
##훙
문제집
그런지
촉수
걱정이
속으로
김숙
설명했습니다
##evelop
기보
法
荒
대명사
날치기
아베
곤의
변수가
부문에서는
##히드
결합해
##부담을
##투증권
##재훈
뛴
8시
하나금융투자
게시판
##IS
캔
##투자를
집중되고
만끽
360도
##개발기구
주전
사이드
##기기
한화건설
표면
성희롱
영통
완벽하게
##되길
노르웨이
이시영
##뛰기
##들에게는
김성태
스러운
담백
##되면
에스컬
규약
그까
막대기
도적
스캔
교직
영기자
조나
SM
은행에서
인플레
김병만
107
##비즈
김경목
관찰
컨소시엄
劃
다나
폭등
밸리
亞
차리
빌라
틀
예상보다
수준에서
휴대전화를
응답자의
여러분의
기호
##진보당
재판부
뷔페
##원가
##놀이
##쳅
임명장
내보냈
퐝
##됐다는
술자리
##に
불과한
1심에서
바겐
##리터
2일까지
7600
영문
CJ
卷
워크
증
후안
##테니
과학고
포함하면
##써
팰리스
경기에서
##인다고
얻게
드려야
##시스템은
##찔
말년
세종대
폐하
耀
곤욕
기금을
불렀다
범위를
동률
스크래
횡단
티베트
怒
충
엘지
Dr
##용품
##수요를
제정
민간단체
않았
##하더라도
##재무
##愛
힉
과학자
다이빙
지어야
##FF
##라노
서천군
옛
스테이
틀림없
난타
셀트리온헬스케어
아보
특선
지속가능
경부
##지주는
쒀
패밀리
부지를
##멜
로하
전환점
학도
##는다
환자의
##사채
LG전자가
사제
관료
발달
##아산
##쿼
성분이
컨퍼런스
##집행
사력
크리스토퍼
광산구
착지
이들을
사무총장은
보육료
뮤지션
냉기
대생
총선거
투혼
수군
떨렸
##구려
틀림없이
##aut
골격
공중
업종에
##레일리아
##LO
왠지
±
##그릇
##종금
퍼지
##익
성범죄자
##펜하겐
장관은
##쉘
##심리가
제갈
힐튼
결정한
네일
토네
##노총
##흐름
##RP
다크호스
##54
Bar
정당인
온라인상
내가
하모니
정승
버터
##중계
공장의
4300
주식을
전문가인
워터파크
##l
어딘지
기록부
음료수
溶
눈꽃
허리
기술적
##체계를
모습으로
##르트르
배에
교황
남겨둔
나와야
내리겠습니다
구성하고
증권알리미
스터디
경찰서
강기정
##심의
이해도
이용자들이
트위
NSC
탁의
숙원
당국에
정옥
거두
狂
높아졌다
정위
키커
평점
신전
##삽
전통문화
컬처
이관
신봉
부인하고
구현해
선수단
개미
상학
審
자명
연초
구매력
중이다
궁금한
진술했다
상식
창문
##픽스
청색
고소
브렉시트
무더
식당에서
##거리로
도배
시그마
##그램
밭
스노우
##블로
각계각층
4700
틑
Journal
하반기부터
##정으로
##량도
못했다고
엠비
조치에
##장을
염두에
行
찬
정신
사리
藝
MOU
거래일
전관
설명도
중소기업중앙회
웨스트
왕립
건설업체
취지에
OECD
분석됐다
중장
일몰
급증했다
9도
산동
##빌리티
4조
##밖에
규모와
아이
rights
이쁜
##eb
승차
##권과
신뢰도
스텔스
##나마
모를
##마차
105
바닐라
발표에
좌절감
서원
부여
##혀서
귀촌
##CE
평균점수인
##25일
춘
동백
백발
##뼉
웟
조
튀
##개발은행
##딩크
POS
##꼿
##장학
걸쳐서
시연
사진전
낙천
메이저리거
보면
새우
##된다면
여서
##의회
재벌
이사를
##위원회를
테너
㎿
김승
고여
##러를
특별공급
기회가
##EX
태극기
노회
##력발전소
6개의
영원히
굶주
##좌석
회장직
기대주
코디네이터
은은
이재민
처마
로움
얼마
절묘
혐의를
받아들인
사모
##력으로
벡터
카지노
##皇
##윤
화요일
실질적으로
생각이다
##pl
뉴시스통신사
토벌
쿠르
윤리
e스포츠
맞이한
##퀴
측정
싱어
밀린
엇갈린
안정화
대항
##bin
##政
오스만
comp
책점
##경궁
分
심장병
요로
인어
황량
쓰레
##직원
課
처
위기의
성장할
사태로
하람
20개
사무국장
##쐴
햔
생보사
##추리
하나대
희망을
정해진
급속도로
구실
매달린
까칠
##강호
고쳤
거르
교육과정을
애완견
익대
6명
뽐내
원광대
코스트코
##CA
洙
안다
먹고
SL
중학생
게임은
입
사색
케네디
##오래
무리가
쌍용차
처리할
합니다
국가에서
##건설이
##개를
##했는지
큼지막
구기
##조각
Per
6도
스케줄
감고
번
유성
지정돼
뼛
지평선
연구용
공
입장차
##ious
##den
다그
설치하는
해외로
위험한
탈의실
으
중국은
com
엡
##내려
김준수
사흘
##붉
대국
자꾸
나지
셀트리온
쇤
잘못
받았으며
혜화
##겼다
끝내고
##센터는
하이드
공실
사유로
편의를
久
ks
000
who
선율
영생
##모토
188
##숟
##춰
##센스
배후
데려왔
思
역동적인
##일반
##딩
내버
샌
전세계
우체국
##력
##ars
##았습니다
##일드
횡포
돌고
뒤처
차곡
탐지기
##elle
##있어
사실과
김병
하셨
회복을
남경필
吹
대항마
Ma
의안
신효령
문대
연임
살리기
저우
민아
교통수단
다롄
케이비
시위
배아
미국산
조희
닭발
미나
중략
해고
것이냐
##도현
##게임즈
원제
신고했다
##🍫
일행
筵
경기침
강화하고
##鎬
정의화
했지만
전망도
떠나
적색
형수
300억원
히토
회사의
##국
원인을
톱타자
장점
그만
필터
##stagram
##가리
재소자
청소년
관람할
남발
터진
##가구로
펜싱
감췄
청구할
기가바이트
걸그룹
導
##장비를
##들을
광우병
##션
부위
끌고
##일로부터
산업재
내려와
濠
貞
젓
방송을
하락할
움직
蜀
##크스
박문
규모를
초기에는
600만
조영남
##개의
컨테이너선
급락했다
보듬
손아섭
##hyej
인천시
나미
玉
기관
태블
비어
##사무소
상대로
##植
WBC
##17
##만족
영동고속도로
##옛
내자
배의
##32
말미암
통념
주어졌
중앙정보
##iver
##거진
신디
고교
##속도로
##네트웍
##자나
드래곤즈
셋
##기가
##체육
국회와
ㆍ유
번질
진가
연말까지
논의될
스택
차량
##민석
유키
영토
장구
민속
뭐가
학생과
어긴
살처분
전까지는
기갑
##내용
현대차
##기술이
##축구연맹
쪼
가구가
출시할
派
토론자
권고안
體
비주얼
아이슬
우완
강인
구속기소
1974
인수해
이동국
참여
말하고
##ons
포괄
##정화
에반
드러
이뤄
레코드
##청사에서
13
면밀
안랩
서스펜
사대부
얻은
##아먹
전세기
##불퉁
열량
폰
문서를
입맛에
셩
인지하고
乾
파리바게
정리한
푸조
본연
##7천
이루어진
##하오
##RC
##경이
부딪쳐
라거나
재판
불완
##off
엉엉
카로
동기
🖤
울림
카니발
SF
생생한
뒤
똔
##AAD
##택지
##단다
것인데
샐러리
따로
연종영
져
##스를
당연
먹일
상권
장현
1000만원
아사다
##호르
닌자
##츠는
실효
구해
선정됐다고
1시간
준플레이오프
리비아
기관사
앞둔
차비
##증가율
포스코는
예방
##끕
향응
##약이
攻
민요
환자는
이틀간
##홍보
笑
271
학생들을
##45
##WC
서류전형
추경안
점심
통진
기원
모퉁이
빌보드
기뻐하
프로페셔널
종목과
포르투갈
비닐하우스
수녀
노바
정량
##ury
합의서
매일매일
##합창단
처리장
글쓰기
이어지겠습니다
덩
宜
블라
GW
진안
구축과
쿠웨이트
사흘간
옐로
마크
시장점유
주문을
출시해
자체에
강화했다
김기
한국전력
엄숙
이슈를
##재현
##찻
갈매기
sy
##ky
배심원
##urg
작인
이쁘
부관
앨리스
##세계
허겁지겁
설립한
모멘텀이
웡
초안
업종은
##ou
공로
박지은
직관
힐스테이트
언제든지
렉
執
신호
##우병
SK케미칼
##시황
수출입
##마비
조정하는
각자
기획자
##미리
따른다
경원
빈곤층
올랐습니다
##없이
대행사
##데이
천차만별
##외과
뛰어나
34
고객들의
인프라를
지능형
밝혀졌다
아인슈타인
문화콘텐츠
들어간다고
원외
갈무리
확대
합금
국토부가
覺
동물
##프라이
1분기에
##힘
제거
##대다
돌아오는
##ne
##뀜
건담
##×
든
터지
비스트
##진을
연결되는
탑승자
쏟
명목으로
070
따른
심재
주식
입안
발단
찾아가는
시간의
HS
갈림
##경제자유구역
##북
회삿돈
##일을
쉽고
항로
도쿄
창녀
##쌈
터미널
피라미
##보다는
들어줬
제쳤
뮌헨
..
마야
##뻐
원룸
##잔치
헌트
##버전
##와트
##9
자유로
앵
주시
시장에
##적거리
##임즈
마오
총장이
임무
使
杯
##췬
인수
파출소
이해하고
권성
5∼
##비서관
평화통일
사진이
법조계
e
##화하고
자발적으로
프라이드
분쟁이
처한
방조
마드리드
조치는
자세로
##국악원
##MP
가석
마셔야
조종사
대다
현재는
지시를
3박
익히
향교
시를
수학자
너무
짜장면
##조에
제품들을
전격
##항쟁
지원책
7만
500만원
난립
정족
晦
파노라마
관인
AF
##체류
寫
凍
우선협상대상
##ir
74
명실
야기
남대문
고파
취득
발매되
가로질러
##레븐
그림자
##응답
수단이
흘린
##TF
상품으로
미래지향
수기
경기도지사
공영
재검
##떠
라쿠텐
##문에서
呂
몰릴
김동현
##웽
청도
협회장
##성훈
##걸리
브레이커
##체를
인건
특감
##서에
리처드
미
##비율
화기
특징으로
##사항
##니즘
겨루기
펼쳐지는
##줘서
정례회
이야기는
일자
메탈
딜레이
파충류
Gold
마이크론
단오
##학기
부문의
溝
핀잔
##소방서
심혈관
내포
사파리
##론이
##꼈
탈북
##MD
철군
딘
48
##○
##안으로
파월
nh
태우
민첩
다리를
넷마블
한국마
##차대전
나았
2021년까지
기전
##I
##콘
우간다
체계적인
설명해
03
기조
##esking
2014년
조금
돌고래
랲
해역
태안
연결
妻
무방
새긴
단독주택
辯
##으로의
MP
濕
효과적으로
철학
##꽌
처단
임금
성과
##사업에
기둥
홍익
1∼
##세까지
갱
129
##park
×
정계
이즈
칙칙
소방차
기아차는
연봉제
순항
##뱉
대처
시민사회
격전지
아니기
하나만
##RO
오신
조성될
농어촌
그지없
竹
감산
황희
삼척시
수학
브로드
브라더스
bp
성교육
선진국
치타
##하겠다는
미술
18일부터
##배당
##틴
그렇
쉔
유종
8K
거제
맑고
엔진이
숙박
나츠
아이가
난조
영자
시설은
정력
##씨도
조물
만만
##반기에
##재판소
제1
幼
##뫼
##자료를
때에도
퇴계
한국개발
총선
받으
로봇이
시교육청
도넛
##지난
전화
슈즈
없다
심폐
math
##애미
격려금
슈틸
우여곡절
아시아경제
##업자
##촨
병장
##정부의
##지방
##近
환수
섬진강
순으로
처했
보수가
限
건다
斜
##틱스
授
대화가
46
세세
어쩐지
위아
식민
보호구역
华
성자
톨
##시설에
개방
점퍼
치료비
##구가
난자
업과
##000만원
##셜
모두발언
탄력근로제
비해
돌멩이
CG
세대가
유례
성남시
구글플레이
##나스
강유
for
##으려면
고지서
개발하고
5년
熱
잭
##f
##실
##로이드
장미란
부실
행복감
패러
교신
운전자의
##탭
대한적십자사
##계열
연예
##러닝
##은정
다이노스
누군가
경희
건양
약자
한다
라나
놀랍
뒷좌석
버닝썬
##1만
伊
원내대표를
머지
보상
로젠
첨예
황이
대장균
센터
유일한
##향이
차기작
교육청은
EPA
옌
가슴살
##澤
비타민
보이
얻는
##참모
경영학과
무한
얻을
##넝
##데자네이
의약품
프리미어
羽
건가요
##치는
장근
총통
위치했다
논문을
孝
주민등록
ke
##짊
Inter
노벨상
흘렀
고부
민수
##이라는
##트너
도지사
컴백
협상이
마련해야
침대
반품
홍재
생산하는
줄인다
##리게
##문은
계량
독백
조명규
옮기는
단체협약
듯하다
6월
##죄로
##율과
공수처
##공시
아래쪽
닮은
##원지
##福
싸워
대부업체
답답
서울시의
행
##폭
는다
庸
##튜
대웅
신영증권
좁아
격리
##쩔
송치
스톡홀
##th
2020년까지
軟
##야
##헌
절감할
빚어진
脫
기획재
포함돼
##ube
죄송
력사
伸
##집이
##경비
맴돌
부려
변모
나시
##단지로
해양수산
산사태
##거
이해가
동북부
운
好
지금
##했었다
##광주
##쟝
서의
아이들과
##먼
달력
각축
영어를
평
데이트
피할
발송
##로리
개화
넷플릭
##길로
##sc
##뽑
강제징
거든요
여쭤
건실
방향으로
##자스
도루
舒
##실과
불매운동
임정
##턱
가능해진다
##주며
##례로
돼지고
##조성
미치는
클렌징
##당초
##갔다
마음으로
탈북자
슬램
쳇
##만원으로
마산
모티브
##미스
어쿠스틱
했으므로
문인
飾
같지만
배정
감염
여백
##채
##결과는
청소년의
마약류
울지
법관
배워
상향
3천
##출자
판매되고
고체
장소에
나들
아닐까
流
##삐
##글스
파헤
##예우
면담을
증가세
福
염분
보면서
공론화
순전히
그해
##밉
특수활동
박근
##데시
문턱
私
압권
撰
짱
힘찬
##23일
와이
남아프리카
Charl
강민
로드
엉뚱
부질
##브리
칼빈
고춧가루
양기
##1호
강철
달달
戊
디자인을
취침
목적은
아줌마
보험의
##으리
이전과
##깁니다
##며시
오릭스
계속된
전유물
##아버지
##다이스
##작가
##icle
걸으며
##쑹
기온을
반쪽
##뉩
마트
무대에
1위인
우수작
말끔
산책
뚫린
식과
条
해소될
##침체
유미
바닷가
뎌
스마트홈
수에
시각장애
지어진
앤서니
되지
##기준
피트니스
c
공신력
피렌
주인공
경부선
바이올리
호러
맞추는
깜짝
##개선
눙
##구르
다단
de
24개
##답을
위로
결탁
피랍
군사
##윾
후속
민주평화
壓
##사업
##치면서
공동
빠져나오
가스업
매듭
슈미트
29일부터
條
신규
정세균
##arl
급속도
행동을
보여요
치솟
물갈이
##나르
黑
##거림
주심
공문서
쏟고
발등
용돈
캬
라스트
포커스
동그라
첫번째
##왔습니다
의회
본점
버림받
采
고집
To
##리스타
수치는
발톱
3단계
억원
##머니
퍼
reg
석권
변경
선대
##평가원
팽창
홍진
##石
의견으로
매겨
때론
명화
팔찌
아꼈
태만
##하기는
권세
Tim
인체에
엮
국가안전
##세관
스트리트
급하
보험업계
고질
멋있
##문학
배기
뿔
2015년부터
제왕
사기
고속도로
녹차
계획도
La
제안했다
틈타
##웩
##공인
##되기
럭셔
##개선을
수석대표
Pe
롯데그룹
영덕군
지역이다
도입한
문화유산
계획이
편리한
##edia
뉴스룸
ニ
플랫폼이
##함으로써
##pyun
##뽕
23일부터
용선
##붑
소행성
관계자들과
실리
하늘이
철학자
잡아먹
지원도
##IB
우에
구월
고려대
남해
되면서
일부가
콜
흔들렸
##煥
祐
호암
본사와
격앙
자부심
##4억원
성공을
발휘할
천박
연기가
3세
길어
호박
거느리
인당
한국에서는
때문이었다
조정석
기입
매달리
중후
같은
시작했고
휠체
수력
국방위원회
사태를
脂
지방이
##보험료
어우러지
조모
##메틱
저수
교육감이
##확인
이마트
154
##쌤
꼬이
발표회
우선협상
차서
신당
사칭
금메
##喜
리바운드
심심찮
##row
오디션
##킵니다
승선
금상
김영
##셀로나
정명훈
미네랄
##우주
송라이터
클럽
바뀌
지녀
##캐피탈
녹여
##어놓
콜럼버스
Polit
의용
근무하고
수사에
동아시안
토익
除
저널
빅데이터
奭
목구멍
##irect
징병
##46
헤딩슛
##ah
감수
않아서
동메달
조사원
후궁
##종이
환관
패스트트랙
문산
미노
##버넌
새누리당
일식
통신비
피워
week
先
왜냐
초까지
넘나들
VC
마신
퍄
재미있는
장관
일품
삼성은
박진감
시술
階
9억
아울러
회장에
##었으나
##예슬
##그룹의
청와대에서
채울
고민하고
열차
##상사
##모닉
##사다
홍보를
열거
고혈
우승컵
우주인
박쥐
##봬
12월부터
대지
반면에
##IL
높아진
SUB
결격
##河
이랜드
##개발을
##기
산청군
강
소재지
케이드
##카는
##반구
기자가
양희
##eep
미련
##사이언스
갖춰져
가하고
의하면
미흡한
복의
슥
성사
기울여야
yj
귀추
##들였
##rop
瀧
볼거리
들으면서
왜군
##골드
##였으며
긱
집회를
麵
##우라
읽어
급히
##화도
술의
##분쟁
라이드
최소한
걸리
삼둥이
멸
##뉴
諫
채
비롯하여
1시
##랸
진행됐다
감옥
##듀
950
아동학대
두고두고
십니다
塵
츳
텐데요
명제
스탠다드
세종문화
통해서
엄기
##비의
##갈
##청소년
##한다고
베스
##정은
대응할
도와주는
##대구
남조선
보드게임
##14
네타
방송인
으리라
외교부
적응
프란
다이어터
賢
팃
죤
혁신적인
총장의
##지와
순양함
曺
##협회는
일자리
꼽
파괴
처칠
겨드
##따라
헛스윙
##챙
불쑥
죽여
업인
비슷하다
##成
한국경제
분야에서는
지퍼
亭
##죌
정화
top
조속히
서치
거스
교습
펄펄
죗
##lee
레오나
PDA
790
쏟아져
橋
900
마찰
급습
공주시
##넬
악영향
높이기
操
##ET
내려놓
펼치
앞당기
총리실
##잭
입학생
중으로
blog
이기
전이
분비
##장자
펼침
##he
👋
건지
지드래곤
계양
모차르트
빅딜
弼
💕
지침
임원진
殊
월동
요원
사건을
진입
잉글
##민턴
랬
직함
병원에
편향
익사
경력을
매스
만화책
로이스터
는구나
京
念
엘리엇
불이행
7도
공청
##💘
##conom
당첨
##ik
쳐야
플래카드
황진
공공성
##치와
피부를
최선의
펀더멘
엇비슷
2박
303
##라미
곳에
바뀌었다
##혜택을
막힌
샤이
내의
복부
탕수육
후보자는
케어
자극
탁구
390
억새
결정됐다
임상시험
생각하는
##대강
수리비
도련
공사
유니버스
##늑
수련
##잦
테이프
평소보다
못하는
##세훈
망설임
불안감
##信
##물관
미투
##00원에
2020년
##커버그
1988년
슷
##성적
투하
호치민
올라와
성전
종부
관방
##석에
프로그램인
##엣
테슬
자산관리
은행을
당구
##인들을
##자루
사우
한은
##모를
으니
##하마드
스몰캡
DF
눕
멍청
구세
좌파
판정을
펼친
##box
##워했
수표
외교통
##중근
앨라
암반
속도감
동동
공문
##스케이팅
담당한다
벨로
創
차입금
그분
조동
스테
라이온즈
뉴시스헬스
집전
##田
석이
박하
모듈
국과
이번엔
̣
##룸
강관
맞히
##생활에
서남
##문화의
제외하고는
비스듬
##비율이
에스컬레이터
오스
해운업
보험사
좌장
팔아먹
##IM
한국프로
요리사
##멨
##프트
것과
##프리카
##넨
##면에
적용된
##파워
##어서
G
여론조사
아니냐는
##구석
레프
키트
##밟
##타고
협력체
에셋
##센터에서
밑도
대결
한국여자
항쟁
겅
안현수
도르트
UFC
즐거워
##군을
##NG
##BA
송전탑
자존감
탐욕
암스테르담
종래
시픽
##임새
俱
##점포
장중
이게
이밖에도
일정
인기몰이
봉제
##산면
데미지
odong
##ler
낸다
카오
##화나
전개
제출을
##배구
정두
감금
우려하고
물음
두꺼비
의경
과대
공소시
회관
저를
활용하여
토트넘
번에
편수
초판
,
##쐬
패럴
##막지
청산
괴롭
놈
허브
##독한
연소
비오
been
##사랑
나탈
위반
자화상
設
샷
어두워
지상군
알프레
字
걸음걸이
지휘부
##단기
##살을
양국이
표범
회사가
구축하는
##절
문희
향유
세울
국가대표
변한다
52주
##트레이
엔
바가
스탬
오른팔
대표적인
정산
온정
주길
재개를
아스팔트
길목
하마스
엄지손가락
소렌스탐
##수원
신자
##99
대담
##중일
타이완
##저나
擬
무릅쓰
##회사
다가가
김태형
1929
대상에서
鎭
76
자면
확대되고
맥
##회로
str
복귀전
프로듀싱
손자
선급
생각하지
믿
지연
##80
조르
초동
##개월
원칙에
으셔
내공
수행한다
##제도의
##루엔
서장
즙
흔들릴
##클래스
버려진
재조
수요예
##리로
##상이
##스토이
무더운
축산
##었는데
樂
방망이
sl
지원과
기존의
##동강
##미나
저속
18일까지
##탑
호재
대화를
판매량을
회사다
카리스마
臥
붙
전처
##인터넷
필수적인
멸망
##황후
공효진
되돌아
屯
##龍
잔류
##회에
신선
##레트
감원
끊임
##수권
蔡
##스태프
##대회에
윤상
입장권
전원
남해안
216
강원
##王
명령
접착
##개에
丘
##헹
접수
사무총장
체구
항전
북한산
##AD
##커즈
菩
##라드
회견
넷플
다변화
방송은
여종
치명타
하더라도
Min
어쩐
버
理
위메
##대전
4차례
나리
##명령을
정몽
털어놓
로스트
편차
탈주
재배포
스킨
##≪
##모집
걸림돌이
##흐름을
상담실
월화극
나타낼
##sy
앞에
맡았던
타이젠
공언
沖
項
##ember
뜬다
정치에
##득실
밟고
##◈
야영
조지
레전드
기관에
스러
##오리
민가
인방
08
타국
경찰의
던가
양평군
迅
##년간
금자
카렌
테크놀
″
저렴
간병인
##서점
군부
한양
##티모어
리옹
##디오
유념
세워야
가본
##커머스
림프
공천
예를
##그리
프리스
곰곰이
이재성
드레싱
감이
##벳
契
훑어보
##간에
라쿠
나라에
본드
89
지켜
수습자
’
현황을
휴스턴
##네이
뜨겁게
｜
평범한
박주연
만들고
##사유
면의
여호
수출규
배가
##내는
London
##저리
##자에게
교수의
훈계
오뚜기
LCC
##멈
레퍼토리
가닥
##튀
##당이
멜라
선취
紹
CSI
http
굳히
확인했다
조사의
##론은
instafood
시장에서도
뻘
호소하는
높아지는
##미
2명이
廉
##끌
EU
투표율
초과하는
9억원
보훈
칠곡
##🍴
한재
크리스티
##그룹에
##强
진지
제기됐다
##치과
沼
강운
##건강
프라이머리
레드삭스
변동성이
마누라
切
뮬
압수수
억지로
일주일에
##보의
Ben
##설계
가솔린
놈의
박현
놓인
유흥업소
온수
##소로
내용을
##정당
遊
실사
현대중공업
렘
템포
원회
패딩
품은
담겼
행사에는
매기
두르
가져오
0으로
받아왔다
隋
옐로우
올라온
찰리
모바
뽑히
등에게
카니
불안감이
강조한다
스키
82
벅스
##도와
실시하고
喩
올랜도
매료
##혹
겸직
진출할
도맡
고마
유모차
방침을
평택
##비티
1심
신속하고
qu
##흠
키울
저항
인증
현대모비스
정안
아니며
기대감
종신
제품인
FR
현대로
김기현
떨치
지장
##매매
##포지엄
이라크전
뜸
내세워
Val
끔찍
7200
사들이
넘어지
##플레
지청장
##itt
후자
780
개인전
더불어민주당은
활기차
쟁쟁
ᄎ
관계에
팀장은
##하십니까
쟁탈전
고마워
##쪘
거시
강했
옇
##ux
군포시
순식간에
사립
장쑤
여주인공
쿠로
조범현
##블리
프라자
조항이
감내
杏
##함이
1천
러시
긿
든다
거용
畿
대단
싸워야
벌렸
출신으로
식재
동력이
♥
상관없
사족
순실
##라이즌
스파이더맨
##니가
##메인
국민체육
장소로
콘테
의장을
근면
##동에서
똥
요코하마
##고가
쬐
보냈다
알아보
태평양
교육감은
챙
헿
문명
여겨
한통
##서에서
잡아
##단장
##ness
유지하기
강렬한
선보이는
재판부에
매장량
##카가
조만
인가
명곡
날씨에
파트너
傷
##사키
휑
리빙
##플랫폼
##국적
증가율을
도입
글래스
수준인
##ience
등재
##ency
ｔ
고농
##회관
##교는
클라라
238
사항을
##라이터
단호
416
업체가
교향
쫓아
2300
##명이었다
깊숙
##귐
외부의
줫
135
분지
김제시
jaelee
서비스에
##대원
퍼센트
##포동
마리
산다
있기
##포를
및
결승
##그러
5만
bclee
##내며
만약에
보여준
피사
중대한
보험금을
호재로
##인협회
##니스타
집계
장전
녓
뛰어나다
節
##ul
모회사
소비자가
##안정성
껴
낫
연꽃
8월
수집한
백설
김광석
지사
1960년대
##산림
##쿠르
육박하는
맣
##수익을
진출해
##로그
약속
##자가
##부담
베스트
자칫
##쉬
쏠림
##스트리
이름과
받아들였
뗍
질러
맏형
코웨이
최다승
참관
정성룡
가르칠
핸드볼
드레스
설득
유소년
경질
춥
포츠
사라졌다
머리카
##200
##약청
시몬
붙박이
##틱
감성
수여
프리
##양의
합의금
##63
##왼
##적이라고
별명
비축
보형물
변할
壁
경선
대우
생보
생년월일
도울
##ward
등록된
##거리는
조별
물의
작품이
넓이
상품은
문집
성년
620
##애나
그리스어
서울은
직과
浩
##uck
津
예요
망가
흘러내리
후진
웃돌
ㆍ미
플라자
##펭
헤딩
든지
병살
돼서
역을
18년
##경마공원
ㆍ한
숯
돌려
황성
##덖
##견을
막강
##드름
##금지법
진영
##칟
보는
##캅
키우
한이
##인터내셔널
부딪치
표제
이직
걷고
공공기관
만개
글에서
업체와
##농
##침
다녀오
부인의
##상환
뱃
전업주부
EV
뜻이
오픈을
탯
폴크스바겐
기쁜
근속
체제를
전영
수변
화사
고비
##다오
북스
상담소
확실시
##시코
##덕수
손쉬
축구
토로했다
좌익
##그럽
어우러져
자회사로
발발
열릴
진위
온돌
막힐
십분
금세
현지에
말이다
참석하지
##배가
분권
위협
폐교
##걷
스며들
자신의
책의
심지
이인
제6
성리학
##총생산
##주사
최규
##상가
은커녕
공략
##흰
##루트
애용
##자다
이상의
휄
한계가
소집
##지우
kyd
자체의
비쳐
천성
판매량
치
##급의
털어
##컬
2400
##arg
투자자의
카프
박진만
국보
전문업체
女
이운
제헌
접근
급박
숫자를
것이다
사비
대전의
사살
외화
힘겨루기
##ives
##동에
댁
활기찬
판의
기록하며
이루어지
또
출자
장대
##emedia
##톡
대부분이
도망
##촙
해인
옆
戴
경관
염소
##자를
법률
資
내쉬
비에
176
찍는
화합
레퍼
##분에
밀레니엄
힘쓰고
주점
##화를
영업정지
택할
서정
綬
창백
650
신분당선
DB
든든
해산물
최수
평가된다
인프라
불을
니체
한림
1위는
얻어맞
##나리
파트너사
##요
宝
##집을
지속할
MWC
부회장과
빛이
제시
협약
말
구수
##문이
##양행
사활
정권을
송유
운임
환각
군데군데
출신의
관상
휘청
소극
완장
목표가
오토바이
예절
선보였
거머쥐
##검
이모티콘
통신업체
##業
갚
전반의
賠
외자
바꾸는
일곱
##찬
프렌
놓였
허벅지
경남
##ogle
##🎉
##밀리
사재
차질이
듈
##000만원을
개혁안
무관한
성공했다
보고를
##사업본부
송가연
##ote
##편한세상
비수
##̣
세액
예체
##말을
##23
속눈썹
진땀
##지고
여부에
##츨
편하게
롤러코스터
格
입회
##😋
3분의
박상수
강릉시
추인
##ont
배고파
소득세
##手
##㈜
짜임새
최루
##들에게
##트릭
민주당과
인지도가
##거래위
TITLE
어려웠
길들이
같
무고
다르다는
기록했던
##商
발레단
현상
보편적
답변했다
邊
선택이
##청소
ephites
합리적인
냐구
##웜
지원한다
범했
##menot
꿸
모두에게
중심부
뭔
학술
다하겠다
명사
유화
파란
列
가꾸
경의
방전
식별
우선적으로
##미술
전략을
시모
245
대도시
비용은
롯데마트
##레이드를
직종
큰소리
##무기
##ph
나진
잦은
제우스
다양하게
가치
##앎
산업체
리먼
##식은
지속가능한
센카쿠
큰술
##뮐
경품을
우유
인상은
스탠드
제작한
콴
##오른
지식경제부
러브콜
DMB
💦
얌전
눈부시
필요가
고위험
이학렬
리스크가
타살
880
흐느
치러진다
번뇌
pet
寺
##재료
伽
되어야
차장
지수
SK하이닉스는
플라톤
루니
큽니다
이주민
시애
##res
제인
yoabc
으면
오랑캐
##크가
뒷면
아용
였던
차려입
영이
찾아다니
##일러
물리학자
설계
지었다
##탓
백혈
정정
의미하는
남녀노
IoT
편집장
숨겨져
접견
##앓
데이
대판
주말에
이희호
한국GM
隆
냔
때문에
30
기가
##탕
떨어뜨
부위에
##뤘다
곗
상서
제후
대학교
##4년생
강영
##뀄
플라스틱
사회공헌
##홀
스캇
미세먼
활동은
묻
여주
##장성
공부를
상당수가
슈어
남성
제공하는
##사례를
팔로
유대인
목표치
캐스트
엿볼
조별리그
손해
사만
제공하며
##재단과
후임
민간
독일
들이받
疆
유출된
그려냈
치료에
거시경제
신격호
바르셀
난민
##쑵
해명
쏠쏠
알리고
육
이미지
지역에서
민망
취재진
미생
즈음
교장
쐴
기능성
소각장
끼
선착
인큐
척하
##만원에서
각
안종
##역에서
##노프
분화
파드
##나요
##끔
톱스타
출시했다고
코스닥
이주
爲
부끄러움
부연
인간의
김도
아산시
스나이
떨어지
##생은
##너지를
덮여
그룹은
##저런
그러다가
개리
3명의
군
보문
跡
John
기대되는
손승
협조
터무니없
샅
##보도
흉기
##bid
김예
씨앗
##obal
##퍼스
소년단
적기
##대는
백남
음질
임진
##덜
발언은
##본인
浪
상역
올라간다
떠올라
##뗏
mil
慢
원료로
학부모들이
성시
반려동물
어린이
그것도
장석
충북
한국전력공사
례
영상을
넘긴
##ative
가릴
##였기
##aj
한숨
권총
타임즈
남의
500
외국인
외무부
명장
부부는
A를
##저씨
永
##단과
패했
##체제를
6431
카르텔
무선인터넷
##〉
리조
중순
충청
##AN
눈으로
강대
지도층
이후로
##과학연구원
서린
##뱅크
테러리스트
##路
공정거래
##年
빛났
##順
누구에게
##오염
자신만의
기부자
중독
두기
반영됐다
낀
말미
##판은
##율을
##베
##군은
주변에서
특수부
召
##튄
##과학대
##사실
꿈틀
##내
고고도미사일
미혼모
드리
벌인다
##에다
완성
사거리
1939
대별
목적
극락
묄
##기온이
first
박람회
드립
ㄸ
사임
판매를
ROA
명예
만장일
의구심
BIS
순리
신체적
윤다
클레이
명종
떠서
살린
그치고
사업은
##레라
창출할
이유가
稅
##ayer
##회의실에서
플레
유치원
뎬
깨졌
인증을
##수용
삭발
##연을
피의
혼합
애플이
선언을
있었다는
住
방통
특별시
##많
덟
수훈
제치
구매를
다방
통행료
형법
혼잣말
##oto
개
##se
륜
블의
학비
##윳
청량
동원해
##변화
심히
워너
현대차는
악당
가두
el
##냈다
2분기에
훈련장
검찰에서
가능해
담합
짠
강성
쓰리
##진다면
##환자
암호
찾아
스트라이커
무디스
유목민
##명으로
교수가
겸용
mus
니트
흉악
490
메디
변화의
데뷔
자메이카
힘입어
##동부
##]
콱
회전율
무언가
위자
조제
수영복
고관
##악한
##드레스
배상
굴려
없음
##명은
이길
경산
##수준을
검찰과
##쨩
장마철
보고서에서
신청자
한류스타
막말
흐흐
농축
살
##등에
중요한
308
상대
Gre
불꽃놀이
개념이
뛰어
올리는
볼티
2019
통합진보당
하이트
걸로
##rama
회사채
미흡
요동
박탈
감독이
운영하는
25도
훔
##🏃
발기인
대자보
##라인을
난쟁이
넸
GPS
充
펠프스
비디오
외국인의
여의도
주식형
장관과
대들
수립하고
각도
##띕
권단
장소
##례를
크리에
솟아
가능성도
들어맞
6800
생화학
사안을
##家
이후에는
##크
패러다임을
지칠
칼
반성
미친
스콘
깊
바라볼
비거리
기대된다
활주
割
끊임없이
행렬
볼카운트
##만7
구설수
까지
##에게
그랬
보복
올빼미
##진아
##올림픽
카메오
추정
##422
부족으로
餓
되었습니다
##라이언트
㉣
김해
스폰
환생
여객
##겟
010
##호로
자산이
정보에
##플란트
했는지
엎
衝
투싼
아파트는
재생에너지
버젓이
대해서
것에서
확대된
30개
미분
##되면서
스노든
공심
##만명의
당연한
seoul
지디
본고사
런닝맨
규모인
선발진
life
대납
명회
비즈
모델하우스
##것도
##막
##투자증권은
회담
##납니다
일회용
##마토
페미니스트
통업
짱짱
수석부
##고기
##솔린
반부패
원내수석
암살
적군
##러는
8일부터
아군
이계
모호한
학제
국토
중국이
최민수
말로
Pv
토대
##페이지
##수급
리라고
##자마자
거실
손꼽히
##雄
##기고
##시장으로
개그
정크
흥정
가능하고
착각
라미
26개
##냅
##금고
올렸
항거
플래그
##바겐
되고
외과
노하우
##상은
부담이
##호흡기
넜
강봉
##eph
홍준표
모기
찌개
제시하고
벅
°
1995
염두
##첵
##인권
이머
都
맞붙
하회
내연
時
##능력을
點
##④
##감독
##만으로도
북새
코디
KEB
라
화천
선택할
때를
생수
이완
친다
기염
걸어가
8천
ㅓ
버버리
추산
들어간다
에피
AFC
꿈과
선실
##됐으며
춤
공정성
깰
지른
##평등
나서고
프레
삼각형
춧
##재산
##코아
최형
상승을
펼치는
구호를
1982
##ike
또다른
건수가
적어도
##꿴
되기도
마음고생
밤에
##혜경
##경의
5천
믿기
고구려
##모델
##메드
ero
必
취해야
독살
맞을
##툰
코퍼
미간
##작년
##each
의료기
전역에
##나항공
농지
光
소가
늑
증상
##연구원의
추미애
내버려
운동이
꿨
##누
반론
##브로드
상당의
최용수
失
##나비
페니
차라리
포미닛
##할
##가스를
앞두
##괄
횡
DNA
3호선
홍진호
옮기
감소에
##12
무효화
늦
모델의
##걀
##곳에
그룹이
NP
渡
승낙
오픈한
##字
편의성
클러치
올해도
회상
ad
##래를
찾고
kjh
##몹
몰려들
홍문
습니다만
苑
설이
개최하고
명절을
붙잡
밸류에이션
暑
유니폼
판타지
tvN
카이스트
##쉈
여부는
남긴다
禪
김대중
경제
선고했다
강화한
朔
##ib
부정행위
예상
폭격기
주장했습니다
##뢴
##주부
대지진
CPU
監
Paul
흡연
학내
서해안
기념사
장미
기술력
##킨다
기한
동거
##OP
아닙
그냥
##두
##도록
손연재
##다니
##중개사
연장을
Interactive
전국교직원노동조합
의병
발굴
실험실
##분리
##운지
참석자들이
여직원
탄수화물
시작한다
사람들과
준공
##분야에서
중구청
##관리시스템
닌
차이나
대기가
다룬다
마련했다
남다른
##이후
합격
##sp
전해
한번
##시각
요인으로
관성
위험성이
榜
윌리엄스
##예술
##했으나
배상현
APEC
상공
업체에
##됐지만
마지
하시
되겠습니다
아무것
목살
스트라이프
안에
브랜드는
단수
부담도
파라과이
행안부
재범
토론회
刑
한국가스
##탁
口
뜨개
인접해
들렸
총궐기
##경찰서는
##균형
살기
칼날
재조명
성장했다
결정하고
6명의
##정이
지하철
이준
안타까워했
내란
뽁
##겋
##편이
엊
분류된다
상장주식수
사상구
##지능
괴로워
교단
수비수
작렬
한국소비자원
알바
##허
학부모
##화해
妙
익살
임기가
반부
接
복원
날씨
##앉
여력
윤장
카타
중요하다
갑작스레
전리
적발됐다
힘주
##知
안무
유행어
하객
역내
불투
보세
##구매
오타니
긴장감
느니
여우
##😂
것이었다
대구의
아주머니
실물
68
예측했다
바깥쪽
오아
촉구하고
##ih
##협회
불구하고
거주자
##C
KTX
쓴다고
학위
완화를
빚
힘껏
##순위
쉑
크리스티나
##와인
##임스
‼
##ict
카탈루
끕
##를
투기과열
브라질월드컵
##려는
갑작
괴수
맞춰서
물러가
낡
고립
##처로
##_
🧡
치워
날아갈
존엄
글이
나약
상당수
잔액은
##졋
모피
##名
하인
빻
##ok
영어로
온통
청라
색다른
태도를
띵
속출
도성
뇌물
프랭클린
체온
##4명
한진칼
예상한다
##ina
##直
##대변
##문화원
자괴
공조
##떨어져
약을
##충제
말씀드
출범한
풍경을
##날드
##작물
본부장
끈질기
OPEC
사업자
하노이
녀석
가
임창
##랭
프로리그
잡음
##호르몬
어느새
부드러워
##이냐
캐피탈
##냔
디자인의
MLB
성장세
샛
콧물
##녈
아들이
김황
아트홀
종목
전력이
##수단
순창
##점검을
같아요
극단적인
1979년
공황
동고
근소
원도
친하
후세인
##ior
##조원에
넘는다
광의
##갔습니다
夕
건
187
##튐
이병찬
담겨
##이었지만
##적이지
정론관
Cor
자가
##35
이목이
신속
##공장을
살피
금수
십자
청동기
NAVER
충분하다
타진
##下
교내
##단가
곡인
정자
지분율
##뜨린
회장
무용단
##뺏
획기
배임
부문을
여당의
누군가의
스페이스
예술단
버밍
품절
##경부
나타났다고
##떴
투입할
가능성을
맛본
사실
시민단체
##주니어
##깟
모션
추천
##회사의
복면
후회
경감
##받아야
All
됫
절대로
##작인
옮겼다
심대
붙여진
SK텔레콤이
아직은
##시스코
이종
눗
##pt
##상한
##아오
널려
##퍼트
모임을
運
병신
무역협상
모습
差
자회사
##더블
뜁
##종인
만료
##체포
네티
종업
섬
부산항
숨긴
유연하게
채무
신혼
와카
##조를
움직임을
서울동부
뀜
줄리아
주문했다
재판을
상술
겨울
김용
정신력
##공화
##싫
충실
끈질
영하
순천
정부조직법
있어도
사이트에서
##꼰
흔하
다임러
타당
곰팡이
정강
CBS
제게
시행될
리터
아테네
초등학생
정도는
낳
##관계자는
선거운동
어떻게
아버님
서울지하철
사일
겸허
방공
영서
설명하는
##세대
의전
돌변
고품
##사스
헥
##z
지배했
성관계
種
비과세
would
개정안에
parkss
음성인식
대피
보였으나
대안으로
##ン
내겐
##맥주
돌려보냈
적임
##롭고
눈썰
기대감에
유관
娥
2007년
##源
##㎡
시민
시경
도전하는
첫선
간호사
타가
위안화
형상
푄
아침부터
##감치
점검
##게티
해소
쫓겨나
기간이
거버
夢
青
##비만
##원까지
미션
##성당
의사당
점수
企
黨
넘겼다
파리
참작
현오
書
조각가
##맘
為
##일보는
1918
##짖
아세
사장으로
##공격
##발사
사이다
##戰
##시와
##대금
##서는
박수
##표준
아의
위원
확장팩
국무총리가
##정우
바이
녹스
제공된다
##니오
병원을
쟌
상호
들어있는
계절
우세
어촌
##인력
셰익스피어
개막
닢
##두로
欲
마네
최상
자성
##모드
##ize
익
##휴
제독
##지다
눈앞에
##보건소
##된다는
지붕
몸살
일하고
##곁
해군기지
주관한
맨날
耶
##량이
마냥
ㄱ
협소
##min
LG디스플레이
237
리타
무장
금치
##서치
보급형
촬영
노렸
扈
계열의
4곳
폭력배
발육
##감사
##세일
캐슬
실화
tw
그리
청소기
恐
##비행
##eng
회
등장인물
##哲
려
웍스
경쟁이
##ind
개별
##움과
보여서
##쿠라
대내
한국관광공사
전원에게
##용을
##처벌법
권역
정기예금
##졌다는
내리막
해군
대진
##본부의
🥰
##혁명
##력이
3곳
##00억원을
##통계
##위원회에
서울경제의
막후
김강
##엔날레
100개
##만원이
##기업인
정대
만원
브레이크
서상
좋음
##평화
접근이
시력
황우석
경영진
##주유
밝혀내
28
베르디
##차
별점
이준기
##FC
사회복지
1순위
아무
풀린
##자들에게
자연환경
문체
##바도르
북새통
4500
무슬림
돌아와서
##맨
박석민
관련해
##국인
채굴
Comm
##맞춤
##감으로
##000원
입니다
부들
투르크
준비된
##ros
여사가
재밌
저해
개최한다고
겁나
에스프레소
본즈
内
저편
위치
집기
양회
유모
민경
将
수저
않느냐
반복
맨유
##이의
부진을
들르
하이닉스
##지사는
##위는
씨름
날려
노소
타의
발표하며
##사카
Jap
츈
과감히
##반짝
시발
저금
##자리를
사탄
무사
皮
ㆍ지
흥
복수의
##사절
##벤처
선경
하숙
弟
의학
戶
베개
##컨
벽지
않도록
장학금을
3일
대출금리
디렉터
7월부터
##당
##코
㎥
과거에
왕
사업인
##그제
미네
전시장
기제
플레이어
호봉
##댐
마카오
진행한다고
남달
까마귀
지난해
타도
스코
당첨금
아이템으로
바자회
치부
영조
로얄
쇼케이스
당선자
해선
볼모
아낙
##구이
국무총리
취했
일률
거야
##해준다
터질
구용
사라지
분규
선풍기
虞
해라
##복
##유를
사용자를
주위
상승세가
아플
mdhnews
타박
농약
##진구
##홍
얽매이
회색
##SE
동시에
구름
이종석
떠올랐
##흡입
브라이
key
교육학
일환
한다든지
3355
공장에
消
독립운동
공수
있어
투석
스물
무력
##에르
대꾸
보험료를
台
연거
아성
한자
구슬땀
악화될
까
파시즘
영화의
##기금을
텀블러
##채원
실시
결승전
소수자
##병원에서
토레스
그러
극우
서식
##ld
주요국
그동안의
분실
카페인
##수렴
##ook
##시즘
양영
담당하고
외
월화드라마
##주시
구먼
##쿳
3분기
많았고
4세대
사민당
##im
생후
찍었다
##뛴
##대행
10월
즉석
에만
관리자
일터
불
투자증권
기억
시속
홈즈
邉
부족해
인수위
김효
##AE
소변
##개
똬
##옙
실랑이
논의한다
비스
양양
최단
##하락
남북관계
##양은
246
자조
##der
재야
##찌감치
맛나
墳
##짜
개성을
꽂
공격적인
##운트
라곤
워시
대기업에
생각이
선덕
자전
헬렌
맹
표적
##부진
##‧
1931
县
양고기
##明
페미니즘
리나
##연구소장
탐사선
지분
빛
##내셔널
중앙포토
그러면서
개항
방송된
##똔
고양이
왔으나
알카에다
파울
팻말
방배
부산의
볏
유지되고
63
제출해야
부종
금동
kang
##샌
강력
隱
매표
조사결과
CI
을수록
##담당
Fre
영정
##일기
비평가
Mac
아니냐
하락이
아르바이트
##병원과
##푸르
결점
파동
진다면
정규
국정감
##개인
이곳을
그들은
敍
제작진
했을
내역
배신감
##부도
노력해
그런
췌
돌발
상승하며
시외
##👋
##에이전트
딩
참지
일인
##쵸
선정해
비트코인
추석을
라덴
##16
##심사
영업이익률은
정의선
Gr
ㅔ
제시했다
##베네
수립
WWE
그대
하도
고고학
아이들은
진행하며
홍길동
추진되고
김재원
반발을
아틀레티코
##골프장
지속
1년
바른
障
동적
우먼
##의학
##자도
낡은
개편안
덩이
값을
곳이다
否
잔소리
교부금
##악
살아남
배당금
미래에셋증권
##꿎
130
일시적
특별감찰
誠
급제
##객들이
본전
디자인이
휩쓴
시청자
遲
案
##생명의
교관
모이
달랐
전통적
侵
하이원
통합을
기지개
지표로
273
공문을
교과부
정부도
뎐
베트남전
##카쿠
##바라기
게이지
뉴욕타임스
외상
움직인다
모이는
152
##회장은
앞선다
계좌를
##만큼은
當
시내
낙선
236
강습
행사할
##인즈
##廣
휙
##암리
명인
그의
이야기하는
##51
수상했다
9개월
##방식
생명
하나다
한다거나
규모다
많지만
##이어야
알
경상수지
보건복지부
무스
회유
신인왕
##스는
##자산운용
장애가
부작용
발각
제도로
la
변호사
내뿜
원더걸스
쉬울
##아가
섞
불평
박석
김태희
##周
입장문을
##러스
惟
생태계
고를
##원자력
##경남
##매입
축제의
堆
##ound
수장
##업체로
쫙
개인정보를
가든
서유럽
##땔
##글로
편안한
빠
허정무
뜻깊
##타나
카카오톡
환경오염
##쌩
벡스코
나타났다
감사드린다
마주쳤
작정
의외로
스마트폰을
사고력
고서
041
하나의
전환
##堂
왔다
OB
##т
1년간
도호
것을
아닌
그날
이질
##럴드
죽임
##무니
라인업을
경쟁력
##🌟
배석
마리가
이화
##람쥐
##з
pjh
아토
입학
##리거나
불법촬영
인력과
상태
모빌리티
신용도
망의
##aus
세워
##포터
믹
블로
퇘
구성을
##실리콘
2차례
실망
대미지
걸까
시작된다
김보경
필요한
즐긴다
집행정지
배틀
##원회
파이
풀이된다
지정된
충신
자산을
윌리
비밀번호
CU
##차만
소신
##씨는
날아간
##활용
형식의
엠버
365
윌
눠
首
임신
##대
##이었다
사용법
흐려
##마자
축사
세월호
롯데홀딩스
조언
산업에
쇼와
##셴
틀렸
막사
홍세
##디션
뮤즈
문사
유관기관
치켜
속해
휴직
않는다
물
너스레
해머
뮤지
0
로드맵을
격하
208
얻기
fr
##주의
이른
노숙
발견된
추위가
문헌
직후인
지위
촹
모두가
추가로
##관과
셔터
말투
세탁기
게시물
스커트
영원
##2천
온라인에서
천시
##요시
면직
자폭
##연히
##문화유산
##실리
의료기기
지금처럼
직진
마츠
희열
개발된
구단주
확인
벌어진다
##곽
중이며
##인트호
공기가
##孝
나라가
`
##하도록
에프티
올바르
딱
##호와
마포구
휴게
##ㅓ
집이
군주
##남동
해운
만들
포근
으면서도
평가해
접목해
맺어
반영해
데려
##전도
앨범
날아갔
##reporter
콜로
##★★
개종
짜여
조선소
##방에서
다이내
##inn
사우디아
##정리
걸릴
힝
학급
꾸지
存
옹
메르스
agent
병원으로
사업시행
보신
심리전
최고의
운영할
뜹
물론이고
분담금
사람에
탈퇴
다문화가정
커넥
요금제
비자
200
감사원
##런치
규제
리허설
불이
의존도가
조선대
남한강
스프레이
##렵
해둔
낙폭을
규슈
살릴
신제
辦
##평가를
퇴출
종결
전하
만들어낸
##관리공단
건물의
사업단
##과학
높습니다
설명한다
무화
상무위원
암튼
벌판
대책에
뵀
확진
😅
烏
페루
어법
식욕
셈
육지
텀블
볶음밥
현자
##아트홀
##은경
내일은
##와서
달성했다
##멤
개그콘서트
##입
##산업은
꼽을
##사위
##ㅃ
가제
건설업
##렛대
갤럭시S9
##앨범
의구
최고위원회의에서
##"
띄
태클
투쟁을
장하나
Se
놋
god
##👶
경우
필요해
강정만
##생명과학
##九
변해
잡힐
재추
취리히
##협화
##갹
쾌감
일대에
초보
부림
##랴
##선수권대회
##현충원
필하
김영철
오두
콜레스테롤
##캉스
430
멘붕
繼
평가전
군은
비정규직
알아듣
한층
뚫리
무의미
성조
丸
3층
간담회를
정부
에요
↙
아까
제기하고
##안심
쎌
서두르
KT와
##기간을
챔피언스리그
수용할
##제이
싶다는
##이었으나
##들끼리
재단
대표는
청정
환자에게
##섶
##SD
중단했다
조가
기본적인
영등포
도청
##36
딸의
267
공포
환자들이
고현
##야스
성행
허전
##업에
1등
승승
특조
몰아치
남용
##솥
카메론
재청
포천
소서
1개월
단계부터
인센티브를
디저트
전분
##し
을지
DV
으로선
##햄
파고
1901
인사말
공시
김국
금발
이순재
烈
포털사이트
그자
2003년
부엌
5명
의견은
##😀
인턴
서귀포
20여
하이힐
주부
DGB
##만5
和
然
넥슨은
고민하는
바이에른
##클
신고한
165
##처리
##노버
PL
4단계
기도
스마트TV
기린
세인트
문화원
사림
때때로
##대상
콤팩트
서사
##평군
##평균
##uri
그쳤다
還
립식
##수첩
김석훈
##太
음성
2700
##👧
관능
기뻐했
렀
느껴질
##보수
오다
##대교
##구조
경계를
발표됐다
급매물
##닿
꼼
##물산
스트라이크
##텔
씩
##뿐만
중앙정보국
노출된
조사위
##stit
위계
틔
달라져
근로소득
두산중공업
依
먹을거리
넬슨
##되므로
회계
##레터
에도
##세로
공을
바라보는
##버렸
일어
이루어
과반수
덕양
##부채
이뤄지
想
연구자
삼성전자에
##네트웍스
비닐
3만
준우승
무모한
화물
인권
##스로
Fr
야채
##km
유대
잘못된
시행하고
디저
work
받는다
기술도
mbc
time
한중일
창의적
사실은
조선왕
삼성엔지니어링
사명
19일부터
##학
친밀
곁들인
체인점
사업의
기점
마인
적의
少
ed
추가됐다
탑승
곱창
구글의
정쟁
##ave
요크셔
##근로자
당찬
노가
물자
마스카라
참수
##소시엄
##했다가
달부터
凰
구치
독특한
286
##날두
항의
충성심
개인적
##브를
나지완
종목일까
고점
가볍게
크기가
뜻으로
이겨
이혜
발진
확보할
말썽
스탬프
경기에
##몬스터
부평구
坤
직군
##패턴
##永
抑
##더를
장혁
##omas
법치주의
##왔다고
鐘
공고히
낯익
품질이
중대
가마
끊
오랫
賤
전인
무리
##ev
색은
행정학
토마토
변호인단
##네이션
가해
임용
송윤아
##퇴근
머리를
센텀
동기보다
제3차
많아서
생전
메라
않아도
鬼
##회생
물질
한텐
투자할
##퍼
고우
소설
서천
만호
대책
위의
용의자
경찰이
내건
몸
샌들
규범
물씬
유치를
모집한다
주도할
##회사로
넘쳤
중심지
##지역은
##접촉
##3
##히고
##베스트
믈
독일의
밝혀졌
족장
맥아더
풀고
맡는다
논하
##국가
오연
##저래
##버스
버라이
心
저작권
세척
김인식
給
##활동
##뜀
장학사
한국야구
총량
스펜서
수술은
처진
거칠
군사적
##부르크
타락
아르메
탈리
議
##쓴
##구에
주차장
유골
인건비
이슬
##아보
2명은
으리라고
단서
켕
다운로드
테헤
원의
유지를
PS
세대주
낢
후일
적당한
##왝
객관적인
##녕
2030
한광
용감한
아우성
산정
##리미
비틀스
센서스
LG화학
커뮤니
책정
최루탄
즈
결함
여느
수계
출시를
舜
궈
##니지먼트
##쁨
탭
확장해
##들에겐
애너
늘리는
기능도
인승
가능하게
장종
의사와
선정했다고
했는데요
알카
넘어선
탄도미사일
시큰
삼성전자의
광복
均
재작년
주경
하하
IE
호점
5명이
쇠약
베일
30일부터
##lect
서류를
순탄
가격에
41
뒤집기
마누엘
의장이
손정
최나연
##단위
보고서
조성하는
문맥
정한
잠재성
86
##하므로
##뒹
뒷전
頌
겉
##정수
랭크
사이로
거친
해경은
지병
##설
바느질
조사해
동월
##끄럽
차지한다
일었다
UHD
CFO
when
서자
초계
##멎
煙
내뱉
##靑
債
후보의
##멘스
지네
향해서
펜스
차일
질의에
초라
##핏
##누이
얘
##iss
집게
않을
##층에
6309
비긴
희곡
억지
##시설은
##쾌
아이디어가
2번
심리적
개입
증권
취지의
##데스크
reserved
빗물
##inc
첫날인
é
연금법
소장품
##ations
##유동
사람들
##띌
이것은
고위공
##켠
##안전처
보여야
인부
잠실구장
##TX
위원장을
원심을
사회관
기자실
##라운드
당대표
금속
결제를
공교육
##지털
무예
##동산
팔린
박히
인생을
부당한
감소세를
이하늬
2005년
재료
균형
어려워
불상
클러스터
한유총
천정인
딨
발족
사용자가
##【
방침
종이
##보레
당신
점거
소셜
강세를
형이상
달라서
💛
##obile
선보인
##ues
제2
알로
결단
##구나
하나님
들러리
관동
요괴
야만
##루즈
畫
튜닝
몰의
##CC
기술로
교포
예정
지지율이
195
델타
송년
방만
사용하여
이른다고
트로피
착오
賴
##코프
##gy
오른
don
규합
학생
파라
대뜸
카스트
보호할
터스
카탈루냐
시동
##삼성
거하
아버지는
들이
284
증폭
懷
조성환
완전한
불필요한
##파를
알아야
##ES
코앞
캐릭터가
소닉
##사업단
오오
##조4
##만원이다
총책
가졌다
##연구원은
한국토지주택공사
싸움
5000만원
##단속
모형
##문학상
517
금회
태권도
덤핑
중등
무기력
순의
파생상품
험난
어쩌다
운전자가
귓
##경
충분
총재
중위
나른
猫
투자처
ㆍ인
원사
원화
허위사실
급등주
남북경협
##포도
기관은
##만별
##경마
일환으로
소비가
만회
##친화
부작
루이지
법규
역세
외환은행
향할
신학자
학교에
도인
유감을
설
##자인
족보
刀
##매니저
고려하지
불참
##꽤
원고
끌어들이
엔트리
향의
전환했다
펀더멘털
수사의
일한
사단법인
라야
##험
밀크
객체
전임자
##진보
물산
자료가
중생
活
갗
핑크
바랬
이코노미
베가
가졌
있어서
불가능
굽
한발
##iv
흠집
연합뉴스TV
랑의
록히드
뜻하는
##신공항
나타나지
지크
앵커멘트
이상득
##하겐
이더리움
기울였
발표하면서
재정비
##껴
##십
##료를
국가주
촬영장
Off
원
##사들이
##관으로
##깰
수심
브라운
爾
##ad
꿈꾸
테두리
##제르
있어서는
##그루
열대
판단이다
반대를
배경을
체험단
은유
수트
영상이
면접을
판소리
##인들의
누진
보도가
##챠
낼
마찬
불감
##어촌
정과
골짜기
7일부터
포터
추가
공화당
관람료
17
##ER
##⑷
손잡이
##골목
텍스
쉽다
드컵
트릴
##🖤
바빌
모발
##태평양
농산
##ude
조처
공소장
들어가는
##지진
교류
쯤
최소한의
와이브로
업무에
된장찌개
쪽은
##처에
표현력
276
프랑스의
의뢰해
##캐롤라이나
바꾼
##까지는
##란이
사려
아트
署
Just
재선
달했
국회법
郭
땅에
##💪
1세대
넘어가
발전을
독일인
했고
##임자
##나들목
##뚬
나중에
부재자
30만
편하
적시타
雙
내원
##추천
블랙리스트
식도
##거슨
없었다는
장악
항암제
##스카이
내릴
이라크
야망
공정거래법
궁중
이용할
출사
순이다
##서에는
김중
방치
🙋
##cl
국민건강보험
사법행정
사무총
##들고
대성
새기
솔로몬
4월
김충
복권
안락사
도움을
스탁
##린다면
##췰
서른
표기
나체
안다는
글러브
김민정
з
Work
센터는
포괄적
##텝
겸임
산학협력
제로
순교자
용암
##б
도서
복무
종아리
톺
거쳤다
리필
삥
주유소
수
불로
##비를
냐
況
##곱
이세
일요
조직원
개발에
속하는
날짜
판과
도전장
##지게
##트남
차예
##찍
남동구
##노조
ㆍ사
런던
스페셜
##고
##링크
현종
종말
##000억
끌어올렸다
차곡차
대차
긴장
##미니
영업점
##컨설
두바이
##지던
뻔했
거래량이
험악
교육과학기술부
##ㅉ
내미
태아
무대를
참패
##탱
상장주식
샐러리맨
미중
##재단의
동쪽
테스코
##도는
##프레레
억압
##보험
##확대
센터장
초소형
##올림픽위원회
빠져나갔
##의약품
이수근
##띔
햅
가구의
甚
미세먼지를
실험을
일임
이혜훈
출발해
관망세
적절
피의자
급물
정찰
멋대로
##연구회
머지않
seun
만난다
떨어지면
굴절
빛을
공개
롭
차명
##천사
##었지만
소방방
귤
##ory
기탁
시달
헤이그
저서
줄어든다
디자
후쿠오카
##베트
원산지
##이어
운영한다고
新
효율적으로
31개
예비후보는
좔
마운
계룡
카
12일까지
넘겼
해이
CE
타개
##메리카
덕분
질을
인상안
OP
모국
짐
백작
희박
정문
보인
시커
喬
게시글
휴학
통합해
선택의
이군
계약서
과시
손예진
디플레이션
##감염
양태
노숙자
4년간
##만인
이아
왤
갇혔
##까요
##복지재단
##웠던
삼의
세
양측이
빤히
유승준
🙆
##ant
오른다
증정
##철강
습성
거래세
😭
기록해
이리
##선
출시한다고
경쟁력이
성령
##멘트
광고가
117
##세를
기조가
긴다
띤다
축협
알뜰
외로운
복귀
구현했다
모으는
##너스
##경제협력
엄밀
교통안전
생필품
다르지
끊이
KCC
陳
##펐
수법
할지라도
이오
退
어울
##베스
전보
일삼
대한민국
학과
장본인
하락세를
패한
김장훈
매출액
류현진
들떠
한판
Research
표했
태스크포스
뒷부분
춤을
외쳐
한가
여러모로
가히
결핵
##승환
찬바람
##퓰
아가
##뇽
학연
凝
##시간을
혁
야수
미친다는
정형돈
거래에
💗
코스모스
활용하고
매출액과
고려해
기록물
정권의
확고한
Super
##쳤다
##출판
레인
측에
탱커
거부하는
댜
##맸
익숙한
이듬해
유로
활성화
SK브로드밴
낙하
##믹
좋습니다
비상
어디로
갹
폭넓
거린다
##듸
시각도
잇단
##🤩
##장에게
파스
쓴다는
##주면
##자치부
분단
부산은행
峯
陝
산업통상자원부
Le
물레
화근
법원의
구안
KDB
브뤼셀
##대서양
뻤
멋
건강보험
##기계
제한하고
서술
물가가
오션
임해
발생했다
국무위원
담보
소풍
라기
보사
계약자
갱년기
##포르
합심
지적한
##하지는
먹기
화이트
##목을
불리한
##팥
개선된
임
##권의
##도심
정약용
유원지
포인트로
##AC
제도의
차장은
영화배우
##만명으로
2년이
비판의
가입자의
##피해
맺고
방향성을
무작
##전기
멈춘
이후의
빨라
##미즈
##테크놀로지
편중
소비
중산
받았던
시점이
폼페이오
이천수
금천
풍
최우수
금융기관
##건전
으세요
이탈
들어선다
더민주
시리즈는
운수
##분기
##ㅊ
자전거
튐
면적이
쿨
##럭저럭
통관
동성
##행위를
htm
##었죠
공안
지폐
변화구
밖의
시가총액은
어시스트
##西
##윽
##NA
전체회의에서
##ops
서대문
분위기를
언급
영업손
대검
혀
번거
국감
구했
마땅
상도동
이수영
평상
결백
##무장
변화를
꾸미
출연한
美
200억원
del
난다
날카로운
##ns
화난
시간도
麗
도입을
차종
정반대
느닷없이
名
DC
스
물끄러미
##교육에
수반
채권자
유정복
##ij
서버를
수산물
미션을
밑
폭로
##월동
당권파
중령
누나
쓰였
신석
##적을
사야
사부
소아
뿌리
740
의혹과
MBN뉴스
##=
슉
트렌드
##키아
깅
빌헬름
##하가
##ba
A씨를
보험금
불린
CH
본격
들릴
을지라도
기술에
한약
지명
살펴보면
무덤
##몄
사례
회의실에서
祿
##석의
둔다
臟
방기
##단계
대운
친환경차
##osit
殘
국세청
Br
##하다는
현황
2012
열렬
##굉
##해질
찌푸리
특혜를
##검색
朝
셔
성완종
여보
워크숍
琴
올라서
호나우
깨끗이
세법
##산업협회
112
신도시
연이어
반짝이
##00원
좀
자유자재
모기지
장남
김문수
경제력
나의
황실
유출
##부패
조양호
물방울
부러지
키로
아이유
없으면
포트폴리오
푸시
##뒷
대위
획관
사회관계망
##ility
##만6
##수도
위약
결제가
회사측은
흐릿
๑
가스
애국
실체
들러
개구
이씨
홍천군
재화
방음
金
니까요
손해배
단원
앤드류
기통
않
승패
마련됐다
통합당
##콩
IC
##istory
##크루
린
말이
##쟈
재편
선수
디즈니
##지거나
능력을
##피니
약화
내려지
##5년
##해튼
지사의
연석
憲
천동
입김
1990
인천시장
##르
했으니
mc
##ater
16
찹쌀
채용을
which
체결했다
##NC
시영
세네갈
백령
로렌
##㉣
##급적
난간
할게요
왑
정책실장
학생들과
취합
장차
보단
窟
##범죄
친인
가격도
줄이기
사회적으로
##아무
김미현
김남
##파람
##퍼슨
대한민국이
##ra
조영
##건의
##플러스
武
기다
김수현
##절차를
籍
결재
정진탄
도
직원들
유분
남동생
운송장비
쟁취
예멘
##aper
이어질
임업
작업이
##©
##】
소관
던진다
상승하는
이때
실바
교사의
흉터
##샵
중이라고
모씨
##56
해당하는
네트워킹
인수합병
포기하지
수산
하드웨어
공약으로
sj
규제를
스포
##미디어
엄두
게이
시럽
이행하지
달릴
연관
일원에
綠
Christ
만세
양분
##타니
쏟아부
죽이
당부했다
신속처리
##은기자
결성
응하
착시
류난영
파주
##세트
_
티코
옥주현
연사
촛
##됨에
더디
카마
쫓아내
시사했다
경영정상
우산
현미
표류
박시후
목격
##받이
##터는
오징어
저마
유망
방통위가
##드로
계속되고
##페라
융자
타이거즈
##전지
뉴캐슬
##하실
뉘앙스
몫
만들겠다는
템
우회
센티
승부처
후의
放
쌓여
긍정적으로
펜션
독과점
최소화하고
높이
춘천
##장치를
LIG
신속히
펼치고
교통
종사
微
기부금
외전
##일장
##읶
위약금
##대로라면
슴
전기가
bom
부를
매직
본사를
##12일
gug
받들
1에
北
##슬러
성숙
가액
板
베른
##ontent
금전
가르쳤
방대한
가질
##쇽
제언
쏟아지는
결정을
흘러나
##윌
##제한구역
주현
##ary
인천항
##두르
가다
㏊
##데자네이루
도가니
계획이며
##com
창의
치료를
사회적경제
프러포즈
독한
싱어송라이터
오도
ä
##겼
사람과
앞세운
재기
##청을
째
온라인을
현대전자
임관
대학수학
##령
이온
##망이
##연계
수도권
현대상선
국인
난방비
스와프
##비트
止
낙동강
순찰차
##DD
##제거
대칭
솎
영결
이밖에
일색
##보니
웃기
미래형
낙
일으키
##인회
헛소리
요소를
##직에서
자몽
진학
##석이조
협의를
布
하비
거리낌
보여줬
##延
붉은
개선됐다
인정하고
생겨난
##감시
##▼
프로그램
￦
사소
##무게
알제리
석면
##하기에
칭호
재상
고픈
팰
담판
지방선거를
공감대가
갖
##았을
구전
찌르
鍾
##가가
떠올려
사물
##서비스를
같은데요
시책
틱
하나대투증권
끈질긴
조련
School
프리메라
##erg
昆
우려로
한약재
지산
##안타
se
합격자
##보스
##고속도로
본고
양형
해밀턴
##커트
##空
찾
정해져
한데다
최초의
자타
龍
행사가
메스
들여다보
스쳐
비탈
정태
염증이
차등
표했다
찹
선관
##땋
그을
스탠리
열매
왠만
남측
전조
##ä
방식이
남원
금융당국
임대차
소란
##하다가
회고록
AL
북중
##olog
악성코
부쩍
주택을
재우
식견
💖
차단
서기
##저것
후보
##셥
##京
网
쏙
수요예측
##즁
##블루
국내의
규모에
##장으로서
관계를
소재로
떠넘기
##데미
페르난
##오카
이번에도
연구진이
Aut
##들과
##심리
움직일
##짜기
출입
읽
일베
영국
관리
싱크
건전성
국외
저출산
ijoinon
참여해
썹
복합
아픈
##물의
김운
선서
러브
사람은
줄어들고
##폴
밝
말레
효소
균형을
##깜
액수
##場
반응이
랜드
미우
혈당
불화
되물
##공정
##망과
##트로
罪
##도서관
꾸밀
선입견
깡
寬
역할
흥겨운
가치관
그건
價
성곽
대해서만
영재
간략
절실
불확실성
았
자체가
쁘
잠시
세부
##ari
렸
##단독
##피싱
이야기를
유난
몸집
검출된
온건
##모리
랜스
##하려고
중용
덕택
##착
오갈
신구
외세
최성욱
##리산
저놈
町
ㅌ
활용품
##기온은
로이터
處
수익률에
갖춰야
풍부해
과세
괴로운
취업규칙
⇒
캐릭터를
##木
묘미
법인세
화폐
##하였다
20년
유발할
녈
United
원대
내딛
##렴
DTI
if
맞춤
울트라
##범
##칠리아
NH투자증권
★★
ING
##드라마
저촉
차가
면사무소
동남아
段
찡
양곡
박경림
소급
킨
치료제
부리
이자를
##言
막연히
시진핑
상설
쉬
헤드셋
생긴
방탄
##투자신탁
##어링
동절기
사정거리
대장금
농특산물
마르크스주의
##짹
레트
##산업진흥
##탱크
심의회
달서
##투데이
개정안을
소프트뱅크
鮮
장근석
피했
블링
등록증
의중
박성환
도당
싶다
배타
오색
띈
캠핑
논란
##총회
雪
窯
어떨까
모노
투자점수
루스
멜로디
뇌
##°
포켓
같다고
백야
제각각
##탤
선미
논
거듭날
2005년부터
위한
성형수술
헤라
키는
교리
강행군
역사가
유럽인
미화원
밀려
##좁
오르
족의
car
##로선
방범
12월
대표를
듣고
자연의
##편성
50만원
##선수권
까먹
232
IAEA
주거비
등기
##역을
##코드를
이전
봉사
페르시아
real
주목
109
歲
희망
흑자를
원칙적으로
홍기
##부에
달리
선심
사진은
책상
##러져
왼발
신다는
##연구원에
寅
그는
진술을
##설명회
후원자
단체
코프
스왑
##분권
대수롭
전문가의
사이
스마일게이트
대장주
##進
##티넨
+
벵
##i
색
응방
##전선
7300
由
콸
체증
##시험을
판매점
깔린
∙
##😘
갈대
아부
鬪
배경에는
고발
htmlphoto
떠도
조셉
##흉
Reg
김상훈
腦
롯데월드
##강화
고온
좋지만
포스트
藩
기업들을
쇠퇴
글리
스티어링
by
##바로
대리점
우중
초기
훈민정음
성악
충전기
신중히
더불어
개발비
##국에
임대
마미
유리한
양의
벡
입양
##랲
거리에
김민희
번도
##같이
늘어나면서
얹
숭배
##태권
장례
##kwon
끼니
##하겠다며
계속될
극
사각지대
震
병자
##일인
뎠
개봉
징계
능력이
만기가
피나
오징
방파제
1940
짙
상오
수차례
비정규
진행될
##이체
수성구
영광
방명
연세대
잃지
체계
##여기
편이
하겠다
직격탄
##장애
10월에
공범
제지
흡수
100
홍천
로웠
##윤리
명문화
이재명
언급하며
##전문대학원
받아들여
5명의
산재
밀라노
##전은
##국으로
없었습니다
생산해
서울중앙지법
밝힐
확보하고
때로
아우르
귀화
4K
봇물
윈윈
변한
##했고
##자들이
상승
화제가
##기상
##뿍
저질렀
부메
137
미학
도로에서
##질의
##캥
##뼘
나눈
##ach
세상에서
증거인멸
우리를
확산에
예금보험
##솽
씀씀
##크리트
청춘
##큐
기독교
동학
가실
소개하고
스메
위협하는
##모가
3인
섀도우
조성민
통계청이
대목
메이지
국수
데려온
천의
체인
##자와의
⭐
철회를
꾸준히
##하니
부친
살수
라고
수술
오시
P2P
다한
먹을
薄
순차
荊
때마침
선거관리위원회
현대차의
##事
##님은
정했
일렉
패셔
Mor
채권
500만
##렸고
棄
##격으로
합치면
##👩
Des
저감
돈다
발표했다
생산이
방한
허다
실장은
고르바
씨티
컨디션
히말라야
ㅅ
##학자
귀퉁이
순이익은
닷컴
정책에
##ane
영향이
고전
##타를
알맞
영농
미쓰에이
쳐다보
돌려받
예방하는
수수께끼
복음
통폐합
도둑
트리오
##안과
##㈐
##49
끊이지
조목
##개가
##강좌
추진력
5회
High
##井
4회
스와
동해안
비구
##훼손
##利
소프트웨어
프로포
다행히
##푄
분주
찬스
면죄
잡초
있으니
얼떨
지원금을
연승
痛
공직
델라
특별감
배워야
##주
강렬
환갑
##콰
##개발사업
##立
가게
4명
손으로
##서비스가
음원
오대
亨
열흘
으러
지울
##상황이
##뒈
##만에
상승했다
척의
메드
儀
감성을
목요일
배분
감전
역과
모델
기록
조심
대에
장기적
자유롭게
의지
뿌린
胎
껑충
트러스트
순식간
##씨
미팅
유아인
흘러나왔
210
함박
마침
마당
##볶음
공부방
컴퓨
압도적인
생산업
최순실
대법원장이
과제는
줄여서
휘둘
예스
채워져
연명
맛
##들어
중시
하의
CP
사무직
##브로
무정
달간
일시
성명서
설욕
대열
##오피스
충의
베풂
종금사
심리를
多
댄서
漆
서울지검
뚝딱
조직이
새만
이승환
편해
##큘럼
##곧
보행
문자
확산
##발생
떡밥
##ita
후원을
학관
도착해
7700
안주
175
硬
이학
시끌
送
이송
##21
##티콘
알로에
##업체와
국가적
##조절
필요성을
미래창조
전문인력
보스니아
세무조사
강세
요리를
아시안게임
행정관
##숑
역사학
김관영
##온라인
긴급조치
리허
올스타전
장점으로
따르는
조성된
7월까지
않았으나
안동
김씨는
##대역
라고요
내놓았다
협력하기로
페트로
OST
오피스텔
홍
2배
원희룡
백석
##스토
보살핌
나타납니다
Naeil
것인
그에게
律
주눅
胞
##육상
##계획
빼앗기
프로그래밍
집안일
화산
560
오키나와
크리에이티브
무시무시
##읕
##將
##종목은
추행
##ystem
관계기관
이득
분들이
주중
최동
##곡절
우크라
제한적
##무부
##레이즈
##천하
원정대
##레이션을
매물을
중앙
동진
원세훈
확실
기흥
##르몬
국회의장
##모닝
질환을
고용창출
송은범
중공업
태조
생도
耆
협동조합
병원비
대응이
쉼터
놓고
이메일을
##의의
와일드카드
＜
옥시
##다랗
보다
수소
어이
테마
쇽
##실적
##지식
전월세
무비
환경부는
한의원
##구정
오묘
##귈
부탁
이어폰
직영
##int
공관
일구
##낀
th
류제국
換
안도
간청
##렴치
##00여
한국감정
때문으로
신곡
항
수준이다
죽전
군함
##단지
##였으나
경험치
##대로
근본적
욕심
메이드
기마
요인이다
예약을
밸런타인
안전자산
죽인
##뙇
이해할
국정기획
뚱
굉장히
개념
얻고
##중의
발돋
이에따라
사카
많다고
®
##니스탄
하나가
만나볼
깨져
치료하는
변경해
으레
외부에
단점이
역할도
♠
##파가
할당
계약직
또한
##설에
동석
##기보다는
자르
로키
이러한
사용하는
쇠고기
##오토
##tsie
##iu
몸을
수려
시댁
상태입니다
##분방
행사를
규격
끌어올
##oy
장비가
반응이다
ht
효과로
지껄
사진과
##뿐더러
평화상
재경
##프
정치부
유품
##리자
상보
땄
谷
##붓
보고회
반대쪽
The
위선
섰다
제천
##노위
명절
유언
##쳥
연료
李
敵
肅
의류
진입을
##쉑
##수소
풀려났
狩
아쉬
교육과
##은편
##컷
민관
佐
콧
서재
##oss
미츠
추악
주가에
올렸다
아름다
개인은
대요
##코스트
관장
산업자원부
보낸
전망
샴페인
##파티
##혈관
팀
pol
랄
모로
인해
전주
통조림
##설이
인사는
##대책을
프라이
카테고
##업체들은
시민운동
##星
회사원
오작
##나고
트레인
수수료를
##구청
吳
建
採
상어
##웨이
파워풀
陀
악수
같습니다
##ip
KT의
##ert
목공
##aily
帝
장애
농심
가발
##국에서
KB국민은행
##무사
##공여
걸려
젤
왕조
##빼
않기
규정을
합리
참여할
중개인
짓는
최우선
입혀
퉈
화분
탄수
이유에서다
구겨
합산
일약
해금
가부장
감초
범위
잠자리
뇌혈관
해맞이
##지지
않았다
드리고
자외선
증발
##명도
심할
책을
박경완
국민당
##계의
김진호
가슴이
자정
피조
##출처
다며
##촌동
강요
우러
조교
김철
##룟
요인
뿍
##end
정개
說
##man
##ation
##ush
왔으며
엄정화
5700
##구조를
찾는다
스프린트
마사
##朝
토크
비전을
있나
##gan
##민국
지긋지긋
였을까
버지니아주
고평가
##스러워
##바드
곳을
막차
판결
회귀
헌화
성공할
레미콘
자기장
김희정
시작했습니다
투자하는
한달
안녕하세요
개최를
세계일보
##러브
##재난
##페스트
팥
이유로
라디
였으므로
부평
정부안
넘어섰다
딛
시료
##항을
엄
방비
프린스턴
부여했다
톱니
일자리는
HTC
제이미
빙
한반도에
차곡차곡
뒷바라지
##달라
규정에
법원행정
정보원
넥슨
발트
단순히
일제강점
##섭
수탈
잉
호칭
잔액
버스터
##유가
지급한
넘으면
놀이
건조
이번
회비
##원은
##재의
파일을
기존보다
빠져나갈
튀니지
KIST
菊
지불
당근
한바탕
##터테인먼트
다거나
컨텐츠
##떨어지
##sa
확대될
랍
응대
유용한
시신
덕
##유키
총학생
자영업
상태에서
##댔
호세프
##창업
아스날
100만
모디
법전
김신욱
##전문
대본
casin
수감자
##판에서
##〈
추천하는
제주
방사능
##넵
##경희
포트
QLED
개찰
평탄
4기
한시적
넴
混
전날보다
##홀딩스는
입항
##토스
피격
오갔
##뮤지컬
데리
당당
홍성
대용
몬트리
안시
##eaut
넋
채널을
부재
이승엽
##제
턱
유지비
##발행
포함됐다
차입
스쿠
##추는
##받
라이스
체이스
세라
장민성
장자연
답습
2월까지
체납액
올라타
김제
팼
악령
피해자는
서가
노력하고
사법연수원
잠재
##는지
심성
의가
유공
##씨와
gogo
20일
촉구했다
MMORPG
예뻤
빅토리아
최광
파탄
직무
업고
자택에서
명주
처음에는
변동이
코카
봤을
2023년
루크
개연
있고요
재원을
외투
##처장
부회장
홈런
##투어
##애니
독대
일자리가
부여하는
형세
말하면
송시
##큽
종목의
빛깔
스팟
##ㅌ
변함없
賓
##회견
되었다
##시장에
い
##느님
윔
질문
##영의
구인
##왔고
##연금을
요구르트
트윗
하루카
알리바바
##m의
프라이스
歐
##와라
시점
##히터
멀티미디어
낍
당선
전년대비
듣
명료
60년
합친
##원동
향신료
대기업
##李
로서의
쓰다듬
淳
성장률이
15도
쓸데
푸는
어떨
어지
안전과
중단하고
나열
분들은
##얍
##쿱
따라오
여유
이항
순직
##빠
사회의
호도
시행되는
대여
침실
葉
판촉
받는
한
200여
##셉트
올해에는
등등
호호
억양
수월
3
##96
국민회
부진으로
화자
추이
발하
幀
남겼
포탈
국가정보
##㏄
자본시장
##두라스
간곡히
보건복지부는
IPO
체불
출퇴
불빛
최희섭
宙
정립
년대
건강을
준설
명에
하필
허망
##깡
500원
미치고
리아
진실을
##42
전두
##테랑
##주고
특별한
박완
몰이
입찰에
캐피
樓
실드
노원구
셔야
##F는
선정돼
##바이트
중개업
견인
준장
임원이
피아니스트
##킨스
저당
역할에
스태
##턴트
점치
웨
스웨덴
안쪽
박경
지와
231
전용면적
외면
주정차
##IE
웃도는
울퉁불퉁
사고로
##총회를
한국철도
갑니다
이들
무죄
Mc
시민들이
요인이
얽매
진입할
Rel
자체를
맞잡
빚어
짐작
방통위는
형사처벌
##발전소
계시
이지현
드라마틱
연달
걱정을
TPP
##PN
신중한
##iron
아베노믹스
프레이
2012년부터
폭
유네스코
알고리즘
##교부
거쳐야
##관리가
성장해
##렉트
빨라졌
매트
##만원
뺑
##olf
첨
갈기
확실하게
영향으로
대학로
##속을
시당
##기구
##조심
전망대
갤럭시노트
충격이
그러하
1주일
##두는
불태
縱
갤럭시S8
밀리지
여성
##텔레
됩니다
기소
##な
For
##bps
면세
##EST
건물에
안전
매수
진의
IT서비스
jm
계몽
23
무술
##마이
##전에
캐논
시리
##톄
10개월
##인증
사무처
##지니어링
앤디
명확한
이들과
1호
아모레
以
강화도
이정수
접전
EBS
레딧
더니
내막
##인정
##弘
구매한
중형
至
##했죠
풍류
콘텐츠는
손님
위키백과
舞
장애를
베컴
누워서
̈
料
지원할
뎃
woo
H
구성
이세돌
##년기
갈랐
##묻
하이퍼
##♡
서대문구
가세
却
12일
열었다
##구성
허니
勤
디지털타임스
##플래시
모른다는
쟁의
##도시
여대생
ip
##배송
도와주
정준영
부동산
모아
계획입니다
윤종
汽
웽
매콤
신파
빡
아라비아
예방접
##체국
표가
챗
챌린지
##인천
이사회
타율
殷
국정
pop
##즈마
##ann
상암동
악마
##수당
불투명
백년
기본료
되기를
담당할
가까워
수목극
연주회
##淳
정색
##앤젤
##저수지
빵이
##지역에
클로즈
연타
앞을
##治
명복
##흩
매립
정책위
촬
차별화
이상형
조정했다
洛
##협회가
이라
퀄컴
바뀐다
통지
53
##됐다고
보너스
##서로
콘크
저가
##거리가
반월
2022
나아지
세워져
펜
액
이종구
비니
##⭐
##부터는
노동청
김지은
1905
신생
매
##아치
서울대학교
뜻밖에
색감
강북
23개
##리어
가까이
##→
해운대구
부나
포도
비공개
친한
조끼
앱은
출력
📌
싸
유사한
고귀
agentlittle
도매
노력하겠다
실버
##if
직거래
333
칭
통상
부적합
하나로
고정관념
성민
##경화
느라
예쁜
강한
헝가리
며
##적인
에스티
드러났습니다
만들어서
댓글을
건보
참여를
규정이
불편함을
##르르
##호를
취량
##역에
우열
청장은
##71
변
움직였
ELS
결실을
필요
어버이
헸
##윈
선정한
🙈
상사
꿩
##중앙
Sch
시험대
쩍
후보가
기강
소대
이쯤
작위
본디
예전
김선
롤링
##릭
##날레
Gu
고아원
최명
##뿅
Pro
지급하고
사업자의
국립과학수사연구원
칩
마하
철저
##물로
지방분
안일
성향을
재활
멍하니
고려대학교
망원
가인
某
어정
##하죠
다양하고
272
문의가
써야
활기
헬스
##부산
배설물
끊임없
김응
##ird
應
친밀감
##림픽
피리
깨닫
대학을
태세
##나게
##⋅
##령관
자자
직간접
터치스크린
간다면
굳혔
은밀히
단과
드러난
考
##개발공사
##스카라
나뉘
상여금
중턱
금주
##흣
##기사
정가
수렵
이루어진다
미세먼지가
승마장
⋅
미국
인다
우주
설문조사
마땅한
##物
서지
가단
##심사평가
떠올
금호타이어
냉동실
公
톄
설정
수목
##jee
PEF
##달러로
무수
지어졌
##가야
man
양해각서를
##정식
潮
돌파
##남자
관록
##지않
ruby
스프링캠프
##9명
유지했다
낮추는
찍혔
##산맥
준다면
주립
마리나
##세서
건설업계
##능
송곳
울진군
##體
공생
아웃렛
사업자는
gu
계엄
나빴
경우에도
##연극
##共
##이치로
괌
박사가
더하
대내외
##있게
경솔
법무
북상
분석도
##비용을
해리슨
중징
라벨
스크롤
36
목표는
김경호
장하
##짓
##상회
시리즈를
을지로
소중히
조성한다
추출물
##득이
##페인
##자연
猶
##me
룰라
미켈
家
##도까지
세계에서
떨어지는
북아일랜드
티볼
##클럽
사냥
기록하는
##매각
으셨
삭스
축사를
좡
수비력
##iz
떠다니
##툼
炭
입소문
##타지
분향
화려한
##비치
액면
전편
더미
베네수
제시한
강예원
오를
철조망
향상과
##정책이
대시
##yright
쓰라
김홍
春
네이처
##즈음
안심하고
BS
임원은
드실
##끄러
소다
재배치
弱
sh
추격전
갈등의
것처럼
묘지
##군과
##盧
##igh
##작업이
대우증권
광명
대회
유기
물러나
##풍
감소해
##옵니다
쌔
레저
##계약을
##우성
㏈
관리와
이르고
남겼다
狀
FX
기자는
YS
해진다
앙의
이렇게
인식을
상업시설
5000
##소가
주니치
alk
##음에도
불과하다
제한된
##군요
의료비
슘
자랄
참가했다
##건수는
넓힐
교과
직능
호평
쌉
##뻥
##iam
##판매
달렸다
물건
침해
증자
##긍긍
##순이
흙
Out
괸
이통사
신촌
테일러
사용하기
자체
응의
##체계
벌레
##깨비
486
篇
질타
##비에
신민당
덴버
ETF
와이드
##들인
쑵
얻어먹
AC
##행동
외환보유
근로자의
차례의
##께요
두산전
##마드
##아의
상민
##릏
##2P
에로
##랑크
##멸
##amer
fifa
##뚠
스키장
아하
자금이
컨퍼런
3개월
##人
##48
의미는
##그린
연기를
기록하고
환자들은
할매
曰
다이내믹
받아들이지
세련
리조트
##ㅈ
사교육비
유찰
한답니다
호흡
鏞
##모바일
##편을
##완화
특징은
ph
영상과
활동에
inc
바꿨
발전시켜
수일
괜찮은
##염은
##내지
##CBS
##찾
##스타일
##보드
##호스
유타
아저
장동민
황새
외부인
배양
표정으로
##城
에스
인원을
##연구소는
애썼
팔다리
at
ILO
국제사회
rd
참모
마스
만다
하염
했어요
Michael
춘의
##니와
##졌다
쓸
프로모션
후에는
옮길
##이야
##데다
동두천시
비판했습니다
일대에서
고노
##법으로
렐
배럴
대회는
##비밀
##체육관
동남권
B2
협회는
우량주
SW
탈세
루이
설레
수선
큰
통신망
아사드
良
분량의
두번째
이용자들은
★★★
리베
##6만
고구마
내적
김상곤
이대호
별칭
##기는
출입구
헤엄
##째인
보기
수급자
카탈
연재물
##2의
세련된
많다
피해가
대구시
심부
자유
고는
마음대로
##터에
##38
개그우먼
엘레
포식
경기를
프로농구
생가
자릿
##법은
추입
무섭
##넒
실손
㈑
잰
박중
산유
전략은
다잡
펠
◇
고발했다
풀이
야경
카카오뱅크
##s
종량
ppm
모
컵
##델
담담
常
농수
##잤
마셨
Col
##시장과
선암
제공한다는
提
##처치
이재영
돼지
괍
전통의
기본급
##母
##텨
깊게
신의주
30도
예결위
##짱
틀린
네이버는
##약
조사관
저리
##칩니다
##Ⅴ
연립
유영
##투자는
어떡하
그레이트
##스바겐
않았던
3000만
하층
##녓
정상회담이
그녀의
##ere
조형물
플롯
시도가
##는
물든
평소
##張
주먹밥
慕
##위
표현하는
친숙
##이미
상수
##8년생
자이언
대머리
기쁘다
운전을
##ye
기록했습니다
##위원은
수구
흘러가
순환도로
##단지를
##연구소
취수
유지할
##개골
##육
##작업
##챵
개발한
직설
##의가
##성에
하려는
목소리를
확장을
효성
New
##욕
So
薛
##ross
차도
오웬
##형물
5900
##얼빈
김복
권역별
추대
테러범
tv
##an
애당초
상황이다
##aking
##비율은
希
니스트
샹
정현
하토야마
NL
총무원
##케어
축
오산시
삼월
윤
성벽
잃어버렸
리니
서울아산
감독은
##구속
토요타
LI
##전을
기준
본문
##승마
##하이머
화음
넓어
##률도
300
돼온
컬럼
##비용은
권한대행
지켜봤
##que
신화통신
뒤집어쓰
증명
##平
##rist
부장은
##입니까
##노믹스
##밖에도
페이스북에
메뉴판
구장
기업공개
안영미
저널리즘
KB국민
##영준
머니
##천후
조이
포이
발표는
습니
코멘트
넘는
위장
대박
tr
구술
패키지는
소생
兆
붐비
번식
거짓말
##오
즐겼
내일도
덩달아
도미니카
지소
연고지
식자재
마녀
인센티브
産
재학
줄을
##연설
반인
버닝
부추겼
지배인
4가지
##으면
좌
나루
위가
##현정
평촌
실정이다
##세력
클린턴
생각합니다
AT
##물
내곡동
난소
무기명
동반한
라오
막아내
##梁
##기관이
☕
비로
베어
##번호를
옙
당혹
##☆
최재
##점은
변호사가
##한의
초등
비평
##글라
늘릴
십상
셋째
법정관리
420
프로세스를
서신
##경은
기후
##토르
걀
옵티머스
사유
쳄
브라운관
##나르도
풍의
是
##노바
CR
퀵
모교
빨대
1979
##조목
세금
검찰에
오성
##겁게
걸기
##떵
##법인의
##apan
사표를
##iew
상위권
모양
개발자
현란
引
东
패치
##상업거래소
##차지
자유주의
솔직히
재료로
##곡동
문제라고
힘겨운
익스트림
먹으면
곱
일정은
기록한
##렬한
1991년
쓰면
사랑
경전
산후
셨
노조와
유민
교활
있고
민의
공매도
샙
네덜
##′
##원장은
부드
아브라함
순매도했다
대기자
##땡
크레디트
호의
이춘
031
말리
여서는
대학가
##석이
##기관으로
상호작용
발표된
恭
편리하게
해안가
##챱
##휄
가파른
##모직
폭의
곡물
있다가
자율적으로
능력과
##陳
bar
나면
폐지를
50여
멀쩡
툭툭
지겹
##정동
조재현
괜
보냅니다
に
##츌
푸에르
##하라
퍼즐
랏
됐다
##졌습니다
Sc
상을
##행이
관심을
한의학
##버러
예정입니다
내각
수류
허용하는
##식품부
센티미터
금융위원회는
운전사
##가격의
##솎
이석
평형
넘었다
접수된
듬
입건
궁리
에스케이
철갑
이민자
1도
뽀
외인
서서히
팔과
중재
블로그
협업
빗발
집계됐다
사장은
문
##uc
코우
##산품
인은
기능을
##카오
##게더
㎡
편의성을
##그러운
어려웠다
##👏
역세권
들였
킵
암각
사죄
차별화된
무패
英
follow
뺐
##성장을
걸린다
김근
##팡
LPG
##교육
##쾌한
변경을
노블
한몫
없도록
더그아웃
콘서트홀
타선
압록강
##절기
증가하면서
##하자는
파노
##독립
응원
심하
주가의
##있
상체
잇달
##필드
##우고
전혜
이창
이동형
바통
##렷
대전
##리안
이유
목화
비욘
##2만
SK플래닛
권철
아이폰4
성공회대
찾아온
##ue
탑재
자사의
데서
😀
현물
국립국악원
본보기
##뎌
회원사
天
##휙
불고기
##TR
원인은
##락을
##스토크
나온다면
##카드
회견장
궁예
아크
##대회가
##값을
동일시
울음
##솥밥
방화
대상은
카카오
조개
直
선박
스테판
떠올리
여장
살아난
식재료
##캐슬
주어지
두드러진다
눈에
##롱
관련해서는
만화
가이드라인
잠수함
모유
명만
전시관
LCD
Je
用
보여주는
수도원
##법원
##제표
발맞춰
으신
원유
##evel
애로사항을
건설
온라인으로
결계
취급하는
##쭝
##치료
끗
사용되는
##럭
라든가
반
영주
여비
##쬘
헤이
##씽
174
다짜고
원은
신동
선택과
초인
##삿
앓고
##원으로
프로그램은
의미
시민참여
생산업체
신정환
圈
시급한
hacho
수급
믹스
프로토
설경
교육과학기술
1933
높아진다
상품권을
##씌
패턴을
걸터
조절하는
채무자
그래핀
뤄
HP
렜
캠코
5월에
ㅜㅜ
훑어
방이
골드만
禮
##압의
장고
적중
국내에서
제보를
##쭘
소규모
재래
##上
방북
눈썹
정선
눌러
학적
##쿄
##팬
심하게
##틸리케
##췌
##빼미
하는데
##장한
##리즘
사조
리눅스
##하의
ro
쥘
지켜냈
귀찮
281
위크
함성
마을금고
##ental
구축하고
떨어진다
결심
쨉
유대교
내외의
싸이월드
##방이
##멕
떨어뜨리
출고
품고
ん
이근홍
무중
##제강
전문가와
선물세
Comp
농사
##nikos
redban
##려고
다르다
곡선
고라
자동으로
자만
속
박연
테
모름
판정
UCC
주어져
집중할
확정됐다
거구
##루션
대처할
17개
코끼리
KOTRA
드러낸
인가요
연희
##졌으나
##꺼번에
섰
개점
속도
진천
##러스터
##자와
성시경
기질
뱀
챙겨야
쁠
튜
수자원공사
배낭
파괴력
전원을
속히
##흘
논란이
ㆍ일
해약
##aul
미국은
일지
적십자
만행
##전으로
##군청
악행
##작품
이야기
약혼자
흔한
외무
##제작
##jeeq
티비
두드렸
2006년
것이라며
##헝
##돠
연지
청약
##가중처벌
고작
관세청
행복
합의점
##충류
진술이
해본
직책
눈살
바빠서
오른발
파업을
尋
##의식
조성하고
바퀴벌레
##륨
계정
쭘
KT가
여기는
대장정
##스에
ID
2005
122
##오드
앞세우
행정력
SP
의정서
JP
메아리
2022년까지
此
##치산
극작가
아지
침범
소의
##徐
서서
코오롱
芳
연기력
최진실
검사를
버마
맬
프런트
나빠질
추도
추진한다고
##분할
유격수
VOD
어둠
##종
모세
어닝
뭡니까
灣
거북
VS
##very
##썸
곤두
버드
비하면
援
동일하게
에어부산
대리
##으려고
심폐소생
1만2
돌입했다
담임
폭발
롄
##왈
頼
모간
##게는
성접
등지에서
소비자들이
오로
확보와
태웠
민주당이
관련법
묻고
향을
소리
더는
731
##ames
주도
당진
강제징용
050
투자했다
의혹
후쿠
피처
##뵈
강변
##↑
잡아내
소포
총격
균형발전
불러왔
통화정책
필기
##app
million
복장
점도
물결
발짝
성과로
높일
잦
##프란시스코
##넓
발열
빨라질
매트리스
확대한다는
##오면
고이
맞춰야
##코의
행사와
##위원장을
최종전
일본군
내비
##포
배기량
2시
##위원장
주택시장
##염
##챕
휴무
기념식
토론토
총서
##연봉
尖
후반
전화로
PV
##뤘
도의
##여진
프로세스
끄집
딜런
선출직
누르면
이와
##계약
지정학적
일부
화나
어제
redpic
아이폰
자축
##인구
옮
김영호
##평을
##기소
실시한다고
동시
피칭
미셸
##대변인은
무서운
RPG
##도안
플랫폼인
지시
정형
앞길
썰렁
구균
기여했다
떴
건교부
룽
파나
종영
##임대주택
보스
호우
김성수
닝
핼
재무안정성
💜
중앙선거
만장일치
흐름을
존립
As
대단히
커진
절반이
동정심
예타
으뜸
아삭
보이는
밝혔습니다
서영
건물
한나라당
회복
사채
애로
##었으며
내놨다
쌤
##량에
혐의
리치
##里
##노인
스타일의
어쨌든
AU
##生
##電
2개
모양을
尊
네이버의
##거트
##한을
매수자
##억달러에
##甲
혈안
##집트
##😝
이시
되살려
##식간
그런데
3차례
활동비
셰프
좋다
뽐
모스
스티
드워프
저탄소
##부들
밝혀냈
##마
윈터
나오
현대
藍
손바닥
사와
탄
##패스
신개념
##ri
箭
힘썼
##갈등
패트리
왕실
구현하는
##기세포
카카오의
##헛
1970년대
##의약
거머
새삼
ㆍ보
검의
박종우
서커스
맡았다
이철
기여
최상의
전립
박수현
부채
흡사
고발한
뭉클
##대가
호실
민원
발표된다
cafe
##모스
알래스카
Business
##良
지내
##웨
##생태
##호프
버락
抗
모니터링
시향
재미있게
N
계
질투
줄어드
유발하는
##晋
발리
226
한일전
휠라
관악
국립중앙
待
전문적인
##악단
312
점포를
수두룩
##형이
bre
##카
측이
##솜
작성
월남
##어먹
피셔
뉴욕증시
來
가정에
##렌지
질려
보호하는
허나
코스타리카
음식물
昇
혼전
대표와
##워크
아나운서
윈
##oon
##악기
##뻗
kmk
위하
대자
뽀뽀
##*
좋아한다
됬
소아과
사람들의
##협상을
노리는
간단하게
개정이
##∼20
4000
개정을
최신
맹활약
단순
그렇죠
개최할
전북대
요동치
할까요
에리
안
물리
井
이소
웅덩이
yu
醬
정경
토니
##횐
뷔
1961
일이다
죽을
우마
일으키고
그리스도인
사상자
뉴욕에서
어딨
불행
속사정
##MI
국민에게
아이디어
눈여겨볼
SK브로드밴드
##일간
분석에
뇌졸
AG
##룩스
연극
##곳
내년
남아있는
일으킨다
곤두박질
갈라지
##예술단
기념촬영
소통하는
윤난
##소의
군포
4800
법칙
이봐
2003
##카메라
傑
게으
나와요
##미는
##점에서
성수
도감
요청에
##프라자
문형
은상
미뤘
크리
奏
汎
탈환
받으면
제기하는
##규모
Love
도모
머문
약칭
카펫
해줄
드물
##19일
할
교시
사고
대한상
전동차
축산물
##론자
일간
상장폐지
농림부
예로
밤에는
ash
임이
는디
fa
장바구니
GS25
고인의
돼요
평판
덕분에
최상위
10배
성완
##푸드
나온다고
##尙
답하고
휠체어
##시키기
인제군
##고스
화면이
분향소
동남아시아
소임
旭
기념하는
##계에서
핍
XP
친일
한선
##고로
ㆍ재
레스토랑
바스
매혹
시점에서
##툴
##✌
}
징계를
Su
쫓기
제주항공
주희
주승용
시중은행
##재가
방청
##같
소음
전문가가
번갈
이행
奴
##뗀
움직여야
삶을
##웬
##슐
##ed
주성
衰
참치
쿠르드
##R은
김광
##큼
##섀
##군사
것이기
##압
몰렸다
##멍
발언이
복통
불태우
3억원
##디움
학업
錫
손쉽
광주
##눙
Nor
거란
감칠
영해
낮아
노점
##mann
남구
살롱
빨갱이
두드러진
##원도
##줘
##갖
쌀
##생들이
위치해
주목하고
생강
##zz
오클라호
경마
순회
철원
청담
직계
다변
비지
놓여
번번이
gre
해충
사보
위주의
모멘텀을
##非
특기자
부안
자퇴
개선
영양분
색깔
액체
釣
안이
이탈리아
기획사
띄웠
##디슨
##텃
선다
들어야
형이
백두대
折
콘텐츠의
##뽈
임명된
최고조
최후
기울여
아오
콜롬비아
##irl
속도가
다의
##하려던
원리금
寶
우선
본국
않았는데
요금은
야생
찬물
베니스
가용
창법
맙
##노동
OCI
##등한
한국전자
##gc
신재
##만4천
경쾌
통신부
##청과
하임
중구
##만5000원
##매장
##러지
예술의전당
유래
着
聽
도정
김일성
수족
차르
##청사
인연
후술
사법개혁
##일즈
등도
##ript
##빌라
처할
두렵
사립유치원
지회
##리프
차액
주제로
백기
건강
##업계의
안팎으로
##り
##소설
해져
만도
##퇴
계산서
[SEP]
빼내
냐는
##제에
##토론
한동안
되기
입주를
##행위로
내려야
고려하면
##치즈
통증
##EN
포장
##버
홍상
##aff
겪은
회로
충남도
그러자
고속
##ㆍ
떨어져서
##엊
리스크를
에서
##볍
잭슨
##비디오
사용에
토모
관해서
정구
애견
et
사단장
##괘
파란색
잊혀
실외
올려놓
주제
苗
##가격이
개회식
##짠
340
심기
으쓱
관련업계에
의협
가운데
##수만
건설사
##상태
골
##85
일정을
늦게
##통을
우수
307
민주주의
##채기
용지
##불교
반년
커맨
지도부
껫
보존
도수
##추천위원회
의원직
스푼
##2억
시진
😛
##껍
다친
은평
##길에
유무선
분데스
##호의
이바
중점을
심고
##홋
##회사가
라스베이거
극성
안전행정부
보디
안드로이드
##움은
창의력
패션
화합물
찾아올
##one
嗣
대물림
예치
고자
참석하는
밥을
쉬는
문성민
시설에
산길
館
드라마
재배
##로에
신산업
만나
콜로라도
좋아할
##畵
모드
생
중국에
골드만삭스
요의
부속
분기에
하다가
##관련
국가의
압둘라
시점을
##킴
오클랜드
##상황을
답을
거래소는
##세권
벽
##혜정
goodchang
헌혈
##교육지원청
차량용
##자위
삭감
##한데
9월에
쏟아지고
연상
부흥
컨트리
##머지
競
##밑
치료가
더라고요
기타리스트
매출의
##학력
합해
##BC
좌타자
##ather
결정이
줄여
아름
초미세먼
미수
애쓰
##수를
상금
게임이
##야마
봬
##띠
통장
의원도
##◀
##코스터
증식
fe
##cm
##oT
##스위
개국
해운대
경제를
邪
Che
박람
##됐는데
扶
있는지를
##교섭
앱스토어
저격
##낏
역사적인
##맞
##잔
최희
벗겨지
유저들이
부안군
준비한
##프스
부문에
한족
켄터
상주시
##쿡
타인
공제회
dr
##전문가
##제가
##기자기
사하
대나
설현
##쌰
총부
##출을
화고
A씨와
##시설
≫
끓
강탈
댓
커버
메웠
宋
금산
근대
3개
##uf
카메라를
응답은
생계
표본
때다
지도
이뻐
역사를
작화
초대형
매립장
초점
민주당은
醉
쌓였
##림이
국문학
서울신문
당도
전체를
조국
드래
블리자드
##닉
낭비
이해하기
영화
서부
싶을
비엔날레
##됩
世
형벌
능력자
조짐을
##송금
##ᄌ
정확도
##있고
批
더해
공개하지
봉송
##전트
##미트
효율적인
떨어진
이끌었다
의장의
예원
춰
한다는데
쿄
성공적으로
공정한
나라를
맨해튼
성실히
맸
약보합
##다
의정부
짓
통상임금
副
##수산물
느낌
##캉
聲
프롬
한국무역협회
의지가
열심
極
실시할
김사
##중형
Air
##깄
##㎞
##졌고
용량을
##선도
##노이
한국은행이
戎
생업
난해
##on
묻자
##금과
Trans
솅
꾸러미
##기업으로
비만
원미
인터내셔널
동식물
꽃게
손대선
장밋
이승철
박윤
열심히
정반
아소
지망
변호사는
左
망상
동국제강
dec
##테면
있는데요
##idth
처벌이
도내
설문
뵌
##켤
아브
##댕
쿠키
체감
일련의
반응을
걸리는
종목을
##대기
##7일
앞면
심포지엄
먹지
미즈
빙하
숨겼
입학사정
허락
앞으로
드미트리
라이너
the300
구축해
환호성
레벨
##구동
달성할
닫힌
1080
누출
해가
획단
줄어드는
인식하는
ROE
##하거나
미성
kwon
허위
항모
바우처
우리나라는
뜻이다
바퀴
##해요
돌아갔다
황홀
업체의
프리미
수복
한중
직원의
용접
세의
25년
##콘텐츠진흥원
앞세워
##흐트
##쫒
의심
MM
실적이
賈
잉여
고착
농림수산
21개
포르
메기
조한
천안시
안보
급행
##하길
하태
the
팬덤
방어율
흐지부지
설화
수치다
##들리
##❤
##상태를
##agement
차승원
환한
챌
여행을
IV
인장
효능
##야기
띄워
1225
두꺼
기금
태양계
소녀
온
##여행
##털
역설
##ap
소형
침구
와요
나는
謂
용어
악영향을
##문
스틸러스
##타기
감염자
##호에
제공
하룻밤
눈치를
일어서
김연경
Index
여동생
##바지
##니스
워즈
##관찰
불구
절친
##팸
##오기
부총재
##학생
가정폭력
##스페이스
적용한
##즙
비록
촘촘
##다스
포토존
하루를
장려상
리니지
이용하기
수도
예민
코팅
뽑힌
지식재산
했던
##둣
두절
##姜
##전시
##으려는
결의안
테니스
느긋
범람
주무
쇄
대란
마의
보광
블라디미르
언급했다
栗
##무를
특임
정관
##5개
이브라
##와는
藻
이제껏
##wshin
##뇸
##륀
호흡기
##낭
제작해
공갈
##리를
태국
YTN
고택
들려주
알아본다
거래를
소중한
분양한
언십
gogog
추진단
공이
탄력
신고식
대책반
##마진
평론
##법인은
입사한
단검
##킵
1200
원어
다만
반대파
액세서리
전망하고
노모
신청할
##챔피언
##글로벌
순유
청취
라인
아내
##OS
서스
신규로
주민세
누렸
##사무
접촉
세대의
자필
작년에
리뷰
##테르부르크
젠장
매트릭스
삼성에
##히토
삼고
치열하게
##몰
簿
나뭇잎
##쨉
세에
이재현
참고
삽화
으르
공개한다
jh
베토벤
등으로
힘들다는
나도
##B
인민
인수하는
㉠
兵
가부
전할
운동은
박사의
네거티브
감소
국내에
출현
심근
시교육청은
##막을
🏻
##현진
한국도로공사
##터와
##사고
팬티
##묏
㎏
##az
기업인
적용이
6
房
미하
치약
##광다이오드
이모저모
인적
브이
장을
8
no
서쪽
전권
간단한
##짰
포위
쨔
항산
문화제
齋
##州
Intern
니당
어드밴
김정태
##레슬링
##타워
##사원
##회사를
할리
바뀌고
지역은
후배
팔뚝
뼉
오클
##위의
산화물
##나가는
진전을
쬘
스텔라
놀라운
##og
법령
##운전
퓨전
웠
##도나
노리
커졌
뛰어올랐
##나미
더불
사우디
##roup
돋보였
뒷문
홍남기
180
##창의
##견이
계약에
도마
##사전
다짐
우레
윾
서울월드컵경기장
메르
##전쟁
대화의
정사
int
8800
기업과
김모
세균
김준
재난
묵직
오제일
따라다니
진
MobileAdNew
정부로부터
근육통
te
스포츠토토
정책금융
##가든
여드름
출신이
관점에서
업무보고
임재희
##률과
붙어
황교
암흑
郡
##왔다는
노랗
ㅑ
이사장이
옆구리
##㎎
##증과
바이러스가
부부의
##宋
##팽
1970년
논쟁
芝
굼
右
##주의료
##쳤
덮개
운영비
휠
철조
군수
공휴일
##철도공사
##다비
가구는
의정비
##춘봉
##력발전
중립
##바흐
##pr
15억
##두환
생산직
입상자
점수가
##全
서북
에반스
식음료
인테
##och
캐서
안중
##홍철
숫자가
시설과
흐지부
##세종청사
##ature
##功
封
간사인
涅
잖아요
##벚
본사의
스마트폰의
##노동조합
회장을
##분기점
이산
구매할
##리한
##세한
i
##마켓
등을
그런가
##푸
만나는
구치소
선을
貸
운영
2007
WS
세끼
##너
소비자들에게
야당이
兮
알려지면서
김재철
##델리
정전
its
句
사정
##욤
셨잖아요
농업
쾡
집중
벌거벗
검
jmstal
있을까요
고인은
알라딘
##동포
추어
차이
##투표를
전셋값
cap
덧붙였
##🤤
杰
협약에
ISU
수주한
작업을
##남기
연내
모토로라
유명한
대학이
찢어지
날조
졸업식
삼시세끼
含
9일부터
##상수
##폭은
수사가
##”
내걸고
##챘
害
##값은
식사
빈번
대사는
다구
국정조사
거점
Mobile
다짐했다
과장은
박지
벤자민
🔥
알아서
한국당을
맞다
유아
하순
전형
회의에서
##무지
사뭇
jmkim
##숭
##티넨탈
##장으로
##퓌
##만5000
폭락
박희태
##숴
물러설
단독으로
##액의
객관적
후보지
아세안
한명숙
泥
##000억원의
6시까지
##ㅕ
펏
헌장
생색
流
시계
7시간
다함께
138
##ama
찰칵
380
##운영
서인국
국론
주거환경
기록했다
어획
##롄
##시장이
훠
대영
간판
##렇
뛰어난
투기
##ction
고찰
일어섰
##다발
##탠
##국이
인물을
하락에
위해서는
잠깐
조의
방랑
던져
언론인
갈아치웠
으니까
과기정통부
평방
히든싱어
##극단
맞은편
##제일제
발생하면
지사를
외지
넣었다
지혜
설립을
##신수
채택한
##아는
夷
삼계
발명품
전일대비
##반대
중앙일보
다행
최근
성장의
참새
불어나
검찰개혁
물질을
남편의
벌여야
당했다
도산
유람선
대피소
##권
奪
디딤돌
衆
박아
##몇
需
횟수
연락을
1977
郞
순이
미드
혹평
풍습
片
못지않
드라이브
was
산업용
천명
제가
항체
##졌으며
##😍
인상에
관계자들을
파티
##신항
모닝
장윤희
현지인
데려다
이야기도
인
부모의
##의지
다쳐
渠
직장
조례
대물
주세요
##도에
운영되고
리더십
##ect
대리운전
이어가는
託
배반
##朴
2600
##탄불
피한
올랐고
槨
운용
관심은
와이번스
홱
그레고리
##시즌
대통령을
##기와
자영
단국대
대전차
베어벡
쓰
부족
않았다고
휘
국립극장
운영한
광업
SUNDAY
##지역이
##프레소
관리할
##ha
천왕
두께
피자
시세
대기실
조흥
켜
##리와
고현정
she
대접
금감위
텍사스
증가했다고
오키
부러진
##켄
부풀리
강하다
내며
島
어려움
잤
하급
우호
클릭
연전
가족들과
정민철
##포화
보이지
재료를
웰스
##기관인
행세
貢
요렇
종단
##소비자
적합한
펴내
##팀장은
바캉스
##정부는
한수
##1차
##공산
질병을
임금을
여유를
##ies
김병현
반한
셈이다
에이치
#
손꼽히는
##노리
디의
셧다운
피력했다
김민기
아이파크
##ond
국무
그람
냅
納
찍힌
가지런
##지겠습니다
머무는
하소연
요소가
##ㄸ
추이를
암컷
얘기도
거부하고
##혐의
플러스
노동부
항성
작사
##면에서
숩
##리카
##코리아의
##아라
미키
차질을
섭취하는
웻
매사
차량이
서청원
잠그
현지시각
기각
##ai
실정
오늘날
좁
1969
루나
##에이징
접근할
##국립공원
셰
암묵
흑인
신승
1만4
대용량
##ㅐ
이하의
국고채
깜깜
전압
동반자
유지될
공급
텔
아리
##uel
CJ제일제당은
##eft
##자의
먹
##경험
토요일
TA
부문이
늘씬
2014
##키트
일컫
940
날아
##투수
##킷
##기업과
일
도망쳤
제외하고
비해서
고화
국제유가
국회의사
🤭
##무실
##테인
休
코스닥시장
인용
CSR
류승
虛
##옷
승용
통쾌
노량진
##명이다
更
노조
변증법
행장은
연결해
내려간
담은
발생한다
팔당
##색
pr
##증을
단계별로
스레
##았
##라비아
990
박세
획정
비유
넷플릭스
밝히며
##토즈
평의
총체적
##으로서는
모음
Lee
선생님
##중공업
##리학
체로
滅
베리
아련
##업을
연간
##째를
경제정책
김유정
계열사를
골키퍼
제천시
TF
성취
버크셔
비엔
三
NE
스파이
달성
반문
##눗
##금리를
000만원
단지가
게재됐다
해조
##하드
##솅
시켜야
각별히
하려고
玄
애착
현장에
절상
반사
에드
班
##격에
편에
##AS
뜨거웠
챗봇
##문화예술회관
녕
회피
인연을
기자들과
던데요
윤계
융합
사회관계망서비스
허탈
##소득
제프
부분이다
과태료
실크로드
##00만달러
##초교
##청
병사
##움의
교사는
##현수
다목적
##공간으로
##관
직원을
완만
유업
야시
가루
전국경제인연합회
논할
서사시
해장국
아모레퍼
##교육원
##90
소작
목소리가
##ical
병역
사는
이호
##라
ㆍ국
아무튼
업황
무뚝
##형에
좌우
쉐보레
크래프트
정변
##랑스
##램프
선수는
##ᄎ
커멘트
리더
巴
레버쿠젠
諭
그리는
민자당
유쾌
한국과
강소
중에서도
##mail
1934
결집
취해
IP를
안건
㎖
세미나실
매각
##르바
아랑
유라시아
##보험의
##ister
해트
경제팀
묶여
네이션
현대기아
신효
配
연장
하남
하면서
금융사
아름다워
관광지
선물을
선양
수소연료
약하
##까지만
##훈장
##과는
##균
사적
반세기
##려야
##ob
볼펜
위험을
켈
##인트
아카데미
것이지
로제
엣지
신종플루
냉
보청
끝날
##규모가
돋보인다
🍳
사나
어린이집
끄덕였
倭
廟
하신
##레아
불미
냉정
항공우주
농림축산식품
알게
마주치
슬퍼
포레스트
물들
그란
김고은
클래
도민
법인
##첼
##즐
송전
사다리
인재
가파
행복을
##업계에서는
지나지
대출이
##인자
기소됐다
징후
척추
황영
일대비
에서부터
군대
##센트
지식을
##스킨
##눌
걱정
기미
고의
가로수
Let
1박
경작
##폐물
귀경
생활가전
띈다
깎아
##D
##쏭
ww
파우더
鋼
줄었다
朴
능가
요구되는
산기
어려운
특구
짐승
日
간섭
넘겨받
고승
1956
강추
지원이
##재단은
입출
이름난
수액
이대형
횡성
了
꼭두각시
11월까지
몰두
##병원을
와의
##여개
휴대
2도
김두관
쫴
연고
##장이나
외에는
필요성에
18개
여겨졌
흔드
진단했다
전무는
루프
##림은
토론을
垣
땅굴
보유
X
號
##긍
황산
근원
배럴당
현대산업개발
북방
##간접
##단지에
잇따르
바꾸
지적한다
따라갔
2025년
##야말로
생존
할인
이른다
안동시
예정이어서
##쥐
조던
수천억
때도
국방부는
김영란법
##주지
등본
옆으로
한국방송
업자
##수수
소득
지탱
화물선
대법
＊
##왕
지금은
##＞
화재
소영
전패
산림청
올해는
경제가
김영준
아웃카운트
항목에
실망감
브레
척박
예정이며
##meric
코스타
##폴리
制
지원서
전월대비
##더는
꽃미남
립
해외여행
계모
밈
참기름
못한다
의사소통
서울중앙지검
착용
sch
##학원
안젤
##금리가
승천
적정한
##궐
이상이면
동교동
진정서
##ichael
것은
베인
네오위즈게임즈
의무적으로
##추얼
핑계
전기
##하지
5도
낮춘
EP
괴물
재가동
중공군
최영
환의
정무부
틸러
##무원
내비치
케익
공공기관이
##꼬
하토
연수생
뿜어내
卜
하니
##묫
시장과
트랜스포
개입한
##이스
보답
여론
##상스
190
조금이라도
嚴
뉴저지
코퍼레이션
살아나
정치권력
파종
구워
##시다
유튜
##하겠지만
한승
난처
##중앙회
숙
서울시립대
권혁진
해조류
인대
홍보관
수화
##있다
9월까지
부총장
월드베이스볼
특공대
대비한
메모리
반경
누웠
문의하면
##상으로
분이
항공료
확약
脈
너무너무
##하다
구출
겸손
매니지
##´
고용보험
쩔
총장은
저수지
북한에서
투표
천자
운송
付
##업이
##은색
처방
고개
##대상은
鋪
##난다
##포로
판자
졸업
마크롱
분열
##ICE
##랖
##연습
복병
##탄회
熙
穀
부품을
어우러진
##ony
받치
##연대는
전집
평안
부지사
##ric
유혹
거라
鰲
체납자
주류
Me
삼겹살
정론관에서
##uh
고성군
##MEX
##cess
##샴
##불
건강검진
##라호
아프리카돼지열병
금통위
소환해
##엉
살의
파이낸셜
내국인
무이
노력이
제4차
텨
카운
약사
SS
DMZ
당위
##농사
##다는
천지
박상
아나운
self
##ose
서프
適
##라가
개사
유나이
경마장
전망을
일궈냈
커지는
##졸
인접
수급측면으로는
##조사를
이상훈
구찌
수형
Cal
##인을
지갑
편의시설
두려운
청년창업
smister
소금
튀어나오
피곤
릿
유독
820
##민족
ㅃ
##스코트
##수엘라
닌텐도
동일본
배재
도쿠가와
판결했다
di
투자한
범용
달에
##뻑
3가지
우라
각지
상담사
15만
톡톡히
장문
앱
켄
##체대
이건
인물이
구매자
##이센
적은
##터에서
##춤
돔
##춥
일깨워
이민호
미야
ㆍ부
학생부종합
전자상거래
특
석고
기업용
애슐리
상환
박건
감안하면
##라클
전용기
이씨는
디자인과
디젤차
공개하는
##졌지만
한미동맹
겪
힘겨
효과가
쌓인
향연
두루
재킷
##목항
늘고
유의미
추스
##ㄲ
3선
피살
본청
탄탄
새롭
쏟아지
듣는
지지하는
일과
대권
한껏
##짭
소도
##이던
원성
안되는
##슈머
##됬
뚬
도입에
##대학의
섦
意
##낳
부적절
자민당
等
체제
성공한
순매도
오르내리
증가세가
명은
하느냐
목전
##바리
##족
문제도
조율
작아지
##ia
##코인
파운데이션
##재를
##청이
##6월
판사
오리지널
큐
##rid
안된다
천문
##법
본관
벤치
일쑤
고칠
머리가
이병헌
##타로
엄태웅
정일
##ports
교주
##8일
##시킨다
news
람보
카타르
일찍
부마
잠긴
벌어졌다
##지회
세종시
##る
올해보다
지장이
##집단
계투
서비스인
수출업체
##65
놓
바라지
시기
땅볼
쉐
##펑
세관
##쇼핑몰
##사람
오즈
공공
서명
돋보이
##특별자치도
회사
잣
##ig
봄
肖
가솔
중부
👉
##3의
##사회에서
K
UC
김남일
儉
거세
투자자들의
한도를
아이러니
wik
즐기
담장
75
스트리밍
진행을
쳐도
이어지는
이산화
비너스
土
꼬막
ma
수여식
v
##인
행하
왔어요
center
##가들이
촐
act
##金
##베이
##어졌
##봅
##셀러
유명무실
불황
덖
프랑스군
풀
깨달음
##큐어
일문일답
였었
Tw
##라든가
프랑수아
고객은
燕
성탄
저금리
자동차
##례가
##렌스탐
다각도
##단협
다르기
조인스
괴리
##주세요
정신병
보여진다
숙종
국소
삼성SDS
고삐
##코어
금융감독원에
곡식
##통장
정
하여튼
포지
정치권의
##되었다
우아한
문턱을
열연
바레인
##론의
더라고
鑄
##잼
경로
교육원
가입
시원
베타뉴스
줄리엣
31일
닿
총괄
2012년
늘어났다
찌꺼기
로직스
경남은행
檢
워싱턴
급선
CC
슬퍼하
구호
집권
도쿠
항변
##msys
##이면서
와중에
용인시
유지
폐
리디아
##점검
코엑
객관적으로
휘트
확대가
바보
늦추
##업체에
처리가
##24일
##나타
떼어
##스테이트
항소심에서
큼직
부천
떨어졌다
룩
몽둥이
##스럽게
##面
바이크
##기현
결혼식
벨라
단아
광둥
수거
연습을
##新
셀
##텍스
##선을
끌기
해지
##주들이
쾅
낙지
적금
##푸스
급등한
과학
게임사
rob
##화될
##우정
닭
救
방식
가량
남매
분양에
##추행
##되기도
##의금
뇌물수수
다지기
존의
손민
펩
숙청
0시
##질로
5
則
행안
행운
월경
계기를
5시까지
일방적
미국에서는
##내용을
beta
펑크
실컷
##즈에
달여
합치
오트
왱
주제를
팔렸다
머신러닝
##get
胡
산의
지는
이슈
리듬
조심스럽게
살펴보고
르네
##니크
친구
##패를
자분
깍
##가량의
드미
어렵지만
彬
㎞
姚
호스
폐렴
전략적으로
630
전문가
韓
배와
##duct
##김없이
##安
프로게이머
##강의
악플
질지
이상윤
이스
씀씀이
첫해
봅니다
소개
노랑
1994
귀엽
강판
껍데기
##고용
##룔
##덕
##방송을
##달러를
약초
##파이브
191
중소기업은
찌
안양
##명한
주장은
211
##식의
1980년
네티즌
##쳐서
에티오피아
2030년까지
##》
143
버틸
##포인트
##💙
박준호
베이스볼
##제프
웅장
{
꾀하
격퇴
##성과를
##케팅
문화적
증권사의
##뎅
飮
##시스템이
駕
만족감
기능이
##늠
편입
처형
시크
##셈
KN
##안이
8억
혜
담아
回
탱
홈
영업을
사오
##paper
안치
스모그
조사할
##h
##텔레스
박홍식
상한선
단체는
##00억원에
소자
##되게
강석
##클리닉
성희
나온다
일반분양
속보
받았지만
퇴
사간
나사
jy
원내대표
황해도
정운
전문기업
목격자
##두고
##께끼
청구인
堤
祀
좋겠다
소식이
##검찰청
됩니까
근육이
점수화하여
##뜨려
##두근
랴오닝
리베라
였음
미동
힐러리
노려보
최저기온은
沒
경향이
폭염이
보양
스무
칼의
濤
온전히
도덕
선거전
##캠
램프
##퍼니
幸
장성
##앤젤레스
보라
##복음
활동
냄비
바오
해법을
이외의
##거래일
개척자
그랜트
일절
발매
기병
##지원을
##私
주민들을
루스벨트
추첨을
가을
노태우
다룰
높이의
실어
가비
이상한
밀의
설사
굛
자유무역협정
에는
물살
국공립
나뉘어
낙찰
클로
파손
뱅
Up
현실이
탈락자
철학을
퇴진
어림
국과수
맞춤형
##아야
이현주
방송의
##선의
전성
법안
##자로서
트랙
올라선
내림세
구심
올랐다
가정을
##지가
완료
외환
날이
##토록
재검토
떨어지면서
감찰
사원
막바지
익숙
이치
과다
##공고
鼓
f
노래방
미미
난항을
물으
베이커
가능한
토머스
증시의
했잖아요
##arth
##과에
서울대공원
통계청
발길이
일반
##현장에서
수사는
해석학
량도
##끼
##얇
이다
뜯어
조상
매력도가
양키스
쓰이
현대모
##놓았다
속력
식물
인스타
설치할
접속
##ru
매카
최성
황선홍
키워
弔
##民
##이에
꼭지
##경쟁
##사일
獸
욜
##윕
당의
메시
스킬
사라진다
##자본
jo
책방
##山
##분계선
##텍은
도시에
0204
나트
노동자들이
마련된다
김학
##확실
환급금
코일
GHz
40대
편협
법무법인
##프라
클래스
##ipp
각서
##쓱
총리
##연도
소환
비선
##즈와
막지
코니
##』
강동완기자
박일
##체
패닉
눈보라
章
진행한다
남면
절차
발전
##삼진
배영수
임직원이
##현대미술관
찬양
##둥절
##스탠
자원
본진
##ower
국조
##℃
희망자
도약
##티비
엔진은
광양시
##elf
교보생명
광물
늘리기
가느
윤여
어울릴
업계
안에는
연봉
일전
샤인
930
그랜저
정책관
##이었
탐정
의총
상승해
된다는
대하여
돌아
토플
꿉
목사
개선되고
세실
면모
파리바
연설
라마
배출량
은행과
규칙
데뷔작
신용카드
삔
걱정하는
무릅
마다
한채
농구
아카이
인정
부결
##운동
초년
상급
기여한
거느
##펄
##란
게리
시너지를
##래스카
새들
##좇
천하
대해서도
맛있는
투명하게
자신과
##당국의
짤
예선
부르
여태껏
##럴
KTB
##대책
나쁘
핵연료
환호
##패키
慰
돌아간
작목
19대
나뉜다
간지
기존에
파이팅
통일
해석된다
출마자
휴가를
trans
들고
땅을
##부다
한화전
영아
상각
李
겼
澤
타고난
굵
업계가
##금자리
，
박노
더더
덤
박정권
행정안전
선언
앞으로의
비상저감
북서부
도교육청
##랜
煥
GS칼
##브레
##漢
에버
as
어둡
별거
Martin
액세서
라이브러리
동서양
후보는
##플러스는
방정식
다수
뒷골목
국민연
##기만
하락으로
운전면허
##홰
최근에는
매각을
민국
임차
오이
가계
발생을
엄마
어디에
외래
니혼게이
태릉
코스프레
섣부른
명세
##親
恥
單
암초
##투쟁
외부에서
밤을
주호영
끝내기
마일리지
고수익
티샷
우자의
##브르
그랜드슬램
상당히
똑똑히
莊
니나
##볕
구려
mail
않는다고
줄었고
##reen
09
막고
SNS를
대북제재
ar
모험가
수능
접합
상거래
시인
비교
1인
##000억원으로
높인다는
##ement
리키
##io
주민과
시미
##점에
아들
步
유상증자를
커진다
##뙤
##둬
매거진
폼
전달할
1899
열렸다
재무부
已
반영하고
4일부터
달라고
##연의
오후에
소프트웨어를
##어
대규모
푸드
경우를
대학
##▪
##음을
##章
대표로
최지
습
노선에
낭송
밑돌
인피니트
##리테일
낭독
뗐
##커피
분의
죽은
##콜라
표정
6900
농성
비중도
레크
일으켜
선수의
##소프트는
州
마도
꺼내
전적
##냄
지방은
장사
##역은
go
Ass
##넌스
체리
지금부터
지자체가
국민들이
천신
전체의
##기관을
갸
필요합니다
강인한
사용해야
##주기
##nik
두드리
빙수
예상됩니다
부들부들
##벼락
졸업자
##월드컵경기장
멘토
처우
##ar
##eam
##ograph
경쟁은
봐
김재영
##해진
모자
궁녀
미얀
##요건
총리의
양측은
항공권
빈곤
당나라
프로그램이
na
승리를
##밀한
편백
두드러졌다
##펠
입장이다
오사
과정으로
##동이
향했
2006년부터
마이크로
아이들에게
얻어
##사로
관련해서
둔
㈐
코레일
유익한
이영자
선거인
학교는
토네이도
복싱
시제품
##의장
##네스코
선데이
완주군
거제시
##오버
지원한
●
검열
500억원
임시정부
연결된
오초
자유를
흑흑
않게
##軍
##賢
魯
빈스
##높
즐거
##ya
위에서
##설명
경신했다
포럼
전문가를
##PG
옮겨져
V
뒀
##귄
왕따
##버리지
환자가
하계
##마당
타일러
유족
보내온
圳
사망한
한부모
복직
대신증권
모색할
좋았다
건전
##000만
민감한
산적
쿠폰
웃돈
도시락
##☺
than
부사
꿀벌
그렉
810
추세에
문제로
시총
싼타페
시점은
침략
매카트니
가평
##서가
자리에
키운다
자사고
세무사
승객이
추돌
잠금
바쿠
로데
나머
leej
나성범
지루
고마운
##체육회
먼
상의
재판부가
о
정예
외쳤
##사례
##홑
살아났
제기되는
출정식
돌아올
메소
작용하고
인사에
##느냐
mt
거위
야당은
9500
여긴다
을까요
彌
제품군
목재
아쿠아
자연
사퇴를
가사
전반을
얄
인력난
뚝심
##에서다
##신청을
서울시가
영위
##하모
##A
##단장은
試
부총
실었다
기혼
매수세가
베이커리
##깎
비빔
##국장
2000년
경제적
평창
##2O
##인가를
##끊
심한
나자
余
##덥
칭송
더치
##쥬
다를까
문장
반찬
ohjt
퇴색
발상
논란과
연료비
끝낸
95
납부
사회관계
군위
on
귀걸이
損
##농협
1999년
최윤
##똬
구성했다
##은주
산성
there
하류
이상택
뷰
중저가
212
다음으로
므
##오픈
민주화
무죄를
##도날
주연상
##用
기동
막아
조찬
##시설이
이명박
##혔습니다
호지
보고서는
중앙정부
시의원
##가액
##걸음을
받아
안전장치
경계심
물량이
딸이
다운
증시
취급
##각
14년
연구하고
##군이
실현
허준
##피니언
던질
毒
조화
쟈
크리스티안
##해전
착
이제야
말한
어업
스로
##💖
주소
게나
DJ
경춘
수행원
도봉
과당
다해
확대해
동물원
감은
##복지공단
아십니까
의미에서
재작
헬
197
보험업
##민이
전사
뉴시스
##중국
정각
격려했다
##촘
정상의
##ing
퍽
긍지
에스파
산케이
포상
##킁
이스라
관서
##30분
##욱
##관계를
그것은
L
아지트
최종적으로
서든
시즈
지수는
근무하는
요청하는
종편
신진대사
뒤흔
오렌지
찾아야
이태리
續
##조리
오브젝트
매경
진입한
##보자
##주들의
테네시
##⠀
줄어든
세뇌
any
연구결과
테크놀로지
아날
##맥
앙리
등장했다
예시
동양대
##jo
운전자
역으로
터뜨
개정안은
센터를
##9천
##理
숨겨
##O
ELW
번트
嬪
망해
일격
지천
양도세
##제인
##⑶
안과
결과에
사무라이
부문에서
광범위
偏
학자
변동
근본적인
##유리
안개가
속임수
사월
체크
첼시
데니스
심동
104
比
동산
어울렸
쓸쓸
중수
합쳐
없고
블록체
문화사
SUV
수학여행
필리핀
降
슬라이드
##at
증상은
1000원
##랜드
조원대
제공해
카톡
볼
찔
집행부
참의원
없애는
주장에
효율적
院
소수
기념물
포탑
##2는
내렸
##사항을
서두
유채
도트
적어
##이며
매장에서
건국
##자재
활동한
이루어져
고용
신청이
삼성SDI
프라다
몰려오
##노미
제스
마가
인도적
액상
있었던
##목동
바베
호조를
개선했다
다움
일선
파업에
이날도
##보증기금
렌즈
추
드레
##시키는
윤석민
몬테
사들였
##행사를
수작업
구강
훗
타점
오비
##디트
퉜
마음먹
##호흡
감소로
##입국
반발하고
掛
갇히
##소타
##믄
##뱅
325
가감
느끼
평일
형식
마쳐
배너
##면접
타르트
합창단
선임
##레스테롤
추신수
전현
적대감
의장
##per
JY
곳도
농경
ICBM
증산
삼키
잇달아
계명
幾
산골
보니까
가구에
개최지
백억
장보고
滋
昌
내무부
과로
출시했다
수칙
토론회에서
버티
##수스
##효성
어지간
##가게
構
권은희
내부
##디어
4명의
##뿡
해외주식
단비
1조
세운다
등록
청와대와
흐른
광역자치단체
치른다
##박람
는데도
투사
##OD
##촌
##ift
음주
VR
##팔이
열어
폭증
내부적으로
그럴까
##머드
물리학
굳
남동부
불평등
나무를
NAS
무안
뚜렷이
입주자
문제의
플러그
##켁
설비투자
신안군
한국은행
자산
일갈
##오름
한류
상수도
##미를
束
론가
세가
적용하고
다는
여자
##右
가입할
이곳은
본질
과소
##플루
친목
탄저
며칠
##제조
듀얼
포부
볼일
국가보훈처
걸스데이
##🙂
는다고
입각
출시한
숭
서병수
엽
정신질환
빅
챔피언스
탐
살아갈
브릭스
##독교
##ko
전세
귀여
다저스
秘
가처분
집의
국내선
높지만
哀
##꽂
골든
스노
슬라
전략
##줄기
사옵니다
함상환
Euro
##축산
지훈
##과정을
적재
카시
TS
실직
RS
노조가
20명
대대적
시디
영사
선승
노선은
骨
##켈레톤
굳건히
형편
하가
휘하
측과
##my
식비
이공계
실제로
##나갈
분위기가
활주로
##어리
일생
##43
##눕
후속조치
당론
##부른
학교폭력
조치다
바둑
행사도
##광장
준비했다
횡령
떫
인사
국가가
삼성에버랜드
교수를
관계가
##news
논문
뺀
물러난
ㆍ김
줄이고
진루
개최되는
분산
##티즌
소재의
상원
부턴
##고객
##리케
복
지에
##상과
실종자
##출력
xx
##로서는
엘지전자
경계
추경
치지
카가
腹
스퀘어
##하우
뜩
이용이
우루과이
apos
입술
##테스
##컹
룩셈
1주
물량은
鹿
비즈니스
MB
시골
보호하기
열창
팔도
생각
##뿌
윤병
파편
##준
드셨
모델링
김영환
##이고
선거일
이웃집
훈제
記
아마
##인들이
색소폰
##중개
판매할
메릴
고구
A씨
##셉션
어서요
6개
내레이션
사전
취재진의
돼왔
築
판로
코스피
뱉
삼천포
거치며
##스럽
장충동
벌이는
##운하
부두
측근
사회부
담금
일련
가급적
크리스토
부득이
표고버섯
묵시
김택
지용
관계자와
조언을
##책
캤
Tr
##회계
공시가
연방준비제도
##싱
허약
##fl
정보보호
처벌을
증기
제시해드리는
》
레몬트리
전한
섯
내림
##늦
대한축구협회
##사와
소개하는
내세웠
우익수
##간다
닥터
1947
교양
수역
##케이크
주재로
##널리스트
머스크
서울지방경찰청
후원
기동력
인하를
##대도
선도
취재했습니다
모니
야스쿠니
애틀랜
갈아치
cmr
머
켈리
##스러
아프가
이용하여
제작에
전례
오롯
다이어리
1913
테디
가보
세수
기술이전
읕
선착장
추천한다
내걸
習
이재용
침의
하죠
이사회를
수사와
云
##순환
##포스
상투
옥션
도미노
휴즈
전체에
이연
부위를
반드시
농도가
##로지
만전을
##트리
##ls
역사
배우는
##현
3700
##송이
디지
Market
산업혁명의
시작으로
##술
수축
좌중
졸업생
##๑
애플의
##페어
전함
2050
수가
통로
보였다
남친
康
獄
##olution
특성화고
점은
고품격
##샅
##시피
범위가
시켜서
弘
댄
현지화
##ways
테니
된다면
라이엇
돈으로
얼굴을
##이지만
심장
윤회
있죠
신시내티
고고
기자들의
##클러스터
혐의가
끄는
충남대
雄
DG
설탕
博
耕
##NI
WM
帳
여인
무너졌
말씀을
정조국
저절로
blue
64
##경제연구원
꾀했
##SA
속삭이
역효과
수업을
대회가
고흥
집어넣
관측된다
중점적으로
##안보
가미
히어
은행주
재도
거래량은
치수
庵
##의를
종과
선종
올리며
Korea
😢
개발을
단지
거래량
걸치
여성가족부
반감
약국
종지부
전사자
두려
##브리드
##히려
aT
도라
분야에서도
霧
범어
다도
##교수
후사
청와대의
표고
##MO
아르헨
졋
ne
息
범퍼
가드
마비
##만9000원
트윈
매일경제
투데이
항복
자금력
##덜란드
구체적인
싸운
화가
어인
씻
진하
삼거리
자세한
점포
내려서
동족
Cre
유명세
ㅋ
슬픔
누리집
##운데
속마음
##측은
##검토
그랬던
##쨰
엑스
구간이
채택했다
ㆍ제
따돌렸
##노컷뉴스
580
##랙
리즈
##진흥공단
유년
법안을
각급
##탬
말과
##훠
##롼
단단히
##나갔
이데
##114
##번에
돤
것으로
킥
정상
송도
안된
##열을
※
숨결
##테롤
풀밭
여념
표준어
지엠
달려온
법안이
##우리당
이상화
##결을
항해
MA
호르몬
대하
##영상
움직임은
선택해
정우
설과
##쿠폰
집값이
흥미로운
들어갑니다
아이젠
##맞이
물의를
군악
##겐
보은
시장조사업체
아이와
관중석
복리
누이
생체
연구사
루이스
설명하고
屈
클라우
##꿰
##NE
노심
오랫동안
##맺
이케
신랑
정해
똑똑
거니와
깡통
보합
##ka
태영
모델과
불러오
##퉈
샤를
육아휴
삼아
그리움
물어야
국회의사당
오창
♀
링크
위기에
박명
빛나는
골인
업체
##수당을
##행사로
폐가
##하였으나
만리
綱
##ecial
우울증
펀더
도쿄돔
싶은
의아
소름
변호인은
##자로
데이비드
##연구소가
플라
장관을
##鉉
##숯
제작비
초식
광년
청
양해
차출
겨우
복지사
##챔
프로젝트를
수정안
피서
甲
##nt
織
##景
##네임
매도세
변천
자금난
扇
낟
모습이다
1897
심취
😋
円
벌이고
cd
추진해
박스
렉서스
바로가
데모
구축한
건립
글로
##건으로
시신을
政
묻힌
Eng
어려운데
풍성한
통했
##씸
검증을
시험에
##SF
마술
카디프
이유다
下
允
북적
선보이
끝까지
넘어오
벼랑
##활동에
전언
ctd
축하
##른자
빈소
복종
근저
系
뒤엉
밉
빅데이터를
비서실
만능
처녀
대패
##기자
액세스
대검찰
부착
치고
주체사상
전범
에콰도르
원장은
심연
租
칼로
추천서
현역
노력할
났다
##이티브
강함
명의
승수
필살
##느니
墓
최강희
무게를
도입이
##조6
##인원은
맥스
##지검
##AT
몰려든
허리케인
癌
폭염
당적
갑시다
크기는
變
##챤
혼란을
##샨
수혜자
무르
차용
##전략팀장
##효율
무혐의
30억원
##모델링
해설
주목해야
##위브
특파
##자원
##차에
毘
대학생
리딩
지역과
만나게
Dream
밸런
상황을
고객에게는
최전
合
달린다
최적화
불만
시행할
결합
표명
##부사
블록버스터
손보
봄꽃
##모델로
촉구하는
194
르네상스
써
젭
##조선해양
##덫
하얀색
커질
sv
##라이나
밑바닥
보육원
材
##이드
초중
꺼낼
제기된
구청
개인과
kj
임태
##핀
여직
표현이
오타
담벼락
혼탁
아데
남지
강화로
방패
니키
지방에
지망생
된데
떠날
이용자가
국무위원장
##俊
암울
낮추고
금관
비하
차트
##화된
꺼냈
##미안
상봉
##좔
##om
바뀔
##데일리
해소를
반포
스치
목소리로
缺
##ae
223
알려
지성
렷
챕
##ist
빠진다
태도
보호법
금액을
##林
구입한
특허청
켓
##가구
각의
兪
건가
##표시
겨를
비교하면
장원
거액
구애
무소속
두각
타는
본래
LG전자
분석된다
크로스오버
##👉
##항공은
꼴
획
흥미
시민이
시장점유율
##리그
계실
경북도
잔
##화법
symp
##신문
宮
川
섬광
카드로
컨설
##눈
미아
상징하는
##하려
##추럴
협력업체
##공유
子
분
학교에서
제공을
##억을
##수가
여태
휴면
오늘의
자살
급락
##현희
식중
IA
가뜩
##제르바이
㎢
覇
只
##바위
##증시
유니온
혜리
선구
##는데
강현
##시를
관리가
고위직
메시지가
쮸
가리켜
##時
엔저
강수량은
##😅
덧붙
이하
위구르
농림
##같은
감상할
돌아왔다
전자랜드
왕국
##놀로지
나스
320
전력
민노총
루키
교보
what
승산
물건을
성행위
똘똘
##방안
750
신기술을
포털
##권리
우즈벡
##냐
보로
하나
볼넷
선정을
용감
1980
일렉트로
잗
분류
영장
홍삼
들여놓
상영관
##주에
고소한
심각한
##축제는
61
편의점
일어나는
元
##株
히카
like
##돼야
더불어민주당
기틀
의해서
her
##야구
이제
행사는
특성화
허드
하얏트
진원지
##특화
##간
##음식
포티
2분
경기지사
유통망
물이
빨려
공공주택
여지가
용평
트로이
차베스
제노
흡입
느낍니다
개발제한구역
##생의
性
불거
##직자
뤼
##과학부
재수생
수수료가
##ㅜㅜ
사장의
목이
箕
##타입
px
##힝
대개
대표이
한화증권
가변
쐬
##vest
덧붙여
근저당
隊
##만으로는
불법
##량을
쥐어
꺼려
요금이
##그마
##콕
악법
##맙
뭉
의해
계약이
예식장
##살인
jhc
걸스
소장파
지질
위반으로
중소기업과
있어요
공감대
팔려
등은
고려한
판매한다
빠르
BO
##kg
인권침해
세상의
눈길을
번들
##억원을
##익을
장시
##18
##ao
쓴맛
##뉴스24
##놓을
Lv
粉
##씀
##었고
궜
그레이
당명
앙
央
기대
업주
##러블
파렴치
위도
주관으로
안전성을
순유출
공자
창출에
인포
DVD
추천을
##관광공사
오토
바디
체결하고
놓은
이현우
##화의
호찌
구성하는
할아버지
麟
못하면서
##觀
경기부양
위배
##삘
태양
근무를
책장
한국예술종합학교
시원한
표현할
음에도
히터
황과
영상으로
##행성
##300
무한도전
##😆
건축비
처리하는
##받지
안기부
비도
도전자
##상품권
겨레
핀란드
광고를
요식
의원들의
##적십자사
##溫
구축에
모종
머신
##텍
진우
대입
슈퍼
##규정
일가의
근로기준
않지만
골자로
서머
경제에
오리지
이어져
##ㅜ
##바이러스
쪼금
경쟁을
아모레퍼시픽
##화하여
강남스타일
##버섯
##닫
애매
합의문
##은이
KAI
특수
측
텔레
배팅
##병원
판단력
짇
공익
극대
만들었다
는지요
##퓨
자본가
랩
무산
##브러
기업이다
##런
정국
리카
얼음
가할
대대장
##쒸
다쳤
02
##탐
변수
##슬기
##긱
디펜
매출을
직접
세밀
##피어
점성
위원장과
스마
왕비
매김
ㆍ공
쇼
간직
트럼
빠져
바라
유산
수분을
5시간
고공
##체고
대역
##론을
곤
전기료
스타워즈
동갑
##ual
자유투
전년도
일례
기대가
백종
내정
코네티컷
##씰
##진
##🥰
##그머니
가옥
어리석
##방학
##콘텐츠
다채
인지도
스피어
##chn
나쁠
상승세를
##아시안
노벨
대경
로선
졸속
##클린
##리가
빨랐
업체들의
118
스트로크
리히
오정
Copyrights
##뾰
스완지시티
정보통신망
강가
빨리
##회장의
##부족
얘기를
몸체
꿰뚫
감지
##플렉
똑바로
우린
정착을
´
리차드
키스신
훔치
다닌다
세종로
유유히
모을
발명
문학사
무대
반미
확인할
볼트
터널
가슴에
일일
아이티
선상
##k
ㄲ
지급할
단국
SLBM
##가격
작품에
##프라노
MICE
이력서
섭리
미행
##역과
기절
##언했다
##체크
큽
기대했다
##결의
부행장
가령
내린
앙겔
문제점
자료를
지적하고
영의
이겨야
혼잣
131
매뉴얼
관객을
kim
힉스
댐
치르
국밥
##답
ESPN
일평균
매개
홍영표
총파업
But
있으므로
경기가
이채
##au
빼놓을
돌아볼
바꾸고
수단을
증오
##使
요소로
진사
앉히
분명
쉼
쉽사리
183
노경
42
사령부
목과
##가인
##예
홍의
来
넓히고
類
228
##톨
당직자
주택은행
일제
마나
릅
사도
한대
##홀딩스
보였습니다
느꼈다
##쳣
이은
캐리어
본인의
##켜
창비
##았으나
##atch
지정해
##수준
고객을
##컴퍼니
茂
온전
행의
##out
규제에
HMC
인정했다
무궁
제시카
##口
안으로
활발
제시해
##81
🙊
##쫴
you
마시는
嶺
메커니즘
삼켜
이머징
자치
전국으로
각하
들통
매력이
##ident
235
모여
243
27일
##회는
##수목
비야
##케미
조용
스러울
庚
비판했다
##공이
##들도
당당히
종파
##부문
갖췄다
모두
##만명이
##사회
사익
25일
예금보험공사
알아볼
보조금을
##부모
직원들에게
어진
보유자
꾸며져
비교해
앞다
Sw
##건에서
테크닉
결정한다
##이팅
지역민
##사도
정부를
꼭꼭
##폭풍
과식
휴게소
20분
레이스
지나친
길이
끝나고
사무처장
예언자
도메인
전병
온양
종목이
따졌
반가워
##엘
꿀
御
대부
소사
항우
청담동
트윈스
숨길
한기
승승장구
밀려오
의원과
리스트
중소기업이
것이라는
괴뢰
진술서
오세
따뜻한
전자
회복세를
##지사의
석사
##지나
청순
안지
틴
상응
##AR
요충지
##뻬
참배
예산이
자연스레
가둬
윤상현
티
##ely
##구로
전석
중장비
신영
KIS
호날
금감
자발
작업
4656
전달
살라
##포토
薦
洪
대상지
저절
##단을
진상규
##레벨
6억
출시한다
##다이
끝에
고동
CL
##휠
살인범
겜
##병은
##7억원으로
犬
##씐
##ta
뽑혔
##😊
##금이
##짦
✅
##w
양은
신제품은
##스테이션
지경부
이인제
##시민
알바니아
쥬얼
5거래일
##시스템에
베스트셀러
무등
매집
추진했다
##롭지
시민들의
persevere
슬리퍼
싶어
널리
임야
따랐
국민들
지존
##었을
PGA
##㎍
으라는
금융당국이
투쟁
캐릭
작성해
Rec
협회
높인
##센
##체인
온두
W
거대한
구해야
보인다고
파랑
##지
讓
잊어
페달
우려되는
작의
##거든요
경기회복
동지
##소녀
평가에서
透
금액이
##1의
##손실
상품권
엑소
##특보가
1996년
##전당
경영진이
##yle
부적절한
회화
중형차
##자들의
등장하는
진안군
##재로
##도시철도
극한
스토리텔링
기다린
프레스센터
한석
##진로
졸업한
적힌
줄면서
자문사
##란트
##정보를
회의에
김정훈
밀접
지난번
큠
면담
딕
행위가
전대
마땅히
그나저나
프린
이복
제패
3월에
활동과
고은희
Ber
기뻤
##릭스
##에이티브
WE
굳이
통신업
내려
대통령이
섭섭
##ain
자율
올랜
FO
##홀딩
##가기
수완
##퓸
간신히
賣
##방망이
떠난다
일렉트릭
왜곡
##君
제표
하위
신상
##틀
민간인
알아내
顔
내세울
기립
##심이
현실에
끌어당
받아야
실현을
명을
없던
스컬
건조증
기할
孔
어렵게
안성
##브리핑
공정을
왔는데
무용지물
호로
##잃
보지
㎉
완구
org
스톤
##헬
릴레이
##업계
구조조정
15개
##Com
유니세프
개도국
간이
그만큼
##자금
보호무역주의
어찌
軒
태후
추진
신비주의
##콜릿
스위
##武
저커버그
전라
##적으로는
##겨레
자료집
봉투
완고
수렁
지요
forget
상위
##섰
다듬
덜
찼
필하모닉
아프
무모
콘테스트
딸
架
한데
프리스케이팅
会
출
바람직
##합의
##술을
것이어서
##브레인
##許
반영하지
신동석
케이
##사실을
본다면
##뜨리
暮
넹
망가진
##랄라
수년
추락
숙고
장관에게
자막
뇌졸중
센트
직업훈련
해진다는
사과를
제사
탈피
민주
한옥
보수주의
LPGA
선제골
했
##더라도
기승을
##긁
제4
고독
##다보니
허우
1577
성황
##라지
##ration
들락
풀기
소비세
썬
놓아
울부짖
##르지
수시
##시픽
닳
梧
채우기
적게
왼손
뜻밖
##묘한
근무한
정발
혈액순환
##ut
충성
##수학
듄
사시
農
소고기
야전
##뻤
재학생
도시의
##Ⅰ
中
공적
##테르담
연습생
부서지
##春
##학술
편
##임대
##정부가
연안
앙겔라
##태인
##업체인
상승은
혔
숨진
골랐
##업은
감소한
전환기
##field
언제나
필라델피아
반일
##화와
나서야
난동
레온
##熙
쭌
각본
어지러
상담
##점의
김영주
##urr
##넙
바탕으로
소득자
##팼
팹
공부하는
##7942276
쑹
겐지
쇠
장례식장
정확한
떠받
당권
박신
##식도
눈덩이
로어
저항력
잡곡
뜯
##툭
화강
털
동부증권
##꿇
2200
경찰서장
아유
강좌
##∼
그만뒀
플라스
확산될
세비
##출입
스탠
한겨레신문
프라
번호
##포지
처음부터
##와르
교사
묵념
까닭
촌
그것을
##즈가
##d
지급된다
순발
학원
증가하며
면죄부
발암
트레
##心
남북이
##탰
##무책
절약
拉
법조
않으
평가하고
##來
##연한
##운딩
끌려가
마천
##찢
방파
KB
##닳
##air
이청
아스널
100원
된다며
8일
珍
중사
두말
제한된다
이인준
말씀드렸
지하실
더군다나
##레즈
##리전
송진우
유희
##놀
鳩
동호회
제1부
티파니
##곳이다
하락했다
詐
스러움
휴전선
이례
제임스
이치로
박지윤
스트레스를
기류
누구보다
유도하고
##들과의
임종룡
워킹
김구
1896
##형과
양성을
사태는
음료
상해
##롭
머금
샨
잔다
##셨습니다
LIVE
만든다는
투런포
워
##처는
##커버리
쎈
주황
전시를
콘크리트
근교
농수산물
조코비치
블리
멩
배역
달려가
聖
불쾌감
##듭
제출할
果
##data
난도
색소
정황을
아시안컵
마시고
##아카데미
Bro
겁
##홧
71
아껴
도자
##x
##창작
말라
금융감독원은
##못
委
구성된
##00만
김성근
##훨
이니셜
황
누명
타구
국민연금은
잠겨
감자
그룹
##33
##소자
蓮
슬림
##구축
실지
##구의
전국구
역삼동
아시아인
도다
哉
##대출을
##좃
명칭을
할랄
毛
CJ헬로
허기
주도하고
##받게
전가
40만
한국공항
지지를
첼로
레슨
소셜미디어
철새
##연구위원은
稻
불통
##븀
평생
##푹
hynikos
제안한
1987
시외버스
딸을
급물살
백분위
잠들
초래할
인문학
가져다주
##슬레이
##시헌
나타냈다
환율
화력
##멋
수술비
가동이
ㅠ
고른
시식
시정
환경에서
근린
보충
선착순
##문화회관
추문
신분증
국판
##안
諸
겨드랑이
SAP
##하겠다
지검
##보디아
상계
식전
공연장
산업단지
##감
##창기
훤
하이데거
프록시
##면세
활짝
참가한
##부서
인베스트먼트
서구
동의안
기자회견에서
정부에
강경
##act
놀랐
하마
##현악
헬로
엔비디아
피란
칩셋
峰
시작
🤣
##었습니다
시황
야당의
화법
앙코르
진주의료원
톰
추정된다
##슈퍼
리스크
1996
##투스
깎
장에
##❣
시험
이해하는
봉화
버금가
갤럭시탭
인지라
##렬
県
##해졌
##교직원
폐막식
나뭇가지
경험
DramaHouse
아
대연
공금
소나기가
도선
이후에
판매되는
㎜
衍
전교조
🐷
7일까지
중심에
커지면서
정순
해준다는
얼마든지
허
아다
증가율
##물이
회원국
##장터
조승
선고받은
쭝
휴가철
던진
충주시
sm
5월까지
박준영
비건
참가
##경영
##일자리
봉쇄
크로
손오
##쪽
삼성증권
체험
몸무
##어치
낮
생포
끝나
Frank
WHO
자들
펠리
鑛
후보와
7
켄터키
inter
들여오
##션을
유랑
공기업
##習
판문점
농단
외주
자녀가
朱
155
한국형
삯
애칭
##티넘
조선업
뜬공
40년
태풍
나위
평타
praxis
심해서
##효진
한유
술부
날
모양새다
실거
기대되고
역량이
태스크
선발한다
觸
논증
거래가
##셌
기획한
안성맞춤
손님이
態
밤하늘
##안정
##니까
##├
라디오스타
네트
##ural
익스
웅진
산업의
골리
불합격
푯
입기
new
사이를
좋아했
달인
##결과를
개혁
##＄
위기를
기관에서
페이지
브로
공사는
철강업
대출은
무진
귀띔
더
##α
##∼201
##폐쇄
예외
스팅
광장에서
피해자
##라는
이근호
한국야구위원회
물론
최고기온은
즐거움
직면
앉혀
##7만
##베이션
##룡해
씐
은데
미드필더
두드러
##증이
##중학교
주었다
빠지
재생
발버둥
공식
##둘
not
흔적
버니
톡톡
##굳
분기
##😁
해물
이적
##ealth
남해군
아리스토
서포
아카
불분
##그라
##土
여행지
아산
잠재적
쌩
프라이즈
백승
輸
아쉽
요청했다
##샤바
박봉
비정
번호판
##트롤
민족
표식
##ng
레이디
전당
판단할
실패했다
##보합
😘
상무부
5시
트리트
갈아
오기
雷
##렇게
태양열
殿
사양
치킨
천상
렉스
##1회
화약
960
이매
ⓒ
##л
프로이트
용도로
경주
Man
##е
확인됐다
##했다며
이를테면
##epic
박준형
##군
垂
##치지
##왓
많기
##통위
쿼드
##命
이자이
##재해
화석
당시에는
털어놨다
##🤦
소나
##회사에
때로는
##뭘
게이츠
##쯤
본선
##진흥
##1억원으로
0322
충원
고백
豪
정훈
체면
쾨
##럴림픽
문제다
로사
사건
증거를
머물러
##측면
##kW
알렉산더
프론트
이미
##스레
공감을
좆
조기
벌어들인
국을
비결
고깃
국가는
항소
야생화
##크라
##톺
역전승
##ington
임팩트
나비
고군분투
말기
##iel
6대
##스
##뚜
스톡
빚은
##띱
무의
머물
물고기
수많은
##다드
장동력
채권단
진주
40분
##종으로
기준이
robin
쇼미더
致
지가
리프트
부모와
현재까지
##토론회
축적된
석유제품
털털
릭
철권
소년
분양가
추종
브랜
콘서
##운행
클라크
##으로는
##회장이
##덱
##센터장
국한
하진
백두산
체념
승인
재경부
##했음을
술에
##um
투런
엄정
##👀
귀농
호적
일용
효과적인
지나고
발행
전액
5G
##놀림
선화
##켰
노하우가
응했
나타날
##정지
무턱대
직격
동래
극복
거닐
백내장
##테크노파크
##아름
##이었던
555
이렇
##댓
육군
호모
520
종착
변별
FTS
堯
##측의
부담은
세력이
확대한다
메탄
幽
##명에
18
신년사
폭파
해외사업
sec
충격
산다는
3D프린
##게이
주창
BGM
부어
개소식
##본부
분야에서
joong
치루
##책점
전작
흥덕
##아슬
본명
063
Res
비뚤
뺏기
자세히
##곳으로
##상권
아무런
안호
##거래가
블록
훅
장관이
형편없
##칭을
280
법학과
##류와
최홍
골잡이
任
1993
가져갈
적진
런닝
구사
잔고
드론을
순천향대
##께서
코너킥
##네시아
##햐
게임즈
은행장
입소문을
1월부터
根
##유입
데일
원작
끌어내리
분개
질환
##권으로
##천리
부동산을
연도
부드럽고
해외에서
목표액
서류
봉급
##아지
대한항공
단종
髮
통화를
앎
면사
LG생활건강
##협의회
들어와
취직
평가한다
테러리즘
난항
밀반
##투표
##재정
꾹
시작되는
평화를
한창
오승
ㆍ대
영화는
특사
개최국
5800
渾
올레
제외된다
CEO
거리로
김진우
새내기
##나와
청의
불에
##축을
##밥을
안전처
##러스트
일회성
궁핍
문재인
혐의에
펼쳐진다
대기오염
愁
##렸는데
방안을
창업지원
백상
운행
사업과
권위주의
행시
코마
제공했다
랫
시청
전력을
가까울
이왕
5개
벌기
직원과
반나절
㎚
거나
소감을
##쨈
##to
뾰족
발견됐다
교섭을
##인상
있거든요
자문을
##먹
흉내
예약판매
알렸
##all
Econom
연을
결정할
증가하는
##음악
오르며
배움
아닙니까
어려움을
##상품을
##침해
##션은
에이지
##ret
서비스와
##인데도
단점
##당당
국민청
##어는
##아를
체질
마음을
인사말을
т
처방전
회동을
브렌트
절정
화학제품
노력에
지름
직제
241
옆에서
반영하는
625
예언
##[
##무근
콘퍼런스
달라진다
##개국에서
삼성디스플레이
약이
유일의
가파르게
facebook
##카시
##셍
광양
협박
같고
그려졌
열지
255
柔
##la
세금을
받아들이
깁
##趙
들
합
봐도
연락처
신세계그룹
여단
복도
기관이
자임
牧
불어
홧
안타깝
희생양
프랭
물러날
##00원이다
예정자
29일
까만
頂
##뼈
오종
분자
땋
탈취
달려왔
수치로
끼고
fc
고참
##팔자
머그
램
역할을
편지
팔짱
스러워
세브
과정과
입장료
설리
안전관리
뉴딜
1919
모친
가격대
버텼
코칭스
분양가는
##비리
층
말아야
됐는데
분뇨
회원을
후원회
탔
선제
책자
##💛
전쟁
##ver
乱
실력을
하지만
##빠르
##倍
스타일링
##oad
선관위
칙
##성을
Ⅲ
제대로
사업이다
##주연
온라인몰
##루미늄
투입된다
자료실
응답
##제리
만기일
듭
##퍼레이션
객실
신용평가
##값
우크라이나
산신
부활절
팩토리
국경
주연
積
##圖
주기
담요
전국이
이승만
성장을
무릎
버릴
실추
거행
유괴
성의
관계사
어정쩡
석탄
알리는
특검
경제부총리
쇼트
안내를
투신사
##의사
차주
300만
1987년
253
무함마드
전시된다
이긴
사장
목을
생산력
좌상
##츠크
기준은
靈
배출
멈췄
방금
5세
공백
##딥
세제
##질서
砲
친선
건져
##둥이
##코바
결론이
##사체
가락
fly
펀드를
아깝
지리산
세요
업무
윈도우
守
함으로써
건축가
##메스
후견
은행들은
START
중입니다
##코치
##렸지만
장식
아낄
둥둥
ㆍ여
주일
연장전
종소리
사장을
##즉
##지하
나침
30여
기념사진을
가톨릭대
##rim
감귤
##플라이
충고
기조연설
##강을
결과적으로
형성된
대법원이
듀스
주변국
##ugh
동의를
울프
이들에게
렉스턴
##패널
초간
거부감
싱가
말단
##룸푸르
##여부
심포니
멤
마더
대견
압축
자책점
구현
입는
##률이
자문
欺
축복
연작
시작할
바닥에
쇼미더머니
단속반
무법
SMS
##즘
강세훈
롯
동점
지구
주차
올림피아
최승
逆
날씨를
32
오사카
번가
레이트
倂
석가
전세계적으로
곡이
중에서는
1973
부대변인
##만명
사진가
악의
264
퀑
##다시
신문
판매자
빼앗
벌려
##로움
로만
타수
의료정밀
##항공대
꼬리
극동
공인인증
경쟁률
빌트
##ㅎ
불렀
쨩
싱어송
##이동
범죄자
現
등산
##kj
지점을
로보
에피소
넥센전
지른다
뿌리치
570
아보카
##19
##청구
여심
##제도
스타뉴스
총생
전체가
isis
비
줄고
이경수
갈등이
표
비슷하게
##RA
##절로
배관
대출
##모자
유격
절차를
##쿵
알렸다
##국과
##가르드
Mar
찰
강남구
먼저
막무가내
가지로
차별
사의를
초상화
정규직
##인가요
파업
SUN
관점
소설가
없어도
##記
페이스북은
새로운
시운전
분교
골칫거리
운영이
왕좌
절벽
아직도
##잖아요
자산운용
초가
재판에
##T
아낌없이
유명하다
81
##추적
교육자
Serv
광풍
座
수의
무엇보다
승부
창피
시금치
김태
산업과
운영에
말라리아
처음이다
최저임
1분
안상
2015
어학
설계도
甁
##코드
강수량
문도
USA
일대를
완의
작업자
었었
임박
커녕
뒤집어
Mark
과업
하정
##삶
##상에서
성분
줄줄이
##베이니아
20억원
##위와
##잌
##흔
기아
북항
코난
신세계
야드
자백
플루토늄
##봅니다
愚
##⁄3
프로골프
취약한
전훈
##리시
##영장
④
##스터
농도는
무릇
전했다
기기
##ｇ
범정부
##덜미
혼선
파스타
전까지
##접속
삼천
➡
##굵
이휘재
##내에
두들
거래됐다
이삭
##닝
약물
고유가
동해
건너가
##學
주간
여담
있다는
신고가
終
남동
프리스타일
시작했다
저소득
푸른
##칫솔
에게서
매칭
엔터
좌표
총재는
낱낱이
한국어
중징계
메르세
수강
##bo
린을
2009년부터
바비큐
풍요
진흥회
##쾡
##하고도
포스터
휩싸이
비꼬
오마이
추운
룹
##CTV
비율로
감사의
계열사
휴
##cept
##錦
##샤오핑
##CN
##보를
발산
##겄
진정
##큠
Ang
##십니까
새정치
나치
par
장학금
##획
단련
풀려나
艦
총자산
한결
##긋
노리고
에르난데스
피우
##덧
개장
##어요
##태평
##들께
전했
##러가
빌리지
롯데
##사업회
충당금
창시자
버젓
준
확정할
뚠
SG
체크카드
검지
보내고
어젯밤
비용
##닷컴
양호
땅값
예상하고
몽고
##uch
抄
##앙스
친환
33
단절
나옵니다
는커녕
爽
##처
국민연금
바다의
지휘
상승세로
퇴사
##히기
고심
자해
속인
브릿지
공연과
김정은
순정
지중해
촉발
박형
대학살
열린
올림픽공원
##유니
시련
구불
탤런트
배우자
사건으로
##는데요
일으켰
##쭌
鼻
시어터
##사령
몸담
##고교
CDMA
약과
재판이
찌푸
논의를
우측
##퀄
괴한
진박
노하
##물인
수요일
ye
환급
있다고
예상된다
##소싱
여아
명확하게
통풍
죽이기
이요
통통
망가지
동참
##사업을
##府
엽기
##일리지
죄
파악하기
금융시장
敎
##00만원의
너머
보호에
일밤
##WS
##들러
##茶
111
대종
소사이어티
寧
구형
레일
글러
100년
SPC
좌충
##集
단계적으로
##이다
율
완승
GR
식히
영종
코바
애호
##가이드
조경
환산
남자
관음
벨리
전업
##처를
##xis
물러났
제곱
무작정
누락
공급되는
City
종자
밥솥
전자담배
않겠느냐
##진다
140
치른
##주택
店
拒
부러
스릴
광고주
의하
난치병
ML
마테
##벤션
합한
투입
닉슨
브랜드로
보라색
강아지
구정
김성환
연계
원자력
##클링
謝
##약품
민정당
##머
동국
2위에
제각
##alth
임성
격분
SPA
이뤘다
스포츠카
##공원
##하였
뱅크
##망을
산업통상
의원에
바른미래당
5000원
체감할
두리번
사르코지
국립
수재
껍
잘하
수족관
모델을
##orld
화면
주마
##로이
원숭이
##한테
예전에는
##는지는
전시는
윱
발생해
출사표
익혔
화랑
파악
채점
viv
##디나
다가오
##ection
맏
##창규
1915
시찰
발자
없다며
이레
기자회견
아워
색의
관광객이
PP
출발하는
벨트
##랍
조형
발기
##폴리스
나가사키
농민
아르
##탄을
갸웃
6천
rev
철저히
IFRS
전출
##복지
설치가
##시드
오동
오메가
벤처기업
정설
띔
권오
소송에
미만
칼슘
##타스
마치고
##ield
##윷
금융위기
사후
불거질
파라다이스
그렇게
##斗
蘭
##메일
##기업은
증서
내리
포격
디트로
aBodyCom
애벌레
물고
植
신설
머리카락
생기
경기장
한복
성격의
짧은
이나마
돌아설
어마어마
대표이사를
姬
기다림
도면
품종
4개
광희
사서
잔금
##지배
보수적인
모니터링을
##노조는
성난
댔
통산
기본기
한미연합
##92
터키
어지럽
교육감
보도했다
캐피털
판매
야후
마련할
정주
확보하는
소셜네트워크
명량
인민군
교원
머릿
김혜경
떠넘
알파인
잔존
##동맥
카이로
(
장쩌
##⠀⠀
오진
그로
##대의
인스턴트
사회적기업
공개했다
고지
虎
償
시끄럽
려구요
쌍용차는
뽕
사형
떠나는
홀더
고문
##입찰
##시간
R
##담배
厚
##교회
내놓고
148
##센터장은
손짓
증가는
가업
못했습니다
검은
##way
이어서
수세
告
22일
부분에
에어로
##득
www
서다
査
북대서양
스타일리시
##사자
백신
세미나
총국
신종
##장에는
레이커스
개동
양동
플레이
스탠딩
한국지
단백질
시그니
급감
##랫폼
##하자면
힘쓸
무서
샤오미
라라
금품
담보로
교통부
##7개
##옐
❣
나왔었
Al
마력
수와
이영애
봉사자
만들기
일으킬
불량자
정부서울청사에서
손꼽힌다
##꼐
##타운
##넋
2
##분들이
##용품을
部
고객들은
##본드
취하는
북아
나타났습니다
대부분이다
푀
##부의
변칙
##꿉
LTV
신드
##康
##꿍
절
없이도
출판사
육신
부에
김정숙
##⑦
한동
시킨다는
집중하고
도이
高
END
공교
##IT
해석이
흠
연발
강해
킹스
##vel
종로
위치를
정보가
흠뻑
박성
##띄
불교
족히
개인
호나우두
이종익
집중된
우리도
나오면
##프와
이사장의
식품의약품안전처
팬택
##렸으며
민지
한강
##을
대작
관리비
중일
선량
도네
매미
##산업을
1부
포대
일본전
양적
좌초
당규
데이브
마무리
路
刹
것들이
품목을
카일
👀
Bl
##로라
置
600
시리얼
사건과
영업이익을
Dem
간절히
전환하는
Robert
커졌다
결정
존스
위력
헬멧
페이스
港
##수아비
##사업비
김건모
품목
폭풍
##메이션
HDC
##린다고
교향곡
##탄
둬
해녀
##님이
천주교
급기야
2023
##클로스
강호동
배운
민주노총
매수우위
해소하기
한글
기체
##브는
움
##모임
인솔
미숙
이메
바게트
##일랜드
모두발언을
이찬
영결식
##샥
##핼
달아난
단장
죈
발화
영화인
구나
Joh
똑같은
이행을
##정신을
트레이딩
##5일
향기
親
구글
이뤄질
호조세
##聖
이타
4인
##aby
상륙
군무
申
DL
사실무근
20개국
##령이
##했다
사례로
선별
배용준
4개월
명지
가르시아
KO
쉘
접근성
요구한다
기말고사
iron
##수한
##퀸
토성
고객과
총리가
값진
MMF
죽였
##데도
##벅
헤아릴
##홈
끈기
##역의
발사대
등산객
ㆍ군
바로
110
네티즌들은
한울
紋
넨
취소
##임에
조수
성물
평야
빈틈
성과가
👈
정은
콜라보
내에서
깃들
所
##공업
급등세
인천광역시
##4억
관습
##갔
서문
##이가
원당
이만수
시드
캘리
시크릿
##스퀘어
의료법
##2
불경
##헴
방과
슬립
느티나무
이혜원
가볍
Do
버러
142
삑
공원
언어를
전반전
창작
셔서
페리
거미
just
지음
遍
패인
##oi
직
AM
미용
다녀왔
발견했다
건넸
천주
지원사업
冊
스노보드
희망한다
딤
거다
##경제인
##선거
상법
##좨
KOS
평생교육
서예
끌어올릴
시와
##샷
스티븐
카르
건의했다
진행되고
UF
54
170
아파하
繩
겨냥해
인프라가
選
자메이
조정안
##쇼핑
##참여
환율이
무선
고려인
Sm
괴로움
사무소
탄천
내면
이분
소모량
##이지리아
해파리
＿
회의장
##종일
##겁
져도
패권주의
궁지
방사청
원탁
만성질환
탑재한
사립고
낮아졌다
개인주의
##기에는
👏
ESS
나부
欽
##HD
##리츠
크다는
##스팅
승의
소크라테스
##차게
구질
숫
깜빡
##천년
몰수
추려
뻔뻔
트리플
중산층
교수진
##에어
해전
##기준에
선가
주간지
잠옷
##인가
##관리에
吉
빨래
급증한
러
기상
가만히
간호
열리
변형
올라간
커플링
길게
구례
##만원을
열등감
주목을
의뢰인
밀
전자책
타케
원정
친족
일어나
해결하기
##엑
언더
성악가
빚을
푸르
펼쳐졌
자유한국당의
함유된
물동
경기남부
맞서
김주
아키라
##지하철
세례
노
01
스카프
남궁
##관계
바지
누비
기대할
개인정보보호
이주열
##강남
”
##박사
동맹
던졌
涉
203
취재기자
진상
##T는
##流
##ん
남녀
휴식기
살벌
혹사
iinyoung
플러그인
방재
##사항에
멀리
미끄러
##습관
삼진
##산에서
학당
기록하면서
##國
현재와
여타
##〓
폭은
10여
전립선
겪을
ㅇㅇ
공리
낮을
##고를
속개
대마
도통
행위를
사용하고
묽
동아일보
산체스
청혼
속에
현상은
스커
공공연
그러나
##포드
의식을
##가스
페인트
맛봤
회장과
役
기어이
矣
##애리
넥서스
토대로
##더라
##ase
모습이
우수상
己
##2000
##플랜
점하
원한다면
과도하게
후생
ED
##자부
가능하다
버리
광범
낙서
전시회를
한성
침공
상대방
##P
##역까지
싼값
##땄
쏟아진
뺏
질문에는
##pi
없었지만
16일부터
##위성
저렇게
사용을
라면
Cl
시가총액
시절
##폭을
스팀
술병
몰아넣
1992
행방
적고
⊙
쫀
교사가
##할린
착공
8월부터
추기경
행사장
forgetmenot
相
포진
##잰
##쿠르트
어떤지
휴장
도입하고
토의
묘한
IDC
하역
밝히는
##네이루
요청
다비
선거인단
##병으로
동경
쌍방울
굴욕
속초시
##였을
##롤
귀빈
일주
태연
莫
抵
##좀
다시
##곳의
합동으로
실권
김해시
##타임스
못하다
##혈압
事
##의원
아파서
캠퍼
2곳
아래에
CD
레일리
넉넉히
제리
기반의
결
##여부를
보여주
패키지
##풍의
이용하면
디테일
결과다
닭갈비
정보
##비에스
위트
장민
sel
윤정
확실한
##위원을
##카이도
보수파
н
##전이
트렁
변동성
##우면
불능
프렌즈
불기소
예일대
연세대학교
장갑
바자
僉
않다고
##해야
##빻
터빈
쓰러지
차례로
##리다
간간
파벌
##보상
##금액은
##book
전통
회의실
밝히고
고위공직자
SK그룹
：
##승
태
뒤섞여
조두
컨트롤타워
방의
사장과
중앙선거관리위원회
면밀히
패스트푸드
권영
흔
산악
BNP
##ence
4분기
8700
비잔
달째
느끼지
김현미
이종범
업데이트를
韻
##떨
##자금을
메신저
##스튜디오
모란
오리엔
기술이
학군
연한
불멸
총기
몰라요
용산역
##욕을
조부
도드라
bl
조건을
뉠
메울
프로그램도
##節
굴리
중소기업에
##寺
5m
여름휴가
사건에
쳤
##증권은
##죠
73
쪽
헤쳐
외환위기
🤔
발의한
후방
개선해야
##뿜
거듭
게이머
터트
##증
카리브
##필요
정중
몰아주
영천
캠페
빅토
##공공
발생한
##ci
##러드
본성
##셔야겠습니다
수조
##동안
##물은
되살
라떼
자지
##부동산
정장
KR
計
이념
도토리
즉각
##도니아
걸어갔
5당
트로트
##이노
##가포르
오하이오
겝
NBC
│
율법
옮겨
유지하고
사들였다
##스바
기분이
태어날
젖
양식
곧잘
공급하는
청년들이
불입
##기인
사르
기계
인플루엔자
향식
##광석
##철호
뱁
열기
교과서
##허가
##경원
186
괴담
없게
미래의
그에
편파
박시
홈쇼핑
도시재생
띄우
호사
보금
##경제부
오바
普
이뤄졌
주장이
활용을
AP
판문
엇
거듭나
산상
의료원
去
##수사
인기다
육성을
꿈의
##서트
간파
소유한
살펴볼
##계와
##HO
철탑
결과를
소장은
판매고
1만3
경향신문
##84
재산을
##끗
비용으로
고소인
톰슨
sbs
##금에
직장을
##쭈
데스크
이상은
##사이어티
##쏘
한솔
헤아리
##어버
발렌시아
And
##ERS
사모펀드
극치
##삑
Cons
관계자들의
어젯
훈훈
창조
병든
票
##경찰
뻥튀기
다음에
엔진과
지켜온
언결
아름다움을
노브
총선에서
値
##누르
##OT
레스
삼성경제연구소
비뇨
부르는
바라본
푸짐
2만원
##했거나
과거사
시행된다
토해
신고자
퍼플
고을
2000
뛰어다니
손해보험
텁
응원전
유지한
##캐스트
한국전
맞대
회삿
필립
죠
##시고
年
純
움켜쥐
크라우드
참석
쉰
행정소송
컫
다툰
샀
貪
게시
가짜
받기
영업
##중국해
한나라
강명수
##4만
1985년
자마
실장
구조가
ysh
새겨져
잔해
燒
교란
고래
웅동
##시스
김영희
인사를
테드
총합
##혜원
없지
加
국세청장
차이로
고용노동
대놓
소독
비가
머릿속
타입
유형문화재
장외
조심스레
절개
##지역으로
##ungh
강희
나선
발신
속임
견딜
유망주
언제까지
대문
##퍄
싸울
블랙
모델에
오버파
결말
시끄러운
비행기
개헌안
##노
익산시
##慶
근거로
결핍
장성택
찾아내
결석
금지하는
裏
##문제
예견
아들을
瑩
예산
개개인
변혁
언덕
처음으로
합병을
##레알
시기는
스케일
##uth
끌어올린
당첨자는
바쳐
양육
##보이
산청
재수
##RB
예배당
##마을
##건
기술
로울
따라갈
전문학교
랖
수호
##시기
당락
老
노파
카츠
심사
##ink
##司
면치
##산부
튈
서귀
다음주
흐름에
##전
담의
##BS
광화문
제5
움찔
##제도는
홀드
뚫려
영향력
자세를
##토미
##훈련
##勳
##💚
통칭
세간
누룽지
이날은
저거
제구
핵심
신청서를
웹젠
반지
팔아
시험장
##옆
배터리
거니
##트리온
감싼
출판
다름아닌
둥글
두목
풋풋
무개
두산건설
##국립
예찬
여기
의향
김만
스포츠
##TN
##에이션
갖출
여성들의
웰
노력한
협력을
soph
##und
##지는데
結
에이스
##땟
##대환
동아대
고객에게
절차에
혼다
##죄
##인이
번역
우체
펑
vs
고야
학기
10억
〈
엇갈린다
조미
в
압수수색을
DR
붉히
생각하고
로드리게
레볼루션
야단
부인
용시
확인하고
캘리포니아주
이우
##였다
지게
바닥을
MSCI
음
##슬램
서방
요새
##춧가루
뮴
금과
외유
분들도
사은
가상통화
원칙
물놀이
게을리
췐
이운재
##급
##발전을
인류
갖추
보조
블록체인
무학
있는가
팅
흥미를
ㅎㅎ
##코지
순례
우왕좌왕
호환
国
12시간
8000
손잡
일각
고품질
##금융
창시
##ifa
##재인
기준금리
설립해
궐
##교도
386
##하신
케냐
신속처리안건
SD
##뉴스
대기업이
추심
급체
네오위
세워진
터트렸
11일
공청회
넘버
인인
의문을
전학
##체와
##보감
##CD
##연하게
베라
연구위원
활용될
파격
이벤트를
공성
2021
자각
조폭
##혜진
으리라는
유
증권가
삼청동
2명의
자서
어긋
좨
招
끼쳤
받아서
기슭
국정감사에서
가나
해외진출
열리는
우원
##황
##러진
SKT
조계종
경운
크림
##IC
TG
##면서도
벅차
##터를
국장은
전면
##해결
##先
공공부문
개띠
마지못
##넘
##플래닛
기업도
안목
LG디스플레이는
소폭
##기업
##텔레콤
가리킨다
비슷
##작스
##해가
김석
지역의
강승
스파크
잡이
약해
전년보다
04
겟
##대학교
십자가
##하나
##더러
목회
288
시흥시
3시
##운틴
마운드
쇳
장편
스쿨
프로그
나경원
##첩
권하
##산성
간척
##들이다
빰
擧
고베
명맥
橫
콘텐츠와
넉넉한
##플로
##치락
목적이
##카이
헬로비전
반해
공채
##좡
탐험가
##올로기
이동한
제도는
시나
##이었고
근까
安
세계를
##기업은행
브로커
명단
일자리를
門
교육이
거물
ctdesk
님
##향
##한국당
유례없
제주시
걸
제작했다
유사시
전승
마이크로소프트
##졌기
체험학습
신경을
━
推
수서
연구의
2세
마시
자격증
블랙홀
발표자
이라고도
전반에
연속으로
존재를
##썽
##기업을
원나라
저유
##사관학교
주십시오
함흥
##RPG
울산시
형태의
##어지는
##곰
종시
전경련
폐경
##胡
중이
틈틈이
시조
##거스
노력해야
養
##해보
타다
베르크
울산시는
##겨운
##마이크로
스마트공장
##바이벌
이남
##사장
사장단
육회
坪
지분은
놔두
##시타
계보
숙면
덧
540
아폴
##4천
혼자서
갉
喪
BR
수놓
재무장관
수호자
##지며
악세
소비자들은
계약
##왜
스크랩
소유주
형의
##레타
활용해
흘러나오
스턴
##되어
벌여왔
야마토
종현
산천
pra
##보다
##식당
##像
증가율은
았었
##팎
##리오
악화
장벽
진출을
##갱이
어온
꾸며
##회장
그럼에도
사회당
##어낸
김재호
형이상학
보이면서
기념해
##트는
마지노선
섭외
##지어
저변
시의
##현대
김희선
독선
초청해
##증명
파상
##ps
陰
한은은
인력을
3G
장착해
담지
못했던
넓
리커창
Cop
다가구
사회학
##장려
현실은
宴
닥치
##신도시
말레이시아
조건
##레타리아
성황리
##료와
##센티브
김병준
崎
##프를
투표소
는다며
선진
엄중
그다지
걸림
무실점
아이콘
카메
##ute
자루
##트로이트
이사는
##신경
부디
서울
군의
효과도
볼링
판결이
얻었다
이슈가
사고에
부지
얽히
##있습니다
매튜
##<
마일리
##습니다
도약을
가로챈
의정
인계
없다고
양상을
再
빈
진다는
곡성
##투신
중심주의
jyy
이동하고
세레
##슈타인
마귀
##9만
사포
##법이다
뎅
경인
한국은
압수수색
차감
메이크업
남성이
##오위다오
포부를
수연
경우도
위안부
송강
##인지를
됐다는
앞장선
사직서
묻혔
외롭
전제로
Un
##당국
##ive
제국주의
전복
슬러
레티
3200
군단
낏
클랜
통하여
익명
18일
메밀
벽면
소위원회
비우
##핑크
북
##속으로
##죽순
교회
가설
충청남도
숱한
송승헌
짜내
대통령은
내몰
RP
모의
주최로
Kakao
코미
인신
##동계올림픽
동물보호
一
방송
고령화
구와
관계자도
Qu
잡아냈
제르
##트인
##지션
집결
물밑
이어지면서
60
##백스
방법은
##해수
그려진
특단
##군에
BA
기상청에
경영권을
##림
##위원
구성할
##사옥
鷹
##십니다
계산
심심
신청서
원자
문단
방지를
TE
소인
##하시
관심도는
평가
)
애
融
월
행인
晩
호구
육사
제공되는
악수를
스페
가족부
버금
원할
도심
連
공모전
##라마
막을
##30일
칼리지
피난
벤츠
##하지만
##黨
응
민원을
鑑
과중
어가
올릴
##혁
##거를
곧바로
##해주고
##기회를
##후
초미세먼지
##6천
정의당은
##순간
신한은행
##개발
##인연합회
생산을
펭
##ult
불기
절제
진중
OLED
충치
joo
않습니까
이광재
까스
윤영
안타깝다
략
##훈
접점
완료된
2기
##평양
공단
##S는
최준석
바랍니다
투약
단발
##플레이
기회
담당하는
##리칸
쏩
뇸
박주선
흘렸
##덕이
남편이
헵
칵
표하
270
마수
재무구조
바비
3800
지나쳤
##洪
##在
쪽으로
개진
##뱌
방문자
부산광역시
##ax
##린다는
막장
##ㅣ
겁니까
##화할
해소할
##PR
柳
대한상공회의소
치러질
조선총
##되지만
놓쳤
梶
##푸어스
충남
논산
갈채
사라지고
있었고
TV조선
결혼을
##센터와
##세브란스
한국전쟁
울
拔
밀림
조성해
자리가
논의했다
시편
감각
##짇
로지
생성
##자는
모습입니다
옮겨가
##able
수없이
맷
명동
노화
##차림
최용
앓
##神
皇
그런데도
참가를
역
그치지
먹여
長
환경의
낸드플래
보약
난이
사범
아동
트위터를
PB
##и
서산시
특활
伯
##이고요
철저한
회도
반신
️
##들었다
반주
전년동
전투
진리
공물
##수수료
##석으로
남기
익힐
액정
짓밟
##휴양
연쇄
##꾸
pre
##little
경제학자
거사
弊
PC방
마운트
나주
무실
##조치가
##공장의
최경
환자
입금
##었다고
비비시
도표
##치게
탈레
명실상부
계발
##容
En
##해서
많았던
명칭
##협약을
매실
이수
지카
진화
##코르
나갔
샥
생활용품
祖
긴밀
##캡
광고비
상류층
선제적으로
##老
한결같이
발견해
##조직법
⑨
호기
과거의
##환경이
2000년대
전망이
초미
박사는
의료진
외야수
##㈔
박힌
방심
마루
1975
터
한국인터넷
##dNew
서울시립
UAE
시에
김기덕
시기에
##`
포로
꼼수
##팽이
밥그릇
##텀
브릿
타스
수증기
3만5
비타민C
서려
비즈니
내고
cho
늘렸
머니투데이
정유
##합을
##기수
##뷰티
##기간은
합병증
의원을
##|
톡
##우가
발언으로
두터
8개월
출퇴근
##착오
HD
##집
편찬
##수신
좌절
새만금
골수
서세원
##鍾
으로서
도와
인터뷰를
##다공
홈페
효
엎드
##만수
컬럼비아
로맨틱
만델라
지로
상품을
한국산
행위자
식물원
무역분쟁
규모
터치
시킨
##비는
##조가
##華
릴
학생의
##랬
CT
앞쪽
가뜩이나
수신료
양현종
훈련소
쬔
상장기업
부동산114
뛰어넘는
에밀
들으면
기술인
안에서
아기자기
##었다
매출액은
오랜
가지가
형용
임신부
6685
##주를
HUG
##정상회담
##슥
백악관
혈압
맘껏
##소유
9호선
승리
엄중한
노드
1971
##────
떠오른
강조한
편리하다
##프로그램을
전문가들이
제주의
모자란
대한주택
탄생한
주교
생년
##부터
교토
##르면
발라드
군국
##ese
code
공권력
올해부터
간편한
재정부
정위기
##장애인
##미아
비핵화를
사업자로
실습
펼친다
##챌
외할
정상회담을
집중돼
분과
##록을
랠
##own
거리의
힙합
mph
상근
퀄리티
설명회를
##증후군
##쩨
##홈쇼핑
지법
전합니다
반역
##NK
행정자치부
스웨터
슬럼프
노안
잇따른
금형
##요리
광역
계량기
##정보통신
##리아
해동
평화
신랄
병상
people
##로크
乳
ㆍ이
라운드
스타벅
##대고
이사장은
정영
##회사와
##핍
후보에
시작한
번은
그니까
component
##ᄉ
##sw
의사결
전일보다
##사기
승부수
염전
##식
파전
바바
교부세
허리띠
일어날
##인베스트
문재
인정받고
별반
세계무역
편집
한영
인하
검색
인도주의
동천
비염
##로니
관계인
선수들의
이범호
바이올
덩크
빅스
광채
올라가
성형
##가량
##실로
##ℓ
펴낸
이해찬
공전
協
열망
근혜
백진
연구는
앙상블
망설이
ー
인천대
이전에는
장호
감과
고갈
반동
본보
인신매매
##규모는
운영되는
방안
##오프
㉮
초의
느리
깃털
러시아인
眞
아드
번홀
技
표정을
줄이는
매장을
개념을
##서비스업
김영란
다가오는
갑작스
이루어질
셌
성장률
주기로
극소
노창현
최은
인데도
뱃살
金
상큼
역학
운전기사
운영하며
이일
매달렸
예상됐다
경기당
투자유치
강명
4100
##마치
##학습
장막
알릴
리볼
연방공개시장위원회
드래프트
이래
생각한
정복
벼슬
투수진
찾아갔
승부를
다빈치
～
룟
##CI
##뷘
##양성
##취재
시미즈
통이
끝냈
##씨가
##ice
처해
부연했다
성장에
특징
어수선
##빤
임계
##신을
커리큘럼
로드리
떨어져
파사
홍정호
買
취하고
교육을
리프
실직자
##치미
##졌던
진통
새로이
단전
선인
다큐멘
성탄절
대유
##arket
순수
봇
花
Bre
최저
##도미사일
유적지
습득
판단한다
##콥터
위임
사람의
##예측
##두를
텍스트
##케인
있었을
고산
콘스탄
이제는
개인적인
신항
여러분
처신
천과
##기관의
##디스
시간은
##양
##꿈치
##우스
##이자
초반에
遼
학생은
자신도
표명했다
##티어
부산은
완투
알츠
뽈
기다리는
바람
##께
이래서
청약을
문영
詳
295
몸에
격차를
##LG
최대
쓰여
##휩
합의안
흘
##ator
인접한
코르
Adv
##랄드
강조하는
있는지
달하
##된
우윤근
##자동차는
유순상
##반은
##샹
높이는
걸어왔
동창회
##설비
하경민
하와
비워
이벤트에
##기능이
순결
##가맹
디아블로
##릿수
##사업체
맵
건설을
##네티
게끔
문책
룀
츰
생각했다
##나의
카카오는
맛보
목마
김현중
아쉬워했
넬
미나리
특가
봤
판매량이
달걀
투자를
숲
연휴
비자금
양양군
##학교에
##13일
둘러
당사
당시의
풍물
한없이
극심한
불도
뇌염
延
마틴
명으로
등
평가할
레드카펫
##행한
具
청주
전략으로
##협동
여진
##거품
직속
chchtan
어우
진실
수박
역풍
##아시안게임
지도사
/
불이익
댜오위
꼽혀
벗
확대를
스트레스가
했으면
7월
Free
효율을
##kw
통한
프로필
연유
백일
덜어
온도를
서강대
##륭
자발적
착한
忘
쉴드
패터슨
##체의
금속노조
기초과학
##껑충
頭
##래프트
작곡가
##푈
##소방
수준급
팍팍
이들의
조성할
##클러
늦춰
뉴라이트
투자자가
취향
지석
대가
##②
##스틴
골머리
페이스북
내디
비합리
크리켓
호령
공약을
권리
##커뮤니케이션
##협의체
7배
##튀기
백사장
움직임이
본원
접근성을
##깊
타마
계십니다
뭍
포스코건설
##원으로부터
향년
##뽀
행방불명
피오
중학
블라인드
빌렸
영암
지우
등장하고
어도
##맣
##르노
경쟁에서
미카
##lex
바나
부장판사
신기술
들어
제구력
일치
##09
丁
안재
구시
신춘
앉아
##傳
들어선
부정적
수동
양도
##옇
##화면
##메이
##산화
강재남
양대
##도를
장윤
알찬
앤더슨
면도
귀
1년에
정리
로써
경은
아인
위령
이어가고
꺼리
同
황폐
기름
짰
##法
군비
안개
자존
송민
수돗
호출
노란
약간의
##외고
##기원
愍
클락
주년
ECB
중국을
##왔다
학부모들의
개회
총탄
##시마
불운
##광수
아늑
외장
장착된
긴밀한
##돌
북한이
엄청난
##안전부
모일
운영체제
옷장
현명
여드
존중
mar
##스토리
##RD
고로
성인
제네바
필승
수를
내리는
##구간
##상인
37
범법
박효
受
經
기내
췰
올리브
탄다
아킬
빌려
##물량
##相
좀비
부잣집
이지아
##오쇼핑
핍박
문제점이
아팠
삿포
시행을
##공원에
음악과
획일
삼성전자를
당헌
##로비
따돌
##팰
연의
럭비
묻혀
난국
##릴
緖
그럼
만날
심어
##뀌
##타이어
##(
##혜
##젓
NLL
假
##깼
##각서
##쳉
##OL
없애고
##이면
땀
힐스
대한제국
떄
##이트를
怪
자민
커넥티드
역전
내린다
합작
스텐
각막
해짐
郷
크루즈
##병과
유주
병살타
드립니다
散
吏
아메리
만났다
판례
눈가
79
##만3천
##었던
##선이
대회에서
인제
##타인
##챔피
베이직
史
##바
부분
살던
비판
숨지
목도
침묵
##소에
##쥘
피하
분석하는
홍순
생각에
엠
문제는
##aa
han
골프
##제와
##비난
술집
##웍
느끼고
걸프
최병
첫발
으리
한국투자증권
신주
바르셀로나
재활용
##창을
압류
벽화
어필
분장
볶
개발도상
갤럭시노트7
세계적으로
밀려나
칟
020
양립
완주
김근태
식약
나서는
리퍼트
산다고
의술
검술
조성모
천일
##문제연구소
##크라테스
단추
분양권
조회수
기묘
자체적으로
하겠다고
구비
##슭
아파
리투
TV
僧
주가를
음직
그야말로
PM
홍세희
##훈련을
##마다
2011
旌
안전성
주정
##고은
벌리
조직력
훌륭
분노
##por
군국주의
바나나
컹
알루미
680
일반인
##ulture
##반도
##블린
아는
김종국
每
축적
세분
칭기즈
##공을
u
있는
##초에
카카
老
챙기는
걱
불면
떳
약관
##사협회
난장
사업에
어여
충주
엔씨소프트는
딧
대표이사
방관
##믐
무관
통한다
잠재우
사회학과
##금융공사
정주영
이북
몇몇
도시에서
##뽁
다스
전자정부
부적
##쟤
유역
박영
어벤져
자릿수
1천5
하태경
가람
이주노
개인의
후에도
뒤늦
##가루
소비자에게
##조
연주
바이오
민영
즐거움을
녹화
해부학
1957
향신
속죄
단기간에
시급히
##요원
랜덤
조립
양구
##줏
무기한
Xbox
중에도
##15
cas
도달
이해와
999
##프셔
인수에
##보좌
준중형
##엔에스
방면
##싯
SK텔레콤은
가야
노고
한국수자원공사
사상가
순국
20대
##말로
직격탄을
금융거래
##성은
이더
증후
후퇴
상용
##퍼시픽
##18일
kafka
빠져나가
눈앞
joemedia
##ander
##요한
##드에
다신
비무장지대
識
공정
출근
##화폐
되돌릴
언의
획기적인
데에
드러낸다
일상생활
한겨
##화
##쳐
둔화
심미
자유학기
면에서
##차피
대책으로
퓨처스
##시티
프레젠테이션
모은다
##겊
영영
링컨
Dan
먀
내시경
보전
노숙인
驛
과제로
##탐정
주주총회에서
##자들은
사업장
현대모비스는
장학
장관상
##ling
구성됐다
이끈
근사
송강호
운동량
하수
강국
##기술과
##나드
대왕
반려
##겠다며
새정치민주연합
稱
##SK
그녀
㉯
소파
군소
유효상
##마블
환경
##지역과
어민
친필
평가한
증원
금리인하
##뵀
어떤가
145
湯
급증하고
딱딱
##롤라이나
라구
다할
##약정
##男
##디스플레이
무슨
하단
법원장
지금껏
대인
##대군
##버지
┃
혼례
출제
排
##view
that
나머지
비박
충칭
SNS
송기
도망치
빚어지
활발하게
선체
聚
하기도
은폐
##짝
지녔
달성군
플래닛
않는
오지환
##IV
정상화
빅터
무제
쪽에
철도
##번의
시도
##짐에
주민등록증
##常
뀝
##패닉
69
여야는
의존
독성
공략을
배터
느낄
안드로
MobileA
##더슨
흔쾌
수요를
동의보감
##/
급식
##5
비판을
##👈
♡
임원
##줌마
就
뗑
공화국
쓰인
않았다는
서장훈
짹
회복에
##계단
주어진
위험
히로시
당직
미진
불매
달리기
##IP
일기장
##실에
차태현
대여섯
체육
지난
慶
인해서
##품을
요즘
버린
퇴직자
##스콘
모바일
양자
맞받
보여줬다
up
##불호
흔적이
기하
미덕
버전을
공개한
돌아갔
현수
원망
자폐
##de
신이
철도공사
성산
씀
연동형
##살렘
##메디
랠리
예술인
받을
##주현
산천어
웃도
어묵
요르단
의견이
풍조
방법도
##쉽게
체결을
말문
자기가
##횟
##라이언
정말
한옥마을
차에
선고를
얗
남아
개방형
북극
피운
팔의
##㈎
검찰이
바이오의약품
관리에
스테이지
##선에
##석과
아웅
홀딩스
제라드
놓친
예배
Te
и
나인
변별력
목숨
1906
##견
민물
kn
군산
밀양
곳곳에서
##기관리
##칼라
김
jgsm
##치킨
문양
최고위원
올림
##68
프로덕션
低
이루는
한국투자
2004
마스크
가이
데드
챔피언십
섹션
##義
급성
##번트
독수리
병동
##네이터
사실이다
유벤투스
##뵤
노보
이니셔티브
블로킹
기고
가재
여당이
##무쌍
서둘러야
호랑이
부상자
##버른
빠짐없이
꿈을
##라이너
금값
미의
##어지
##퀭
선에서
##호우
##성과
##지엄
파격적인
펜실
출산
##뜨릴
인천국제공항
도봉구
##호수
##▲
대구
파이브
인정을
龜
##들
##댁
ㅇ
닫혀
꺼져
기록원
동북
여친
오연서
可
소이
특성이
##기업이
##線
##당에서
境
아무리
2월에
올인
해방
블라디보스토크
최적
목덜미
##록스
은행에
고위급
돌담
상태였다
##기까지
봉사활동을
##경제를
오스트리
교수팀은
af
읍니다
##가치를
㎎
오레
##ino
에어
4968
성공회
##겠어요
모델로
[CLS]
놀라
최장
책임감을
강력범
헝그리
##경제인연합회
01087942276
과테
양궁
픽션
취의
##ce
강서
왕후
##비로
옥천
##된다고
##골퍼
자도
싸인
위장전입
슬로건
##世
Pol
존나
공방이
기회에
근로자
항균
쌍둥이
순매
마사회
##身
전문
##슛
이준석
향수
동구
##한다
##단의
제복
##오오
펀드매니저
kykoo
##헬스
괴력
해직
한국관광
9900
의원
돌출
한두
신사동
재주
3번
외관
번성
丙
스트로
매드
대한민국을
정수장
알콜
종합
밸
默
거슬리
##시키
선행
원산
출국
##식에서
##이는
최현
##퍼를
발광
불꽃
허구
토박이
모두를
##심
기능과
手
據
분석했다
쟉
여중
하구
이름은
휩싸여
저의
##👊
##놨다
내어
퍼포먼스를
5억원
세로
에서는
열등
##大
off
이번이
륭
범
씨에
이뤄진
##∙
##1일부터
블룸
할래
출입국
##듐
구입하는
산산
업적
당신의
단말기를
가난
당이
##지를
督
##대를
꼽은
공중파
##외교
실록
일부개정
이호준
예정인
견인차
鉉
많은
밤부터
타이트
혈
유럽의
誌
풍선
피부가
##辛
어렵기
아파트
말하
제작된
노마
ㅛ
명백
만족도가
매력적인
깨끗한
배웅
베이스
영화진흥
소상공
##루는
박자
이정재
36개월
##타리
이닝
검찰총
##HE
##스처
승제
최현석
럼
극본
중도금
마련에
종류
취항
입체
고금리
##증권거래소
민주평화당
어려워진
哭
말고
인기
교섭단체
##하는지
나아갔
6일
체하
##oung
만난
##어로
##수정
##조8
##했으며
비아
씹
고안
것과는
##내에서
주저
활용된다
발음
##랐
잡
코네
원리를
여간
매니지먼트
##쿨
##돗
우리당
군데
##편으로
system
조훈
두려워
급격
김용균
가려내
낭만주의
전문지
지역화폐
직후
남편
유치에
Ind
##ej
kje
다비드
델
영동
저번
레이저
呼
##ities
점유율
迪
민노당
쓰러졌
다나카
수는
해왔
##자들을
제기한
##che
상록
조은
##크라이나
기대감이
##벤트
퍼레이드
한파
핸디
지능
달라진
박준
바짝
칭다오
떨어졌
발전소
없었다고
軸
추가적으로
집중하는
게이밍
移
후예
기후변화
##교육과
중
결과
##이터
순위를
제일은행
의석수
사실이
錄
부와
원격
수준으로
다케
선전
##방식으로
이어
z
가압류
알림
내서
입었다
단어
항저우
##슬레
중심가
자형
##단으로
정수근
두산
종가
심경
야대
지렛
운동을
까다로운
##조치
외국인이
세션
매매
##毛
건강이
연구팀은
틸
—
##나인
타임
실루엣
프라이데이
김영남
시카
코레일은
押
꽃다발
GS건설
##일대
여름철
센
행위로
빠르게
사업화
저조한
해낸
국립대
등급
##權
##세점
조원진
국민들의
1⁄3
이토록
콜라겐
때린
A씨에게
바그너
양극
회자
표준화
락
동체
Car
블럭
부서
곡면
틀림
땅콩
아보카도
있었다
입맛을
해칠
③
페넌트
국문
더이상
맞불
SNS에
2018년까지
예선전
마련이다
##행위에
##위치
삼성SD
##달러에
경제협력개발기구
피로감
구석구석
##🐷
##社
담그
어려워졌
미군
##쥴
유의해야
샤론
雅
등에
賜
Ev
음료를
九
도이체
한국석유
피크
##X
어려워질
##장기
남산
메츠
현안에
##각층
본고장
안정
합헌
##창현
소원
TR
행자
##6명
##이로
파르
후유
것만
점검하는
7개월
##됨
이금
불가능하다
친절
뒤져
침착
수출을
송일
신율
潔
타격
지구대
##딧불
場
내시
KD
맞춰
오직
테일
가입자
1958
모드를
쏟아졌
유태인
##NO
저술
##메탈
확고
스모
유스
방법으로
##하진
어깨
갔으며
뮨
버거
잊지
##명을
##층과
역의
MW
##하위
안겼
시들
국제사회의
창업가
깔끔한
기획했다
느티
業
SDS
참가하는
고도화
⑴
out
##GA
취사
집배
시키
유세윤
바이올린
김주찬
瑞
증시에
오세훈
##감에
수강생
떨어
후광
악랄
연천
비하인드
강력히
걔
찮은
없습니다
그룹의
##78
내놓지
풀어내
##마련
외환시장에서
부서장
族
##LS
앨런
##해주는
##협상이
수아레스
싱크로
지인
Ne
kst
함경
찍어
##‘
절기
귀하
밀렸
##리는
내정자는
병을
광주전남
명기
##찰
쵤
루돌프
방문진
어려서
중국에서
공직자
약
자위권
홍보대
보쌈
서양인
긍
주니
안배
상하이종합지수
제안서
이기도
목표다
##저우
멘토링
수당
##ㅆ
수류탄
이색
##도로
##ㄹ
##지정
생필
용사
夜
식이
특판
##mm
방류
##넉
##였던
##시켜야
프로듀서
물을
기사는
惠
계획하고
아포
기념사업
파열
조광
누리
딴
매크로
참으
##勝
옥의
깨진
끌려
양쪽
소실
##뿐이다
휴양림
시가총
으면은
##나루
고용지표
인정해
차례에
아프간
ver
##조건
양평
은행나무
주장하고
범실
박계
느니라
1단계
울릉도
부원장
증거
인삼
將
진행한
##와이
슬슬
##로에서
수상자
윽
루마
B씨가
직통
모빌
판가름
진료비
##항만
##Hub
閑
쓰는
after
전창
쟀
##us
음주운전
채권형
##릴라
草
불러일으
일류
Tech
노골
##특별위원회
잇따
입력하면
##천
매운
짧아
##👍
오존
길고
잊
의원들은
##yp
防
##떨어진
##거리에서
##바시
##리테
옵
（
운영을
녹취록
갈아타
업의
고객
알아차
##촬
죄책감
코트라
창건
於
킬러
경실
머뭇거리
타령
샘물
5인
##스케어
선거제도
햇볕
##젠다
뺌
있으며
목표
꽤
蕭
비롯해
인질
사망자
조그
팔로우
작품으로
LA
무단
투르
가엾
이같은
총리는
크리스티아
사전등록
연출가
limj
소명
수입품
ㅣ
늑장
##겠고
##솝
##진은
보정
쨋
자문단
민족의
##셨다
진행된다
##is
으며
bluepic
특산품
아리스
누리고
진공
유수
비합
##사이드
員
삼삼
##보리
47
##쁘
벗어날
듀크
바람을
현장실
##W
마돈나
알기
##헤
자서전
310
신발
파나소닉
像
##깥
풍미
수출액
급상승
금할
뱡
단지를
이어졌다
서비스다
정확히
선호하는
받았다고
공항
론
##벱
##化
분양가가
국가에
스타트업
간담회
##아트
아로마
조사에
##시설의
행사다
알츠하이머
플리
가동을
##🤗
##나노
귀신
칠성
De
됐습니다
–
##산업진흥원
編
##24
의자
##라기
지식인
##귀
높였
위례
홈페이지를
##수술을
상속
##사회가
그리스도
지나면
발전과
단념
쿵
시장의
공기청정기
소질
섞여
플레이를
##음료
전달했다
2G
깠
##헐
##한가
su
##LC
셔틀버스
##들에게도
내비게이션
기대한다
잔디밭
##라도
이사국
어장
play
어버
아바
뻔하
이전의
임직
오늘
기저
##교의
得
2800
철로
소상
비명
현실적으로
확장
다라
전횡
신정원
기특
나무
웃음
장착한
기울일
원어민
시대를
지나면서
업종별
미룰
콘셉트로
어떡
##불성
캑
우리은행은
같은데
쓴다
걷
##젝
빠질
Social
##馬
땅바닥
신라면
影
주사기
활동도
여론이
라바
기재
BW
##컫
됩
##디에
湖
가공식품
샤오
문지
과기정통부는
##로프
暗
자네
BB
젊
俊
기업
FT
박혀
내리고
충격파
서운
집계됐다고
묘
객석
질문을
다다
이면
제대
행진
##빕
저울
##들로부터
폐쇄회로
간다는
장원삼
##ag
潭
사인회
##부스
프로젝트는
아리스토텔레스
##기술
역습
더불어민주당이
릴리
주인
장수
비싼
생과
##웠다
##아
우윤
신재생에너지
표심
의제
城
사
##끙
전국의
우렁
4명이
공표
##운송
op
더욱더
이동이
##담보
호응
조력
최지우
ᄇ
불시
후견인
스펠
브렉
쌓
테리
이비
##위원회가
본인이
자동차부품
스크린
##피소
산실
물린
은가
hp
사랑하는
##축구
까맣
모리
둘러싼
j
##항목
##바꿈
우화
타미
신작
뒤통수
##룩
166
무수히
비중을
##현황
##오늘
규제는
1978년
피부과
동의서
윌리엄
카자
##방해
혐의는
##BL
브러
살이
擊
대학원
몰래
작성한
275
NHK
의혹이
휘말
자부
AIG
NS
帶
너희
위시
1981년
별개
지날
👩
##었다는
3차원
##enter
파악해
함축
세트를
열기로
아무것도
하이테크
이나영
1월
좦
토했
정부와
緣
싣
대대
시민과
##chang
스니
활성
##통운
##청에
전남도
모집에
헌법
숙부
##꺄
##ᄂ
공급한다
빌헬
1993년
혁신의
김도훈
##됐
바르
CJ헬
##본을
승하
심의를
志
##퍅
밝히면서
용산
보강
완성된
##게임을
평을
##쭉
악보
##본부와
맡는
##ast
후원사
##디자이너
니깐
드렸
##11일
##커니즘
##柳
##됐기
각광받고
##화는
##업계와
고객이
추가할
수요
강제성
##쐐
캥
潛
주된
그곳
하락세
##ec
뜨겁다
도가
재무적
변경했다
무엇인가
Em
봉중근
##리지
청취자
##면세점
淸
##낸
역력
##적이
가했
##글라스
##퉁불퉁
##김
방언
추출
濱
서울중앙
정규리그
이카
거들
##니지
여건이
##말이
##ㅤ
##폴리탄
퇴각
페르난데스
##놉
정호
가혹
신설했다
도로
롬
한국토지주택
占
혐의도
음력
삼성전자가
##공사를
겸
두려워했
개관
지닌
이변
반장
모멘텀
독재자
허심탄회
무로
대명
발언하고
임형
병영
사이버
산세
un
##거부
중계
외계
마사지
##퇀
777
제10
뽐냈
잔치
느냐
될까요
##토지
가려움
가깝게
은어
ㅡㅡ
최석
장정
방안으로
개인별
김원장
끊겨
유니버
##릅
바티
裝
##틀러
청계천
##리의
무너지
##머리
그러다
구조로
##세다
acc
꽉
문지르
昔
모성
##잘
하나씩
##매가
##워스
국가로
정신적
만사
취미
##억원으로
##iana
寸
어조
1972
사내
메모
현아
환율은
증가해
외채
빼
A형
전달한
마라
강신욱
김경
진술
통학
##티티
건강과
편승
키우고
등이었다
##소송을
꼭두
점령
했으나
미인
북돋
해킹
##영리
강제로
클라이
태화
헤럴드경제
안을
어느정도
정봉
##눔
##료는
공시가격
오쇼핑
##르크
올리고
##조건을
하락했고
克
손가락
승기
고학
조타
##때로
그동안
##완종
##fer
##병이
뉴스1
숙소
##방안을
##속구
삼았다
유난히
시위자
##량
##파트너스
이근
박유
중요하다는
하이마트
##세는
시간을
##作
冠
##텐트
##들에
##회관에서
LG유플러스가
##업원
이부
국회에서
정도다
##대상이
10년간
기표
밧
검찰은
諱
애플리케이션을
인내
면접
헤어졌
2010
러시아의
짊
보시면
##경제연구소
戀
아쉽다
율의
##ral
었잖
##EF
##윤호
##성심
국회의원
따왔
한전은
선덜랜드
특강을
꺼
##ton
영유
##지주
6700
디오
매매가
##動
발생했을
일개
불똥
생기면
그저
##정보보호
오바마
IS
나기
세용
##MC
레버리지
캐릭터
박종철
팩트
##★
외래어
##샤르
비난
##특위
개발했다
물었다
·
무급
밑그림
##금이라도
장난
노을
##코스
##치오
##說
Technology
##친다
의견수렴
##들의
후계자
1001
예기
##에리
그래요
버밍엄
끝없
보수를
파는
배척
노년
##△
##방송통신위원회
지방대
요구했다
3조원
##트
週
彩
일당
각료
##시켜주는
婆
보험
속이
성문
플랫폼으로
와일드
국정원장
단기간
구속력
##29일
자격증을
백수오
##1억
아파트에
온누리
##추진
안돼
여파로
##디지털
생술
옥수수
프리킥
허무
우려하는
제재
보내
##에미
##칭
고등학생
##극
치의
목도리
##전형
공개할
감독의
##가와
무근
##199
연구원
샌프란시스코
결별
인터뷰에서
##담한
1900
외신
상장
다이오드
SB
##틋
히어로즈
##하지도
전시
웨일즈
수북
##산업이
삼성바이오에
하르
알려준다
獵
##띤
기념일
가르치는
차이를
허지웅
1만7
##·
받쳐
에이션
접경
구매하는
살림
##면이
농가
연수
올
내다보
펀치
꿴
##세지
영수증
2000억원
육수
##신이
거든
##민속
내외
##센터로
재고
황정민
제기했다
벽산
##별로
데려와
맛의
달러
間
ㆍ중ㆍ
과거
이점
전산망
것임을
삼국
산맥
김동수
몸통
인구수
인보사
##zi
철강
물체
주치의
눈꺼풀
##컴퓨
넘을
매출
회기
내무
이루
습의
＞
정부세종
마코
업계는
##민정음
##79
어설픈
원전
##계층
##u
휴대폰
##국이다
##센서스
강호
##sk
경영자
이르렀다
줄다리기
##심과
##갤
70
에디터
枝
결장
하여금
장담
넌
리우스
##대회
장윤주
##관계에
미화
##자산
##버릇
가브리엘
##IST
낙후
유연한
개발했다고
3900
취지를
##르드
許
##셉
안내
막스
이끌고
##템
##gl
취록
거주지
##셧
페이퍼
##iety
映
키웠
싱크탱크
##테스트
초입
##등학생
##혜선
로즈
협약을
##공장에서
유럽중앙은행
##우산
링
튠
망설
운영자
살리
##저기
##시설로
오열
노력
무효
체스
인심
구석
스트라
##지에
순서
당
전직
조그만
장밋빛
##즌
수지
날은
##뜬
관광객들이
배심
##폐
서울올림픽
가르침
끓어
거요
유명
##물류
조직위
의원들이
도보로
현대차그룹
랭
나섰습니다
비서관
매끄럽
단정
차가운
헤지펀드
창작자
뼘
겨누
##청의
크레
도입한다
##펠트
##군의
자유민주
##계획을
에프앤가이드
阪
사용된다
##옴
한진그룹
쁜
구성돼
동력을
비정상
브리핑
##드래곤
귀성
핸들
寂
고정금리
##됐던
4위
홀로
泰
##추
##ᄆ
흐트
지역
##어비스
시대적
##립대
2009년
##하면
많을
두통
OEC
247
주술
댓글
공동선언
메인보드
##플린
##해온
SK텔레콤
낮게
검증
##이어서
明
##적으로도
##웠습니다
─
퇴치
대상인
음모론
샌더스
##마침
국산
다물
MTN
패트
치매
달려오
##물과
jj
들었습니다
송하
예산안
여하
갤럽
100여명이
또렷
막연
내다봤다
진이
시행한다고
심의
쌓이
##주곡
##선한
##태희
참석을
##쏩
패스
##청기
##양동
##에게는
##국회
출시된
##관제
유병
공개됐다
mill
校
신고가를
조사하고
항공모함
의욕
2층
해마다
권익
率
게이트
써도
시민의
예전에
##ism
##져
##올라
정수장학회
근거를
부딪혀
대책이
蒙
조용필
체포영장
들뜬
반값
저쪽
장기
##사고를
서리
가천
##티슈
##우저
계책
무라
##인사
##처리를
노루
원심
12일부터
시국
수욕장
성향
기반으로
##학당
혼수
[UNK]
마련한
종속
인상
##뺐
검사가
##샀
용의
幻
에듀
##風
있는데도
분계선
##인재
점검할
##생
사계절
폭발력
명성을
헬리
만찬
토건
##이기도
##스틸
##시킨다는
1위를
서울시에
##쨋
csy
네이버
다음과
유선
프레스
상황
480
나타난
논의할
박세웅
매니아
##97
로켓
知
도우미
##너지가
내추럴
##인에
내부의
돌기
眉
##수업
힘들게
마음껏
몰리면서
공고
깥
건넨
경제협력
규모의
뒤늦게
심재철
할인점
##펴
적외선
##타
백조
젓가락
띄게
딪
송은
조니
자석
猛
완제품
낱말
초미세
##지주택
역외
喜
斷
급선무
상태다
燮
숨을
소개서
##퐁
4시간
판명
동자
죽음
수치를
##정책과
4400
迦
그늘
비례대표제
안정적인
##기나
##–
##틀리
협의가
레이크
스마트폰이
##꽃
춘향
한심
##일레븐
꼼꼼하게
완료하고
조사
##고루
문화방송
항구
이날까지
쌘
##😢
2025
##ason
온난화
##플라
사구
이민
샘플
자신감을
검토
##연령
듣지
##oh
##행위가
자욱
해결에
##르게
##스코리아
솔선수
낮아질
FOMC
우려해
卽
##폰을
##기관장
홈페이지에서
프로젝트에
윤창
살림살이
담당자는
열린우리당
파산
관심사
with
##했는데
뭐
##밴
##권익
완벽한
##쑨
올해부터는
##갬
서해
##꼭
아시아나
단적
본업
클레
從
##ᆞ
AS
였다
저력
돼지고기
逸
##3천
이득을
드나드
케이블카
##오피아
라일
베토
리서
IMG
노회찬
소강
했었
匹
Peter
##故
##레나
사절
🎶
우월
##가능
대항전
세인
롯데호텔
수행하는
일본의
지하철역
고정
##즈키
祥
##а
보완
안테
자태
##첫
공복
##억여
지열
앞당
알차
가입자가
##질랜드
##정한
음악인
★
고사
##부문은
연기
특허를
‘
줄
차원에서
리사
전했습니다
명성황후
인과
주의보
씽
발판을
탄핵안
확대할
토착
공해
꺾이
진행되며
믿을
접대
##암동
##에겐
##환경에
떨어지고
諦
참가해
반영된
프롤레타리아
##이었는데
시리아
츌
투자와
대변인
자유선진당
다가갈
비비
97
##pg
##빱
오답
무리한
##요법
RF
자리한
조선의
연맹
오해를
물결이
##휑
반전
1932
통화에서
골다공
포트폴리오를
존재한다
신변
2008년
박주
거부권
시대
해수
모조리
위쪽
u3000
##슈
##팁
彭
언더파
잃어버리
습한
우아
쿡
##앗
성진
##어택
##너지는
달서구
앱으로
셀레
汝
760
중급
##상거래
##id
홈페이지에
절대평가
##도시로
살짝
지속되고
##청산
##튬
수수
기술개발
칼로리
번의
##배에
##ㅛ
개장해서
豈
숙제
碑
신속한
雀
깨끗
基
의미있는
위너
임의
고석
둘레
##하려는
형태를
김유
중전
라니
별관
마법
kbs
불어넣
손끝
##상공
##니다
날아가
신민아
교수님
당장
##비가
대구경북
전단
복잡한
인력이
로베르
멧
정황
제출했다
들어보
敗
키운
단계로
츨
격자
구가
보완책
사복
뛰어났
케이티
인가를
##넷은
침투
약품
등록금
냠냠
일궈낸
입법예고
##콱
재무
村
하찮
3000여
실질
##에서도
2호
##렉시트
시스템에
〃
전화를
백과
사무
##항으로
자물쇠
주민들이
고부가
##탄소
완결
##맛을
모가
마운틴
답했다
##금액을
##보가
부랴
청해진
##녹
셔틀
누수
아웃도어
##isch
인사들이
불러올
재차
도구
내려받
폭으로
온종일
불합
晴
##멤버
품안
##아리움
증세
김무성
언행
변이
영업이익이
##쌀
##혐
최선
아바타
##비어
틉
해적
예뻐
##💦
속수무
벗어나지
절규
먹거리
심려
##ry
부주의
Wi
나뉜
에너지를
낙관
戸
가즈
한국당이
연구소장
지그
자신
101
원주
도처
##더라고요
##멘
##도체
광장
테레사
권선
시즌
습도
성서
블루투스
상담회
손흥
황재균
어그
newsishealth
부다
감안
마세요
##관을
대야
##아니아
민주주의를
종교
더비
김영만
3년간
당은
##신고를
가계대출
제하
유통업체
賀
폴
範
기업가
연두
屬
干
顯
정치인
무대에서
##걸
라이선
해온
캠핑장
顧
펼쳐진
##aeil
함양
일정에
받침
遇
애경
범죄를
만달러
작고
피겨
퍼부
미신
외치
킁
입을
보게
견본
銅
##ds
출하량
##be
suejeeq
부분은
지수가
못했고
폐차
관계자를
149
##취재단
EB
206
무난히
잔뜩
Dav
##스테
알맹이
塾
때문
아실
##eri
ex
부지런
재협상
공통
회항
않던
악몽
##루가
禹
데일리메일
미망인
今
마장
k
PO
우리나라의
흥행
소
##ison
연계된
많았지만
마음
화장
퍼진
##🤔
국무조정
해상에서
배
경제보복
권고
배신
원이다
고객들이
여럿
성명을
나라
##꺼풀
유커
##사를
판매했다
도용
피해자들의
크다
선생의
박종훈
##교동
##는가
군중
지지자
파악하는
인물이다
타워
디자이너
오더
번져
유지하는
##ula
합동
##택시
##병원의
뉴스투데이
근육을
산자부
비율도
공법
넥센
갑작스럽
##격을
미끄럼
육감
차림
자칫하면
주고받
##니티
##000
쇼팽
렌
김민수
승격
방황
만드는데
제1회
통할
샌안토니오
##道
비의
##벼
응하지
##로만
좁혀
##전용
온실
사연을
略
인도양
##엄
통해
극장가
Stev
길드
피츠
구청장은
병기
망언
몰고
굴레
수명
아고
부딪
無
궤적
荀
이선
가구
마이어
11년
매력도를
단조
수사국
댄스
수석
행정
##rit
열전
가트
JT
중의원
바이러
奧
장군
##浩
플래시
##갓
음향
⠀
로드리게스
에인절
퍼져
1966
貧
나갔다
벗어났
바인
##기독교
김진수
지낸
인디
고소장
##로도
수상
교수
##미팅
##ara
석유공사
판결에
##비아
여라
##퀘
거동
내용
무너질
영일
모녀
지소연
입지
않았기
압
##플
##금액
##wls
계셔
##숙이
3일간
마른
서울지방
내던
상반기까지
쪄
악
마을을
77
시음
벌거
##딴
##깻
트램
밥상
##학년
해트트릭
주변의
하리
##경찰서
각별한
University
##판
테라스
타오르
했잖아
테이블
re
뒀다
꽤나
한적
외식업
박선
파커
짜리
##本
지사는
##알코올
동요
가정과
홈런왕
##tpwls
##휼
자동화
택
그릇
##붙
봉안
롯데면세점
##교류
자회
##뭄
단계에서
선글라스
##세상
연하
산수유
맹활
준거
핫라인
##색을
QE
##랠
개인적으로
항상
##깬
형인
록맨
빌려준
二
괴산군
##ution
물어볼
MSI
강동구
둔갑
拳
載
무턱대고
덕의
##ount
안정성
일정액
조급
근심
한방
비단
반란군
##항에
온열
외무상
Aw
##워치
인형극
무방비
施
긴
희
##호텔
lee
비누
❤
지휘봉
교육부는
士
경기도는
김대
미래부는
##조류
벌어
간담
굶주림
회당
미래
케임
렵
어째
##論
##방송통신
##월일
믄
##전문점
존경
##구비
##rom
필지
##urn
기업들
수산업
모건
##ode
자리
궁극적으로
##신기
bold
스탠더드
가리
##스트로
개월
##소비
드세요
박유천
성추행
##이크
50만
미지수다
여죄
라든
제목
늄
死
##с
하자는
모던
##ol
l
공사장
그치
슈틸리케
BG
299
시간과
수익은
무가
9
수배
지어
카멜
##매체
송창헌
미래전략
낮은
##졔
205
##일까
우원식
지급한다
##버트
주주총회
상류
뽀로로
評
##잣집
소유
프랜차
정책과
대통령
##계리
미시시피
일관
##계올림픽
꿋꿋
한국무역
##주간
##줍
씨는
##2개
유태
문화체육관광
秦
아버지의
리오스
보증서
에볼라
연주가
비핵화
둠
##뿌리
고와
붙들
우치
이적료
소요되는
백남기
운동
컨트롤러
전념
한수진
##실베이니아
바른정당
매점
##ating
우동
말부터
증가를
001
교육법
##0
酒
라이더
BT
휴업
걸맞
행사에서는
비보
해줬
피니
##덕션
피파
넘쳐
##되었
Mnet
시그니처
포크
##형
송창
어쩔
뜻
국가
률
기간제
##島
프로그램에
20도
동파
소속사
총출동
##안을
##う
안전에
##work
후반부
2019년도
빼어난
##프리티
사고는
##로봇
붙은
雖
##짼
대표적으로
##ㅋㅋ
##미가
연금
밤중
##그네
잠든
주도권을
에이전
동영상
##애플
백분
따끈
이회창
💙
##회원
##任
##6억
씻어
시행한
번지
베트남
맡은
펜타
##쨌
한마디로
원활
델리
호텔을
##측정
위원장이
##白
공론
##날이
해주고
배우고
신분으로
기와
##섞
다양화
##할수록
손석희
지디넷코리아
트라우마
파트
한해
네트워크
기사
허세
남았다
腸
생겨서
조직
바지락
확신
내야
적임자
능숙
데이콤
결항
쟤
철쭉
차지했고
못
일원
some
쓰고
하반기에는
##눠
디트로이트
Jcube
수련관
노총
뜬금
감격
뇽
뿌렸
따져봐야
👧
해경
雜
##재생
##러운
過
보고했다
원초
신한금융투자
絶
7982
정제
아미노
장년층
주택가
분양을
##쳐스
핌
##velop
槃
보선
풀어
산체
구릉
##프라인
기무사
숙였
상무
브랜드를
가급
잡스
주입
황기
책봉
최룡해
##kim
박수진
허허
##치유
소요될
##하트
객
##총액
뉴스데스크
코스피는
##et
백이
##하면서도
圓
정맥
##치료를
니켈
횃
지원청
오름
##내고
030
263
眼
효율
부근
남원시
해결책
耿
일시적인
\
유력한
방송사
미온
유가족
##심에
##글리
##아내
식품
주도적으로
하수도
복이
이천
쏘나타
증거물
돌리는
피소
처벌법
나마
##폰
##NT
齒
도래
학생에게
싼
##ь
遷
부산지역
크라운
해안선
際
##ck
입맛
마티
##동
출점
서세
알려주는
##썅
레아
縣
모르겠다
##윰
포함되어
유전
왔었
8개
찾을
따져
직영점
동작
스펙
뛰어든
공영방송
##위해
점을
언제든
인도의
⑷
대북
고아
인회
북동쪽
ㆍ현
가구를
분야별
지키
##선지
組
도망가
##시대를
시피
배기가
##강도
99
시라
다지
도시
##하니까
단시간
박홍
디스플레이
##끽
달콤한
차관
못한다는
##미한
해양부
##르트
부자연
##조사
준비하고
구조물
마드리
아이폰5
비이
공급이
ld
서귀포시
존재하지
않으며
##준비
인화
質
##기온
##디다
😆
문화체육
사체
2회
품질
마인드
평등
소속된
숨
국민카드
매운탕
##사이트
敬
였음을
양국의
##사업인
판단에
##뗌
아메리카노
##국민은행
웨일
행진을
역사상
감정
상업
조슈
##앞
속도로
잃
비판하는
동맹국
##귿
##일로
임재
인사동
##dex
흘러들
UN
박정희
좌회전
무침
유럽연합
빗
펠트
##증권
자신이
끝으로
##슬림
지나갔
##진당
요것
б
##우를
플랫
설령
박은
##아스
살아날
##ade
유가증권시장
##방송
터너
China
照
dbtpwls
아이들
##뇰
##이블
그만둔
선박을
오케스트라
쳐서
이조
개의
수준이
루카스
연방준비
방미
하겠습니다
좋아
미술관
3개의
해결될
##떤
활동이
포착
붙일
암각화
아니면
##어졌다
##mp
튀어나
Ⅳ
분전
여의
품
摠
네임
목소
##도시공사
##버스는
##선안
##보선
동인
하노
우즈베
沈
산뜻
논란은
교육부
##ish
##료품
목욕탕
루이지애나
손해배상
ㆍ신
륄
아리아
대주
##뉼
첨부
오랑
제갈량
초밥
Mon
##寧
Y
##서다
##행복
재즈
알린
AFP
불법으로
착수했다
투자도
정경두
부스터
##맘때
프로포폴
메트로
헤매
즐기는
2조원
어울리
##반응
만일
ン
##31
灘
49
오르면서
경비정
##퀑
주도했다
라트
게
일반적으로
##基
침
10
아만
캉
##떰
1916
##woo
안마
##훼
신분
소릴
##대학교는
견주
유나
알아들
패드
공사를
홍합
절하
지급을
소비자들의
바랐
피해자가
인플루언
이용자를
##너무
응답자
암환자
아이언
산지
##여서
방문
##ream
##마리가
뿜
개발도
경영학
프로야구
##판의
아디
않았고
란다
결국은
섣불리
세심
발제
없지만
총괄하는
보도
무게
##스러운
검토한
##버님
##att
##러미
예우
的
떠올렸
##림을
뺄
소비재
부르짖
시장조사
제한이
기분
이노
판단을
ac
대신해
쒸
어겼
bb
철판
기숙사
KRX
일거
000억원
정면
차분
로또
병우
정숙
##심을
##아울렛
##환경청
##③
촉
인텔
ABS
울상
율동
대한체육회
유학
트레이닝
##중소
확진자
부탄
이경
발길
##분부터
치러진
##글
공공시설
양반
증가했으며
졸업장
국제적
동국대
청문
가입한
이씨가
svg
관련주
간단히
주최하는
호감
크기의
문화관
거리는
흄
아틀레
않나
슬라이
알짜
##던지
엘리자베스
8200
쉬워
##圭
사이에서
이어진
퍼졌
월스트리트저널
전망치
##꼬리
##상조
소추
비석
답지
人
노련
과학기술
날뛰
##증가
슈
제공할
##으로서
따라붙
범죄
불합리한
비난을
런칭
##갈비
격전
##분투
베기
북한에
태풍의
##물가
캐스팅
생명력
##인력을
준비
식으로
투지
계약금
뱄
여
##링
모방
동무
늘어나는
악순환
식상
금액
소방관
기관을
주스
통영
사용
Bo
后
100주년
##어트
실행
##지로
##존스
송나라
집을
##공사와
자연사
바꾼다
病
紅
닷새
유투
##🔥
안티
##차량
경기대
기형
##나간
저지르
다르
규제개혁
부담으로
復
濟
고요
##덴셜
삼성서울병원
##禮
가톨릭
do
차이점
문하
88
살균
이낙
咸
##기의
일진
당수
접근을
놀림
＂
화려
##ter
보살피
기술력과
공개를
개최
번갈아
날리
柴
@
고주
##직업
면적은
드나들
##저곳
현행법
24일까지
나이지
브로드밴드
달성을
##서야
청했
안의
11
##카트
或
쐐
해볼
제창
관직
##분의
##상품
따라야
##쫓
살인자
##엑스
엿
MV
에릭슨
w
토사
자결
외국인은
소개팅
맺었다
##뷜
추모
123
##색이
성신여대
미적
##퀘어
동수
##률은
아프리카TV
##rou
신축
##약한
삼성화재
##ᄒ
）
제주특별
국민건강보험공단
세정
모토로
블랙베리
##계획이
살폈
##닢
Part
##팀과
39
평가하는
##데스
중흥
관광
오뚜
분량
策
尚
##플레이스
레인저
貨
im
노동조합
지반
25일까지
신나
##중앙은행
폭넓은
캄캄
실세
##곘
Wind
진정한
仙
1927
##💗
간간이
##뜹
am
수요에
##萬
##꼽
##어붙
HT
강동원
갤러리아
산업부는
아직까지
IP
##레기
신사업
##성동
풍성
공무원의
##대표제
배설
가차
##폄
신의
##국을
특성을
아반떼
콘
내년까지
집밥
자사
박영선
신청했다
강진구
##으
이데올로기
온갖
##wood
##인들에게
기장군
##멉
<
강전
앱을
갤럭
고스
분위기는
뉴
능
은퇴
##듯이
강자
##던스
향상
『
맛을
거듭났
##리나
옷을
불안정
id
민우
가능성이
##식장
승화
귈
자동
신민
독소
간다고
부단
해리스
귀결
풍속
그려진다
LP
砂
##산업
복면가왕
요약
흔들리
부유층
낚싯
놀라움
동력
斥
이례적인
감추지
마음은
저버리
##ard
혁명가
어업인
##홉
오디오
##젤
즉위
22개
##일렉
##ics
##자원부
사투
개선하고
확인해야
る
동년
끝났
##찐
S
돌릴
건당
나간다는
##⁄
때만
주막
##시면
께서
한시
업계에선
날아다니
##어의
막판
중소기업중앙
전거래일
②
50
##서관
##결승
願
엘리자
전쟁의
##ats
달고
##클라
##팜
쇼핑몰
##우는
메릴린치
秀
##티스
##왠
핫도그
오류가
껄
스마트
흘려
12년
법원에
세우고
순한
정보를
혁신이
벨벳
서글
꼬집
협곡
TV와
공손
지도부가
포퓰
부산에
득
##네요
코칭스태프
DA
원톱
宿
성냥
4G
도시민
幹
통닭
##뺨
##것
드러나
발표한다
6시간
오히려
물병
순간
압박감
##라서
모임
병실
落
靜
주변인
질병관리
JYP
##대출은
대표이사는
##ause
##ams
아치
##장어
이슬람교
전날
개년
##교를
끓여
꾀
##秋
문화
뚝배기
말레이
##잎
송수
고명
##품은
황급히
유의
##거름
모아서
집값
##ass
200만원
려면
서현
초소
확인을
유제품
우롱
남서쪽
변하
##에선
발생하는
메가박스
##탄도미사일
##모의
일렉트로닉
막이
결식
이따금
완전히
맡겼
건널
변호사를
일단은
후보자에
강진
원폭
초부터
승합
사회
떠안
포문
##코딩
Sy
수빈
펄어비스
🤦
##ll
##뀐
屠
제주도는
##🍞
도우
길러
박종근
##모니
왕세자
농식품부는
에미
내게
郎
왕권
재빠
니즈를
김주성
인색
##윤아
간과
한데도
##谷
之
##3개
##의료
保
##규리
##으론
##동기
보드
㎓
위원장의
廣
자유무역
입힐
치러야
여유가
IFA
평범
미스
깨
뻣
AOL
위촉
2개의
왕정
##Z
실크
##예약
府
錯
재연
채식
##관리본부
분도
상소
십자군
##넥
오송
자랑
중화민국
사라진
핫뉴스
케이블TV
星
지나는
지구당
벽돌
하동군
##철을
검시
특허
않았지만
녹아
라프
##쇠
##위험
널
##氏
티타
냉소
##들목
나서기로
씁쓸
桂
경호원
아직
유재형
포기한
😖
듭니다
##르도
경쟁률을
김상현
많고
헤로
캐롤라이나
치과
mm
몰린
##사업법
헙
상승에
만화가
단계를
##옮
##β
팍
어려워진다
##마이크
보여줘야
거론
警
경상도
참여하는
모델이
택시
있
혁신안
나폴
짝퉁
넓은
이민정
고운
지위를
절충
옥외
스트레
##워키
숙식
會
넉넉
원단
헤르
bad
그리곤
##째
요트
##컵
많
라운
고영
##몰이
금메달리스트
28일부터
##집중
타이베이
표시
次
소련
볼까요
신년
##따리
아야
넘친다
##경과
복근
완벽
조사단
갔
합성
영향을
게재
크나큰
달려드
thebell
##바야시
문자메시
정명
##법과
불거진
##졍
swryu
채우
##공학부
서울시장
染
들어온다
핫클릭
루수
단맛
年
제시하는
125
반목
##쉭
##사정
##수기
증권업
마을
##씻
본회의에서
전액을
이재원
##금속
NASA
실시한다
##굴
사대
##번
허물
일리노이
속도는
스낵
한정된
갈비뼈
1917
##카르
駐
##굶
폐사
지사장
1000억원
##크래프트
그놈
포석
대림
꼐
가르쳐
캣
깊숙이
모르는
지정한
대동
김의
菜
##공단이
밍
계명대
##rig
듀
파츠
뀐
점점
후반기
margin
##먼트
인사와
##텐도
000만
있었지만
21
우리은행
8일까지
수확
일으키는
##$
명문
세미나를
대응
요시
育
긷
보잉
기나긴
##스프레스
줄인
##로서의
김종
巖
닐슨코리아
쑨
혁신을
서야
align
데요
개수
##데오
역적
##이용
카네
해결하는
조항
평상시
로운
정상회담
평년
##구치
리자
은수
##노선
됐을
##88
1105
한국인의
우수한
화엄
조수석
넘나드
##아서
지시에
정용
공보
보루
조건이
봐라
4600
디바이스
##물살
##ata
박스오피스
蔘
고종
선고
산타
##화했다
의문이
##詩
##지수는
테마주
##타카
국제통화기금
무너
##보건기구
명확히
kaf
성별
언스
스코어
##차례
횡성군
공방
행태를
##협은
우두
이날부터
##ens
##크의
##폈
눈길
IBK기업
순
##법인이
전문직
파워
건수는
난징
패거리
##1억원
대출금
전적으로
주의해야
정액
흐뭇
##루
숙명
더없이
연마
든다고
강화한다
때문이라는
주체가
툭
논의가
시점에
SE
##횔
천정
창조적
300인
농특
##저지
덜미
기름기
##아프리카
##즈를
##되자
츄
이름을
##뵐
##바이크
LH
손정빈
송승
내
아반
정기적으로
##시밀러
1923
비율은
상용화를
멸종위기
##높이
본체
KL
유생
없어
쏟아
항공편
ᄋ
##벡
##크를
킴
검은사막
劉
일반부
쓰레기
상수원
상승률은
류형근
띄는
##씹
철거
개량
3명이
일탈
探
낄
화원
넘길
##버드
노사는
있었기
상쇄
때까지
청결
금강산
공정하고
현대인
스크립
맑은
##총리
07
이유에
##☏
수용자
자란
놀러
간담회에서
견이
그림을
월요일
라이
가창
MRI
과학적
장마전
##톳
라이센스
장자
국토해양
짜장
장본
##강에
##규어
殺
예방과
질환에
피카소
##rib
내용의
naver
특감반
정령
##1명
##코비치
여교사
화백
기념촬영을
거대
가격과
##HA
##히
##셔츠
철근
강화를
스포트
##바키아
김기준
보스턴
야
매화
신공항
골드만삭
헤드
경제학
미끄러져
간부
갤럭시S10
ace
객의
요구하고
##비율을
##참
채권을
무대로
남북정상회담
曆
강경화
Rob
사우스
7개
북아메리카
정유사
수혈
운세
##다니는
쌍방
##여객
##님
거꾸
##리기
##헨
한민족
담았다
독보
102
이글스
윤활
오로라
##하여야
요
##하마
불출마
콜레라
공유기
유한
원거리
ind
Mus
##나이트
주장이다
사례를
독일어
하이
r
져야
지날수록
웨이
오감
선결
기대를
8년
27일까지
머물렀다
회장으로
남아있다
받게
##편한
##EA
휩
추인영
##피
의미한다
##자치
1대1
##빌리지
펐
air
판매장
jco
퍼뜨리
학벌
고검
슈퍼맨
##권은
족쇄
애니
래쉬
##하고
##매를
개소
이윤
##멧
토끼
욕조
경기력
캡슐
##플레이션
카라
##기업들이
캐서린
카세
##과학고
##관념
dem
하나로통신
##겠다
급등
市
拜
憂
승객
신평
폐막
총력을
노력으로
##방크
譯
騰
##용지
##니까요
요시다
##밞
화학물질
대령
☎
절로
수익률
달을
##총연맹
꼬리표
4
온천
형부
##ml
납품업체
펼쳐지
납세
교민
지급하는
##레미
##성형
소진
아시아태평양
이원
연료전지
滴
1890
오전에
##뱅킹
깨달
열정을
중기청
정리해
준비하는
광대역
대응하기
##발레단
##나라
조문
관람객
만큼
##핸
##검찰
사람으로
기왕
무얼
쏨
펌프
선원
##바이
요점
씨제이
관광버스
헬싱
30대
롯데건설
기자간담회를
유세
번창
##번지
his
공군
휘발
가중치
현주소
맹대환
댈
총회
둘러보
##작으로
##오션
##당과
##낍니다
Contents
샴
최악
##50원
뚜렷
거래대
五
헹
롯데월드타워
장인
궁궐
캡쳐
징역
닭고기
##릭터
##27
노려
게요
오른쪽
명예훼손
덕에
추가했다
##리던
소개한
##테
2100
사이즈
##인증을
더듬
奮
ㅋㅋㅋ
포인트
##orean
아델
##디스크
입장에
区
十
수시모집
NH
북미
장단
브랜드가
검토해
##라우드
##피크
부총리
##р
볶음
이모
불만이
어처구니
현존
##왜란
스킨십
호흡을
##계에
남양유업
기무
노하우와
어미
##ome
##연구
근황
감소할
의도를
세라믹
3월에는
금토
준다
뉴스
공개해
생산라인
##報
유체
한정
롯데제과
전년동기대비
김민우
함유량
문서
흉기를
대형주
사무장
##치며
천차만
전환에
예방하기
볼까
대응해
주사
旨
커리
##투자의
200만
통째로
증가와
금메달을
구축
수분
전기금
##사업과
진행할
학교가
부품업체
운하
학생들에게
구제역
설계사
입학금
정도에
##감의
##시절
##라리
자리잡
快
정책
진출
불발
가상현실
##소문
길로
왁스
달빛
이처럼
들면
갖게
김현정
##제약은
This
동포
진두지휘
💚
##끼리
강신
고된
注
네오
수목드라마
응답한
알겠습니다
이쪽
이유는
투자은행
레이첼
없어서
##less
높이고
동기대비
대표가
##호흡기증후군
복습
##ead
원장의
진단
창당
유가증권시장에서
경위
점막
트럼프
##제는
체벌
MMO
##ship
도로에
배수
쓴소리
##ま
초빙
하이엔드
빙그레
작품의
1954
塗
소피
금고
##교육청이
인척
물증
데일리
##uro
보탰
매표소
##세요
o
트랜스
##망의
경멸
##상에
관객
투자
위엄
뭉개
##스턴
##저장
##생활건강
기초생활
##피자
열병식
##ork
티나
다각
奉
그다
##바브웨
##보내
##🍳
要
대금
##cal
나영
관심도
호에
이서
기회를
흩
con
##대간
##이를
취임사
손등
맞아떨
확보에
출석
KLPGA
증가가
칠판
헌신
##구름
##터
##대사관
특집
하워드
과밀
반하
해제
사고가
람
color
어긋난
서훈
크기
##HC
안건을
체첸
그친다
##이나마
장소에서
##영향
##※
FTSE
브래드
바다를
고어
##전자
##서의
##00만원을
서연
##엔진
동공
##소매
藤
주민들에게
##고한
격렬
참혹
패해
##팠
##하르트
역사와
스위트
설거지
유산균
상견
184
아니었다
피부의
특례법
시켰
it
추진하는
등지
상장폐
진출이
이벤트와
경찰청
가하
##증후
예방을
뉴턴
부조리
##자격
앞으로는
##고도
##상의
시금
한국지엠
최씨는
디자인
증후군
##여건이
각별
주포
백제
##EE
괄목
##定
吾
##😎
달하는
##村
벌어질
리언
귿
중단됐다
세속
천리
##000만원에
부탁드린다
##거운
전파
샤라
詞
완벽히
##우러
같아
##부상
생활
가창력
##시디
##딩스
jukim
##멘토
댓글조작
좋다고
##작업에
손수
텟
마우
##ND
AMD
##푯
윙
##우면서
통일성
촉각을
상임
315
遡
차
조선
보좌관
들어가
##사히
선발된
결코
고수
스기
##웃음
머리
모라
선택제
자료사진
박인비
##했음에도
부담
실태를
안착
남쪽
대학에
포함되지
연다
9월부터
가디언
수준
한혜진
교육청
구조적
bec
TV를
뒹
수신
나가기로
로널드
Fe
염
표현했다
상품의
캠퍼스
호투
碩
메
바닷
##더드
럭
IBM
기념회
빠듯
##쫙
외침
평가했다
페이
과감한
자국민
##태영
우여
스마트팜
몸뚱이
씹는
신원
임금이
서울경찰청
노사정
총명
장관에
효과를
##테이너
BI
최대주주
성심
모았
카밀
줄었지만
개개인의
##례문
오거돈
##za
조감
빡빡
도착
전월보다
van
내려왔
##얼리
콘서트
##메이커
꾸준한
불릴
일겠다
적성
치유
설렘
훗날
버텨
진출에
공시지가
##흡
모스크바
황병
##DB
HM
등판
근거리
지디넷
##여야
지향
LG화학은
서바이벌
##ows
##자원공사
시민들에게
22일까지
우려감
夫
미국인
##cho
##트에
정도의
네트웍스
건드리
국회부
바란
##척이
##ones
##겹살
##셀
모바일게임
##도가
인준
##가연
힘이
걸으면
jjhyej
##상장
대안이
애플
##대사
조사됐다
매가
해외시장
##m
##쉴
바늘
##바브
눈매
진척
彫
대통합
개원
북한
##조림
대일
시대의
##그레
코소보
고리
법상
Fran
방편
여소
공무
공학부
헤게
세부적인
하도록
贈
小
결혼
간결
##뎐
중앙회
새벽부터
이정미
##처벌
##mu
##미에
공간은
이사회에서
3500
##설턴
순대
룡
실황
##옥
##ress
뛰어들었다
예고한
Dis
PK
하는데요
팝업
##82
롤모델
##문의
깊이
##하기도
발표와
이영호
아서
##다르
임대인
##궈
##제의
미래창조과학
제발
##다운
루즈
##모씨
##쑤
기획조정
어른
나와
##협약
못하도록
##루이스
불가능한
평가원
이런저런
OK
김태우
처참
##민주주의
현재
자연스러운
조짐
##쒀
자활
현대오일뱅크
梨
量
##보지
눈물
넘어갈
##하여
옷의
자금조달
##만한
KAIST
##분기에
##ts
아이오와
욘
##스티
##ニ
한국일보
역할은
바람이
호소하고
뷘
##韓
코트디
용액
부수
지켜야
도망친
명암
##연구원과
##장인
하나인
##기준법
12월에
동계올림픽
지적에
##게
블리자
협찬
##오던
칠리
멜
##게도
가상화폐
처리에
제강
복면가
굴뚝
매끄러운
Wh
##손해
초기부터
##타오
├
##😖
전유
보트
투심
웃긴
00
향긋
##스의
구분
신보
읽힌다
재보궐선거
MOU를
산업계
##어스
전략가
유령
경찰관
정리하고
박영수
Pl
문부
##uman
온라인
연구기관
울산
casinohong
확인해
스미
st
망각
##🐶
##정에
##점
지극히
##jin
巫
식기
노년층
조각상
##복합
′
위안
구급
몰아내
현기증
꼽히
마쓰
영주시
##dN
경쟁에
이틀
부위원장은
상처
상도
🤤
편의
##라이프
움직임에
즐거운
하동
치밀
윤치
부총리는
은평구
캐스터
앞으로도
시작해
땠
점이
시켜
사각형
木
백합
여하튼
7000
존재감
이례적으로
예상돼
야쿠
교제
##st
비례대표
중소기업청
##두면
암
##꺅
##사르
##회전
인품
지방
씨씨
백
전두환
넘어져
김새
고상
고스트
pjw
안재욱
행보를
KOR
전전긍긍
은행들이
세르비아
##갤러리
##제품
岸
신학
##군으로
도로는
연속골
엄연
내년도
입법
폐해
철광석
##炳
##거래소
670
건의안
##횃
233
페르시
레나
멤버
평민
##민을
唱
강정
사쿠라
##임에도
가지를
부진이
범주
3명은
##北
플로
舍
確
챙기
회동
도형
##였다고
5곳
펴냄
과제
ISA
특화
##문에
기업들도
변비
##스키
상기
1968
Asia
공구
트래
##벌리
##란도
삼성바이오로직스
보장
뭔지
인구는
벼
마곡
미성년
보도를
읽히
밋
##보호법
말았다
면이
##붐
##인공지능
위즈
탁
월화
친
문제에
##6일
거둬
##타당성
BBB
박찬호
관은
설도
조속
##은하
박한별
##oint
판단
신태용
##정을
선봉
현관
##ORPG
선보이며
토지
가격을
차지
과감하게
아내와
##수
스타인
##신저
부산물
##좌왕
창조경제
##도나도
지구력
마르크스
뜨거
Or
초콜릿
지워
제동
24일
민주당의
##xt
##랭이
기꺼이
##세탁
에쿠스
로페
##적이었다
##재단에
정할
미사
어깨를
내사
반반
유실
지배자
도입했다
신입사원
불러온
##요타
원장이
##체적
턱없이
我
##old
자바
##ICA
##갗
원비
승급
은하
받도록
##가공
탉
등반
스토커
됐던
법리
보였으며
태권
강화해
모하메드
혼인
산자
벨라루스
낭만
반등
무용수
##하자
붇
업종을
도서관
규정한
QR
휘발유
첼
혹한
평정
봉은
##ient
지적했습니다
🍓
모아야
허상천
##뎁
迎
돌연
기법
대변인이
##⑵
##公
용도
간혹
독단
인트
마무리했다
갈래
동아
盧
홈구장
지원하기로
##적십자
무역전쟁
##its
억달러
앞당겨
송출
보아
알펜시아
세계선수권
아시아축구연맹
육질
분명한
##시의
訓
奈
면
애정
훈
other
줄어
탈수
##폴리오
정치가
자료는
##풉
##뺀
부록
##쫑
##대표는
부름
림
##시트
##개혁
대표부
##봉을
대기업의
원내대표는
##시경
외국어
책임이
##겠
리포트
매출도
##보고
무에
##벅지
##도스
서브프라임
휘말리
공급량
##공학
##MA
Mob
보금자리
##축
510
후후
##와도
##hs
베이지
업종이
적합
방글라데시
묘비
눈빛
과징금
중견
사투리
조미료
음악을
효자
트라
도왔
석부
##펀
노영
도시를
1년이
##발레
못했
윷
##🎶
阿
##콘서트
지정을
실력
정했다
수익이
선보
문무
사표
환상
제품과
표결
가왕
교과목
##우의
비겁
외적
웰컴
취득세
새해
깟
##성으로
가능하다는
골목상권
조속한
##쎌
##요금
##판과
권리금
##뜰
누그러
확인하기
이상일
지원은
찾은
확대된다
나섰다
##휨
臨
소통
주둔
부지에
##ible
1개
지독
🌸
접수한
街
##무용
赤
이번에
비타
투구
양념
##바디
남아공
김관진
기본
최저임금
A
전도연
285
kyj
김용태
영업자
로니
지체
하거나
고법
지문
따라
倉
해진
마르셀
##컥
해졌
지역별
성과와
소리쳤
기막힌
뒤쫓
##왔지만
증강현실
돌려주
죄책
집합
귐
##욥
저건
유식
##촐
위하여
성균
##鎭
CJ대한통운
÷
##팀의
쌀쌀
결합된
##gram
##하되
체계적으로
비수기
한희
권
냉동
펍
사측이
도와준
이재훈
종금
해야
B씨는
歌
##업체의
해냈
127
연회
리비
이사장
독립군
비대칭
시장에서
넘기
避
케이크
##상업
##산역
지부
##익수
자동변속
뱀파이어
↔
화면을
경상북도
##산업단지
어떤
##온천
통용
##formation
사면
조병
낚시
갈림길
경제활동
길잡이
처음엔
eph
고하
##부품
굿모닝
등장해
가로
이르게
독립성
온라인게임
##AP
구금
화신
##거리를
무난
O2O
##폐기물
##́
19세
올해
간편결제
유부
명상
산삼
5일
돌려보
있겠지만
向
##폐기
완성차
19개
폴더블
구동
##ho
투여
희석
##꼭지
선정하고
배당을
보도자료를
교육부와
작아
##죤
민주노총은
왕십리
에티
스님
선수촌
'
##순
망서비스
##석진
##곯
바젤
꼼꼼히
외로움
##짜고
들인
잊혀진
일정으로
이동
투병
영등
선주자
보코
공정위는
㉡
쓸데없
껀
능선
눌
참가비
세계적인
##법인을
원목
아람
항시
##브라
여운
이베이
ER
204
정상화를
##특별
감축
우상
나타낸다
##랑카
흘러갔
피해자들이
##천면
탐라
주주가
일각에서
본교
##동민
##섦
확립
렌트
##톈
연령층
##발디
활용
홍명보
가계부채
피신
회선
차원의
기독교인
출연
요격
장흥
사인
쇼트트랙
기반
모범
##해
컨설턴
##전한
固
##나눔
##깨
포워드
##外
능률
사용자들이
##숲
호들갑
가능해졌다
본프레레
##정책
답변
##차드
투고
현저
##구멍
##용수
卯
##ittle
팀이
환경부가
작가
권위
창출하는
菌
서요
부러움
UEFA
교통카드
##多
##단체가
불편이
굴지
아웃소싱
서부텍사스
휴지
IT
교체를
배급사
갈까
통기
실루
가한
##업계는
저승
8배
물려
##지노
청송
CPI
사담
費
##닛
대상자
통신장비
차범
力
케빈
중도
박원
방침이다
6일까지
仁
｢
##반떼
오
불러야
민법
제한을
##식에
坡
실무자
##고생
고약
이후부터
방문단
브리지
아담
직원들은
무이자
상품과
터뜨렸
텐
전부
##일체
놓아주
##셨
##교육감
가난한
데이비스
오피니언
헌법재판소장
##받아
방식의
사무국
행사로
##악산
숭례문
중공
밀어붙이
의원회관에서
惱
강화된
##사업부
얽
##저만
아시안
##비용
성적표
갑
가중
튕
필요는
##활
바랄
43
SSM
훑
##비언
어쩌면
당분
##금은
##물질이
교육부의
천영준
##ffect
연구팀이
민족주의
##형은
만났
제방
미세한
상속인
부회
연합회
##서버
붕대
부메랑
구독자
통의
초조
경연
투구수
##투아니아
##켓
합체
의과대학
작업도
소식
다케시마
농도
과금
되었
디자인은
##000억원에
##제도가
도무지
명랑
유임
##펀드는
윰
##곬
1986
크라이
고객들을
피라미드
들어올리
구독
느려
동화책
보유하고
2인
김학의
붕
##틀을
##영진
부국장
##±
갈지
##현안
##유업
##으려
당청
##추가
둥지
싸움을
송일국
짧게
##싸움
##MHz
폭스바겐
##後
##삼
천안
볜
북미정상회담
폭발물
일변
전모
翁
살펴봤
생리대
##리트
National
##공무원
##제재
어린이날
##업의
유방암
하나은행
##챈
1차
##호는
스필
이재우
텡
Cap
노동시간
모함
##껀
이름으로
##・
이유를
##상공회의소
위원단
북쪽
##멘텀
에센스
##대인
시네마
##저스
##부로
구하는
대법원
##사령부
음악가
생쥐
참외
##유출
어항
##시의회
양해각서
11번
峴
헤어나
뀔
百
미니앨범
허둥
노폐물
##동은
음의
구조대
##령을
실패를
사탕
경제협력개발
조사하는
ag
활동가
경각심
태생
부드럽게
시그
했어도
확충
정년
외양
이곳에
중장기적으로
주역
성품
공여
ㄴ
##볜
코미디언
엔터테인먼트
영덕
때문이라고
애리조
켤
신기
27
방식은
선구자
바다에
기술주
메커
에비
신협
경찰에
江
가치는
##을거리
##н
달린
전라북도
제품이
정부에서
오래된
##옵션
투자자는
##변이
맞이해
살인마
보건소
젊은
공산품
윤창중
曉
관측도
최
였음에도
시간대
##LE
격투
파운드
메이
사랑방
가량이
불균
##nc
##생산
관람객들이
할려고
##엮
##뮤니
9일까지
노정
분당선
⑵
속공
교수로
##선미
라선
방제
##신문이
불씨
면세점
종용
##도의
논술
플러
문구
희극
##절한
비화
석양
모니터
위문
이승기
초능력
##읏
##익스피어
BM
##alt
##에도
대중
대마도
##억원
위주로
里
5조
공사에
##바야
애니메이션
함선
헌재
배리
빗방울이
인식
브라이언트
讀
설경구
##매도
온다는
##슉
##지법
정평
발을
설명이
민노
##뻘
GO
깨알
##드와
##씨를
말씀
열린다
라스
##illion
##카데미
이하로
남도
##자니아
본상
##탈
매년
하나같이
오크
화끈
본다고
김제동
유승호
모리스
정유미
샘
프로듀사
트레이드
현실이다
daero
라도
##GM
순발력
뉴햄프셔
##인다는
秉
열렸
총체
만지작
##수산
##㎥
택한
넣고
성매매
서울반도체
만인
태안군
공헌
1988
##코리아가
리더십을
유가증권
국지
사슬
에피소드
VIP
퇴직연금
##켈
후에
쳉
놀
##으며
##1년
##구장
크리스천
맺은
구름이
##총사
서초구
세계경제
교학
Ch
박창
##당은
또래
199
##회사는
티아라
액션
##일이
산화
추진해야
지금까지
렌탈
rec
##으로
학교를
mcc
##하려면
갓
멍
##케이션
들려줬
빛의
##미남
劇
蕃
고분
생선
가네
##뮤직
베
##이라고
특조위
뒤따라
긋
마호
##답게
마르티
오차
계란
붙인다
문화가
받던
기재부는
##uk
FI
쳣
M
##윱
실종
놓쳐
방지하기
##개사
노컷
애널
자유한국당은
不
우즈
초콜
##貞
廊
과도한
건조기
타자
지시했다
정상적으로
평양에서
박한
금융회사의
##敎
##람
돌입
##생을
참가국
##다수
쩜
유류
신문사
장관의
도입하는
##歌
체험관
예정대로
소녀상
생겨났
##바스
조나단
##안에
현은
##테일
229
바흐
행동
창녕
##후보
1운동
다해야
미안
주문이
##죵
##bell
7년
삼국유사
완비
지나치게
##FA
알고
##자유
800만
覽
연극제
##건이
독주
##올랐
ky
##사
##정보원
애타
##⠀⠀⠀⠀
관심과
의인
게다
버냉키
박해진
신고를
##았다는
정보통신부
유일하게
공예품
형성
수잔
짊어지
##딕
##면과
광주은행
##니저
##낚
못지
裁
성분을
고함
평가사
더한
상황실
##서비스는
살아왔
##食
##ᄀ
서울고법
훼
##됏
불린다
##근영
강조
인구가
##알
##려
##본부장은
##방지법
GK
承
본받
긍정적
친박
##인프라
길은
다녔
붙잡힌
매몰
맡기
하락을
인물
구입할
혼동
실질적인
근거가
심상정
청와대가
근육
요한
내줬
박정현
##지원과
부과된다
자며
선정할
##씩
역사적
사고를
어쨌
요게
일부러
##69
비행장
##품
제니
방아
굴착
##빴
다가갔
##ival
Jos
대표도
트릭
##국제
인민공화국
대장군
뒷받침
벽을
생겼
지향하는
독자
해외에
##망은
후보자가
요셉
대리인
부딪혔
추천주
##배상
기적
##수록
##공예
탄생
속옷
쓸데없이
켰
회사에
썅
화환
애호가
농협은행
##경에
탬
전술
장재
불러일으켰
##가슴
황소
모았다
현상이
##akao
유익
뒷돈
왕족
업데이트
원피스
壇
##아찌
##15일
헨
뮤지컬
##누리
수송
CNN
특유의
교육부가
마이스
수혜를
정대현
주가
KI
남인
배회
갔었
작업장
岡
소상공인
##박
상승할
알코
reserv
##듄
##떡
##쿠스틱
목동
최근의
오픈소스
전환한
리오넬
4종
구도
견본주택
골몰
중앙지법
논의
선정
련
고유
통영시
장기간
약정
유권
분대
형제
산모
##청정
##식스
잿빛
뮐러
금메달
나돌
혹
전법
데몬
##많은
##ac
##겨울
##팀을
자기
5만원
조성에
##로로
정치
##기관에서
GT
대나무
지켜봐야
Sum
나만의
##각색
예술
2명을
흐른다
수니
치명적
EF
지금도
##설명회를
취임한
氷
득의
##라의
##문제가
감소했고
책임감
##섬
자매
역관
##업체들의
직접적으로
약속한
주민들은
있도록
거슬러
윔블
구속영장이
이용자
##상위
짭짤
늦출
조사한
제작자
클리
관할
타원
시월
해준다
##구역
강물
官
경구
##처가
손실
산림
##불명
##뭉
연화
테크
집들이
6조
담뱃
할인율
기정사실
영업이익은
##프로
##단지가
등에서도
댜오위다오
고등어
않고도
##홀에서
콘돔
담긴
상은
명문대
출구
애절
시간에
머물렀
철수
군청
제자
##제다
곳
선주
##학부
##흄
Fri
여성과
김재현
매니어
롯데캐슬
지난해에는
##슐리
파인
제2차
프랑스
矢
##박한
나가는
17일
오염
##athy
북촌
바탕
##m로
네오위즈
아홉
##슨은
##개특위
끌
##안전
드론
뒷걸음
##바람이
캠페인은
##인지
마무리할
병원에서
기념
조명휘
근로복지공단
아르메니아
##하라고
나호용
공업
가족을
염색
##비스
삼성동
전단지
##촵
의약
9000
정민
정성껏
불리며
도르
이완구
타쿠
티어
다량
🎁
남향
참여가
매케인
돌격
나이
다가와
그다음에
컬링
##해달라
일제히
받아들
공급하고
두피
##테마
9시
고용을
하프
✨
갈렸
직선
순차적으로
사스
##건조
공신
혼성
컨센서스
##신보
낌
호크
봐요
마음에
특징이다
##지구는
재산
✔
遺
##쉼
웹
내리지
녹취
##택
이권
이튿날
사설
먹혀
초이스
##말
예비창업
각선미
##멀
##라이즈
耳
김명수
핸드
끝이
등극
궤
분석하고
융복합
##땐
명왕
##😄
검출
테이크
거려
動
敏
판단한
활황
택시를
키움
좃
플래
##차단
웨이트
##오르
##뭍
출원
보태
조건부
비버
취
지론
sd
크로스
##•
체류자
##만장
陣
복지
김춘
경우에
과정의
산본
예정일
인플
다급
막중
삼보
출품작
IOC
산시
##문과
입장객
안면
쫒
##ange
확성기
##enz
##are
##承
##스퍼
○○○
스타벅스
욤
결정으로
따질
##앙
개발사업
요런
소이다
수준의
신천
인지도를
과태
TB
##협의회를
##씨름
##룰
중력
퓸
챠
액자
##ｔ
세우
의혹에
매수비율
솔루션을
##에듀
스마트시티
떨쳤
판단이
##테이
주체
케미
##넌트
통하
##헵
##펏
홍문종
##콧
금리를
광동
올랑드
마중
권장
##자락
북측
의상
ㅜㅜㅜ
##렉스
신고
아파트로
인생의
뜨거워
##네시
김범수
부상을
부담해야
시켰으며
해부
외교통상부
선의
호텔
잘생긴
음색
비용과
선보이고
임병
460

##고추
松
없으며
비급
비율
🐽
자유당
팩스
어르신
속도를
고령
진에
중고
38
##️
입영
네이마르
아주대
영유권
##병을
##light
그래프
낮고
##이라든지
아이들이
박탈감
##선언
##대문
마련돼
두자
콜린
1951
무시
錢
내용이다
7800
벌였
큘
백만
##텐츠
##에프
##나절
접수하면
막국수
##㎝
내비쳤
천문학자
##제국
거래소
문구를
장동건
알려졌습니다
##시스템과
친인척
##퐝
열강
계속해서
##봤습니다
의리
##래드
자카르타
기를
얻지
앰
1998년
인식이
밀러
##롭다
군수는
다뤘
배어
숏
개교
쐐기
제과
도교육청은
도덕적
가야지
喆
;
미스터
풀뿌리
바꿔
스타일을
장갑차
해줘
하나는
鳴
경찰은
산간
제도다
승부차기
앙금
레슬링
변화에
다음
습니까
서포터즈
7월에
에디슨
문창
글귀
불우
##시는
##그룹이
컴
##층
##펠드
남포
목돈
가져옴
현미경
옹기
감도
나타낸
기말
KC
자족
보리스
##좐
愛
미끼
사진
🙂
국익
##할인
弗
##하느라
##엔지니어링
##na
단지는
##기스
필요하다
티셔츠
1조원
경정
변증
질량
##먼드
##스토랑
차마
암벽
##野
개정으로
인근의
간격
뚝뚝
가량을
삘
못한다고
로빈
논설
조직문화
우연
돌려서
lgh
셴
말렸
유다
최고위원은
량의
드롭
수용
낙점
남다르
베어스
생활비
부담을
고치
앞뒤
가져와
챔
떨어진다는
8조
##겅
괄
##제도를
노스캐롤라이나
주리
바트
송선
조석
걸음
노상
권위자
휜
##\
본다는
라이터
##함을
팠
##인으로
부사장은
닥친
##➡
##주신
게르만
소행
##채무
묶음
일교차
이뤄진다
자카
##다면
특별수사
구타
지긋
##ions
숨졌다
##틸렌
진행자
건의
드러냈
##ws
지방선거에서
大
선명한
부침
사항이
##한다는
포철
결정적
애를
려는
##넜
최면
우스꽝
완파
##평가
력도
##극장에서
방위
기상대
걷어
순유입
특종
고용부
짼
선정하는
나운
국내외
##류
거둘
과실
여부와
##🙊
음식은
전망했다
##외선
51
서경
키스
##점이다
##다이오
뻥
벌어지고
접속해
김두현
##IN
등원
##영역
스터
##동으로
##의학과
끊기
DI
평가다
輪
탄산
퀭
cont
鎔
##엔지니어
전하고
##개로
유입
##카운
통제
당한
POP
확보를
찍혀
위대
분포
焉
날카롭
가속도
재결합
##소장
FIFA
두꺼운
서울고
##하모닉
물품
회의록
수아
4∼
경험자
아세요
로버트
엔지니어링
ATM
問
그랑프리
다자
탁월한
파급
##조직을
##프리
벌집
준비돼
상임위
쓸모
이한
모서리
요기
시바
pp
명태
##팅을
여기저
아이튠
끼친
주민들의
1을
방사선
실제로는
type
##밤
뿌려
서툴
평양
an
維
##고리
##로서
볕
##忠
어린
롤러
서포트
12개월
베이비
YHAP
나아갈
검정
##신청
##프레
浜
틈틈
##딪
##OR
황금
##덩이
렛
##킨
광해군
잇
서비스로
##lim
시각
17일까지
위조
##팬지
필요하다는
개최된
##pyright
##벌
강해졌
구획
내렸다
##쑈
##TV
##벗
AI를
팝
오후에는
##병우
연필
갈의
HDD
목청
리튬
인친
브루클린
요양
내용이
육류
가산
斗
방점
아머
懿
##시켰다
팟캐스트
청년층
태풍이
끝
##Q
레이건
법원
추자
한국해양
도의회
##수수색
감리
법학
대표직
프로모션을
너비
사용하면
재임
찾아낼
여과
포구
jinxi
駿
버라이어티
탈출
나르
카네기
인공
##호텔에서
구성되어
El
비아냥
##교대
토토
원금
보이며
감당
개최한
지나쳐
결승골
포장마차
##기간에
자치단체
##목
제품은
over
고등부
내용물
곤혹
구리
매도우
우려된다
일족
냈다
여성의
독서
##ju
##위기
꿈꾸는
##굣
구성해
##끄
難
재판매
##리스토
마구잡이
😌
시범사업을
##orn
&
##틸
줄였
헬리콥터
오프닝
밟
##잊
까진
旅
일체
품평
상팔자
##지역인
행복한
고검장
9만
피스
##숨에
이루어져야
바벨
준법
##화장
위험이
##ly
보여줄
##튿
우르르
😍
상무는
공무원이
수라
宇
심리
여성들은
미사일
마을버스
사용이
비열한
##행사가
엑스포
장어
##우로
송지효
밀수
김정남
##루기
가서
##맏
혁신성장
영화제
조치가
버즈
##뤄
선천
분위
249
퇴역
이용
斌
##ife
대니얼
마취
윤석열
최경환
여권
씨스타
여력이
옥스포드
2010년
##세라
##얄
##지침
벤자
개정
##국은
콥
잌
걸렸다
중론
홈플러스
프로그램과
유유
관절
##닙
##게임즈는
타이밍
sw
환하
권력자
득세
조규
##세스
피해자의
強
법인을
미모
##료가
스튜
최우수상
몸무게
까치
##했다고
페넌트레이스
정상이
##하면서
꽃
법인이
##tr
때려냈
綾
부로
일방적으로
허덕
마감
찾아와
된다고
뭉쳐
지지층
##으로써
굴
表
미달
최적화된
반대로
드려요
렬
진열
쓰러져
##문화재
분발
애인
획기적으로
##펌
주실
하원
루카
8400
##어가는
화웨이
2014년부터
전략과
세이프
쓰일
하드
뿐만
영양소
석
반덤핑
기압
##구미
풍문
되길
##묵
내구
속편
:
급식비
많이
##민은
쏠
날렸
남작
인하대
young
클라우드
중얼
인정받은
스트레이트
제작을
자음
##이슬
Z
시급
포상금
불허
발표했습니다
al
추천한
##범죄수사
한테서
경북
패권
튀겨
##훗
빼돌
##곪
##랐다
내세우
서인
##발전
화
창덕
일축했다
수레
##감도
이양
묶어
##통법
##트론
고음
##신문은
##제를
45
##³
헌팅
물은
기자입니다
🍴
허공
활동을
정상은
미래창조과학부
김한길
##상도
부국
ᄃ
보안
##펍
눈부
BBK
鐵
樞
추세
석좌
보고
김완
##난영
가결
이해관계
알지
호스피스
대우자동차
해했
라이벌
헌납
부응
Copyright
越
오래
식품의약품
거론되는
터프
사토
갭
태의
##갈색
씨가
최소화하기
##모르
궁합
##벧
##발을
##흙
##납
시게
스마트워치
##점유
약점
토스
일부를
##고와
##만7천
실점
상정
패기
최초로
폐단
나쁘지
##영화
보부
〕
##보냈
##린치
힘차
생명보험
물러
이용해
媛
화웨이는
자화
오재
##과세
눈의
인천시는
##구단
베드
##有
결여
투
저작권자
두어
양현
성역
ㆍ기
프로이센
옴
##넹
사람도
트러블
##린내
끓이
건강하게
목소리도
경제학과
베르
정치력
周
지식과
천천히
만석
대비해
訊
##활성
나눈다
교통량
##lor
퍼포먼스
##굼
더그
거기에
숨졌
범의
##고장
데려오
방산
빌려서
김용덕
수출이
밤
전도사
입장을
발원
필드
10일까지
스토리를
동향
##연맹
한정판
완패
席
고소득
성립
신명
##구제
은데요
##팔
진짜
성급
가상
224
##방아
오심
결국
하방
아니다
##적이다
㈎
최태원
##약자
##조작
방글라
Windows
##드럽
건전한
세탁
PER
##iter
의향서
洑
##실을
개혁을
##밴드
##松
기획재정부
##로그램
판가
미니홈
대법원의
기회로
코파
岳
##동조합
특성에
##제비
ABC
광학
##피는
케이지
김정주
돌려보내
오니
후보자를
해사
투자자를
김태영
지표가
##버거
##뇨
거버넌
##씨티
윤승
토토가
##꾸미
##되
부하
с
아무래도
공세
오스트레일리아
증가
피어나
이사회는
67
지나가는
돌아가
省
정성훈
산양
조성된다
작업은
##바탕
죽음을
帥
요즈음
##US
##나다
과일
여건
타나
결정했다고
##в
전공
하려면
박대로
대양
##주교
려던
암호화
불감증
느냐는
찻잔
##부츠
불응
##情
고객에
pro
##플레이어
파트너십
대의
무명
두산인프라코어
납
통나무
충청북도
##서를
코픽
원예
연구원은
어
출발했다
중저
쿨타임
장맛
##이라
찾아보기
남양유
종전
극장
시스템의
##벌이
반말
##달록
연애
졸
지역사회
가득
법에
창고
##나
드러난다
무브
황정음
다가
교훈
방역
여호와
문근영
주춤
세계무역기구
대행업체
청소년들의
序
지니
평창군
##性
##찼
##영미
전광
##울
##투자가
##촹
청와대는
여왕
기자들이
##캠퍼
알려지지
##라톤
사직
유착
브렌
허가
Vo
젝
때려
톈
회생
佳
방지
航
일병
그리드
구걸
壽
이봉
무르익
혼외
팽배
##네트
김정민
익혀
이븐파
생산에
위아래
##13
이외에
##았다고
주관사
##워터
定
브리
성찰
힐러
야말로
나간다
##곤
입점
최홍만
수니파
변의
##NP
##클라우드
##구
선보인다
신청을
2일
개정해
협치
달랐다
안종범
에어컨
1925
발인
돝
##싶
172
程
노키아
비서실장
##lear
빔
강수윤
영성
취향에
##프로골프
망치
예의
##nd
악장
시상
##스티벌
눈시
차기
어마
놨다
은근히
##억원에
생김
증언
안타
국내에서도
윗사람
김찬
강연
OE
엄지
그렇다
기록할
세컨드
##알라
司
##셔
재테크
##秀
р
냉랭
##ology
바빴
Im
깨물
낮출
여러
리메이크
##행정
##수염
이내의
모색
물려주
못하면
공병
波
나선다고
올바른
의지를
중인
U
##소통
주택
건성
조차
얼굴에
##갠
자취
##슨
Ver
씌우
압도
정병
##웅
보톡스
##급으로
인터넷판
##dh
레고
외삼촌
경력
##보험은
##lish
특산
연대기
니만큼
療
##인삼공사
욕
##3000억원
飯
최근엔
##erson
西
참여연대
지탄
등번호
영빈
준비생
공략에
납득
##등록금
##틑
중동호흡기증후군
앨
##분야의
포기
##컨대
미칠
국민은행
모태
##국대
channa
미쓰
구제
그가
오늘부터
동안
##레이디
푸른색
의한
효과에
격차
평소에
이너
성공적인
폼페이
걸세
하키
106
넙
의성
부세
탈당
횐
시작될
잠재력을
계곡
절차가
24일부터
##솔루션
##리기도
텐센트
##담
사실을
##금융지주
소득주도
갈라
문예
##금
대행
연타석
세이버
##ope
윈도
치어리더
##다이오드
##대회를
포유
맡
##g
광명시
미야자키
##창조
번이
견제
어버이날
넘겨졌
300여
박종
구리시
매연
좌석
스포일러
모양으로
아무개
細
비교적
내지
##㎉
185
적자
자치도
구스
금방
감독을
여행사
나라에서
아이언맨
##영은
##마땅
유별
간첩
위치한
##솨
보따리
개인기
語
영입
학교의
부른다
시오
골다공증
鈴
행위는
##피부
탕
나날이
돕는
볼드
인천공항
재판관
강림
刻
격한
접했
##그러들
해결해야
Techn
캐릭터의
헤헤
해서인지
##콜
##ub
울릉
##95
##어져
자로
도색
비철
##쩐
구자철
하에
초교
추진한
브람
##쁜
4분
점인
利
##태우
이덕
##을지도
동독
違
떨쳐
가브리
##쉿
처의
지수선물
##♥
지상
이사의
그지
맺
타고
체코
대로
CBT
討
##공개
랭킹
지하수
이효
않다는
코너
군자
훔친
음식이
말뚝
써니
산둥
커브
둑
당나귀
덮인
##포조선
##곡을
해태
##총장
인터
들어오
내비쳤다
의원들
##與
독점
정책으로
십만
북남
##원에
아쉬움을
기운
무형문화재
각양각색
251
개조
시는
##터슨
힘든데
이르기까지
미치
營
수갑
##소는
발생할
자진
##과정에
##별
시킬
맛집
볼리
눴
동떨어진
분양가상한
##지만
정체
소멸
棒
갖췄
庾
신지
시험을
원인이
##빰
##S
소용돌이
##es
출근길
둘러싸
裕
일으켰다
습니다
덧붙이
질문에
##파니
##인인
은닉
의도
여건을
한국노총
##난을
##돌이
매수세
컬러
닉네임
어때요
##억원의
정혜
스위스
폐기
##보증금
부담하는
콩나물
##교
##선택
영국의
옥스퍼드
심리학
아니라고
3주
자물
사립학교
증인으로
건네
청렴
들어와서
처리
캠벨
벗어난
도라지
타우
반열
추모식
벌금형
평창동계올림픽
대졸
BOJ
1대
자청
##ever
재추진
Miss
Drama
고맙
할지
##꾀
팔리는
##지역에서
흥분
포르쉐
극소수
##왑
##억달러로
##所
너스
하는
없었던
홈런포
광산
리우데자네이루
##제스
##상정
##기본
비공개로
블러드
다니는
정책이
홍진영
앞바다에서
뿐
##gh
벧
마해영
머슴
소외계층
경기도와
##욘
쫓겨
##8억
공정거래위
자금은
蹟
##ick
몸소
IPTV
균등
세계적
級
와트
영희
오늘도
##억8
##핵
트래픽
국무부
마르
##이지를
장기적으로
Mic
미국과
##이었다고
노니
불리는
상승했고
리본
여사
##책으로
총영사
부
타운
사로
석유
귀국
권태
##선박
제치고
늘어나
q
언젠
예산처
기관지
흣
뿅
걸림돌
선택한
능이
주안
권한을
h
##편에
##테나
순찰
합의한
업로드
창이
얕
농협중앙회
리의
금감원의
최고인민
살충
물려받
입어
##평가는
제작
##업계에서
학술지
코카콜라
짬뽕
##퍼런스
##者
신통
##▶
영장전담
솟구
기관투자가
정도면
피부색
1m
목포시
싶습니다
이식
〰
달라질
숍
기해
032
실소
삶
통합
반영한
탐방
##흐로
흐름
대타협
재개
신인
장단점
농기계
##기업들의
이슬람교도
내야수
목표주가
팬오션
직업
궁의
잦아
뭡
방향과
win
귀여워
##클로
달한다
리버풀
즈음에
마감했다
작과
범행을
팝콘
1997년
프로토콜
##럼비아
걷어차
혈중
한경
격돌
빙글
이사
넘보
자갈
G7
##뚜기
읍면동
##철도
대법원장
비전
최진
하우
통째
인수가
사용되고
桐
##교육지원
헤어진
최소
제시할
##점과
##환경연구원
국제축구연맹
6년
단호히
길이가
상처가
쓰이는
명언
##스트
🌷
교통망
화순
##급을
##당했다
유카
다빈
##대우
##특별자치
隨
##꽥
지급액
방안과
원소
로이드
##홈런
껑
7조
웍
여대
시작돼
##실장은
1948
이윽
근로자가
감춘
규정하고
견디
지자체와
##종을
##형사
전해졌다
##머스
느낀다
출격
복선
##PE
들으
마찬가지다
차의
펼칠
##함으로
스마일
언
빕
##피소드
저질
##점인
##실천
피하기
##H
워드
반발
행해
봉인
정치연합
##피스
신설하고
桓
소셜커머스
##땠
倍
친정
씨엔
전광판
##요미
니스
승강
애써
카운티
감행
중성
반포동
##무대
렁
휴전
대장암
강창
폽
황국
##부
투자금
크로아티아
집안
##롭게
나이스
부경대
lst
급파
테스
탓이다
흔들
##포인트를
##추위
##부랴
커뮤니티
##준의
설립했다
움직이고
##자문
홀리
현금으로
젊은이
올린다
것보다
weight
최저가
기다려
Big
稷
B형
24
올리버
##eg
이견을
감상
흉
숨져
jg
120
다짜고짜
아슬아슬
##jun
점원
good
##웨더
세일즈
譜
연기자
##교통
民
자인
손톱
실무진
왕자의
리우
청와대에
공작
바이저
邵
##2명
경미
16일
Rep
가운
##변을
이종현
변함없이
기침
네이트
우리는
##련
가벼
빅토르
길거리
##놀이를
바티칸
##백을
겉모습
선처
신상품
묫
사랑의
송광
가칭
은총
마신다
##BM
업계에서는
信
나선다
##췐
일어났
내재
드러날
선조
작용했다
아니에요
관련
##앨
안식
농수산
쪽지
인플레이션
종족
누운
프로그램이다
##인공
발대
블루베리
##로를
중복
배신자
전시회
Med
##치면
##조차
에쓰
뜻대로
폭포
드가
##inal
만취
감사관
수위를
##낯
##루프
만유
회장에게
구성원
##석희
##상
용병
느낌이
보시는
##겝
옮겨졌
##안군
우와
아이는
Re
##축제가
##국수
코리
SC
결과와
20만
##우드
질의
페인
##팟
공평
드셔
떠들
직전에
에게
무제한
##작전
과표
인격
##AA
신현
PSV
뛰
프랑크푸르트
기자
앞바다
##타자
콘텐츠를
나누어
##estival
##컴
원도심
압박을
##지기
##운동연합
LG전
교화
고강도
##캘
##녁
비급여
과속
35
##주의자
##문제를
##☞
유학생
기억을
##파의
##늄
용맹
##녜
두드려
삐걱
주지사
청해
##古
사라지는
읏
래퍼
##되던
상상
이웃
##갰
블라디
車
멉
이만
순식
동전
특약
CES
안장
##켰다
kyustar
고객사
불은
求
##지휘
##럼
##측
읽는
이성
바로크
연출자
##스코
사용자
나흘
비전과
제어할
국가보훈
무기
중시하는
코리아
610
에스파냐
프리큐어
지기
행이
##톨릭
수건
파타
노르
덧붙였습니다
하스
호텔신라
##스템
미드필
가해자
무참
우은식
쿳
스스
##잡
해석
##클래
찰떡
큰일
심각하게
##극장
기쁨
깨우
늘어날
창의적인
상한
청사
후문
분출
못했다
소재
원에
##믹스
상트
제7
심이
대표에게
홈페이지와
알자
##oup
성동
봉
쫄
배고
##서니
문제와
넵
##백
장제
알록
그럴
gr
시사점
자연과
직항
섹
방부
듸
늘려
도르트문트
App
독특
##시장
7900
다양
지주
##쓰
의결
IMF
라즈
세일즈맨
비밀리에
뉩
##들이는
매복
##특허
자리잡고
타차
임하
업무협약을
오버
이곳저곳
뉼
##산에
순화
포함하고
##특구
조절
##셔야
형평성
혹독
##장학재단
##주식
##쇼
백두대간
이재준
순교
쭐
피난처
황해
승전
떠내려
따뜻하게
중부지방
##現
부르주
별다른
갤러리
##뢸
손상을
풀어놓
향하
전투를
##인들은
論
##하셨
숙의
교육장
1902
방광
about
대혁명
분투
소위
재정적
##가방
련의
##묘
254
인재를
181
페르
부추
매우
인에
직권상정
보도입니다
사고의
병무청
표준
임차인
평행
て
출시하는
전문가로
자그마
갬
미관
삼성물산
시달려
안드
충족
루가
##러그
전량
##ional
출시와
함몰
과제가
530
##바나
슬픈
갖추게
과수원
민변
##ous
소유자
몸짓
오상
뮤
가신
##형으로
방어선
##설립
있다며
그네
달리고
풍산
분통
취업자
부문장
##꿀
줘서
서빙
이리하여
집시
강남
##로의
좌익수
A씨는
발견돼
성장성
위치하고
b
##조인스
아이온
시킵니다
##팡이
레비
##르륵
악역
이야말로
회사인
심해질
어제보다
기막
수문
는데요
월드컵
득점
##덟
로펌
앞부분
뛰어드
##인도
##뒤
고국
##공자
##브랜드
##튠
뭘
데도
법의
##치노
나이트
일본에서
KIA
어처구니없
씌
거였
須
##석기
OO
실시간으로
판단했다
전달하는
지키고
장면
구두
세븐
안철수
재빨리
##통일
빈혈
물결은
##복무
개발하는
##발전연구원
군사력
別
破
설정액
장기적인
서슴
믿음
학생이
權
완공
##지겁
##스탄
윗선
]
어울려
채동욱
발코니
그제야
애환
##10일
손학규
갑자기
다우
##물질
700여
##결산
선택하면
좋게
자구
##중인
동대문
어처
세브란스
토록
지은
##표가
5000억원
##“
경대
커서
임시
전시실
筒
쑥스
날을
said
前
뛰어가
보궐
극진
쳥
산업을
##raph
##업무를
애정운
수술이
의사의
##먹는
전반적으로
걸러
찰스
화소
아니
암시
직원이
프랑
4월까지
돈
##중기
박재범
스가
##준호
언론을
물가
성장기
혓
##펙
입구에
젬
치닫
매서운
停
가전제품
##상부
햇빛
##액은
物
##oul
개성공단
##읜
쿤
이용하고
백남준
과정이
지켜볼
퀸
이겨낼
##원에서
농림수산식품부
대륙
화면에
규의
##긴
국적
##산과
키친
도사리
##째로
해저
켐
갑상
##근로
시작하면서
내놔
용기를
패배
이이
浙
적용할
화목
##생물
공급과
##환급
괴롭힘
억울
##버터
위기
맞춘
세나
원재료
##코리아
국유
오아시스
뉴저
##큘
##자동차가
기종
즉흥
JS
양사
접어
##정밀
무분별
정도로
고향
판독
수백
천정배
거론되고
미쓰비시
##劉
模
퇴행성
Park
김영우
은신
##하였으며
##티
섶
비판도
백운
##연휴
대표
My
성현
속하
##메이트
슬로바키아
논거
규
서핑
##릅니다
잡혔
현금
그거
##보훈
라면서
##빔
자마자
됐으며
##표를
친분
회사에서
초반
##尹
싹
##내믹
여가
교외
이겼
한국군
##꿨
1922
아우구
##은희
야자
도움이
스타덤
급자
추징금
프리미어리그
##먹이
##아메리카
헤비
청바지
마
산전
간병
교육의
요하
##왤
발이
주한미
논의는
문제가
중단한
놉
유리창
심부름
배짱
온의
또다시
5100
염경
김연아
그래픽
##아닌
알려졌다
민박
노역
우려와
나왔
비참
순진
행성
스마트폰
개최하는
##EG
피안타
돌아선
꼽혔다
지방자치
20세기
카스트로
적자를
제품도
번째다
쏟아냈다
아기
니라
##렸던
국어
꾸
손익
신동아
한우
천억
팩
##면을
구성한
정씨는
쓰기
뉴미디어
##받았다
##hin
코미디
들어갔다
##TO
읜
식중독
##톱
조커
##델라
양방향
##캐
블러
막부
편도
대검찰청
고혈압
중단
red
ㅎ
##바라크
##ale
##씨의
한데요
올라섰다
屋
노동법
임플란트
제주도에
##워진
卑
1일부터
##삥
##액도
모습도
멤버들
꾸며진다
때리
데에는
잘려
##찜
##역
히라
##통상
##르면서
숫자
##세자
짧
작은
성유리
등기부
난방
밀란
영감을
우전
박이
##더기
114
와이파이
사이비
무정부
잡티
자손
럿
盛
지점에
##마케팅
대통령직
압구
어렵다
탄핵
정말로
##펀드
벌써부터
정준하
웹툰
뜨거운
가져다
손색
≪
엄연히
시스루
##인드
시중에
우량
두드러지
##겠죠
pj
동그란
이승호
등용
開
김신
금감원은
원청
이코
명당
해병
WP
햄
추리
펼쳐져
하하하
##원과
鹽
향해
규정
가능하며
투입되는
깃
졸라
가꿔
스티븐스
대파
4월부터
##月
단양
##민주화
시적
란
백인
##펙트
옥스
단연
손아귀
떠났
아이템을
목성
것
성욕
##뮤
불상사
##비
실무
😃
운운
複
영업시간
법안은
##oci
장신구
사라
소비자를
##에서만
중국
러블
26
명예를
분리해
셰일
기본으로
##태
곰팡
광대
홍석
##outh
##축구협회
부작용이
현대전
##숍
##수요가
두각을
##틸리티
10일
##이노베이션
중식
보병
의료인
비둘기
들어갔
역할과
고성
남동쪽
선수가
여러가지
규모도
숴
피력
##폭력
13년
##노동자
##수아
문관
챵
##리포니아
떠났다
##사단
도대
##^
상하이
신안
받지
자녀
요청이
유희열
##소수
외도
혁신과
oh
러스
충격을
의왕시
공모가
슬
##EV
되는데
##가의
공간에
시스코
##치사
흘리
##건축
여학생
위세
현실적인
가진
칫솔
제청
김혜
무위
sim
이곳에서
##속기
금연
##시설을
##水
##쾅
이용자는
빈티지
과부
수렴
집행
139
산티아
비슷하거나
姑
퉁
Sec
스리
반가
智
병원의
##」
루시
별도의
디에고
술탄
있었으며
집적
브랜드인
직권남용
극대화
사람들을
대책위
문화를
000원
포드
신체
탑재된
파인애플
園
스타트
사업주
골문
##차이나
##《
구울
갖는다
멋진
##성의
##화한
이형택
시상식에서
구간은
##──
로렌스
강당
而
해리
제회
##♠
공연히
##가락
한국과학기술원
june
##늙
##명에게
호기심
유플러스
코믹
##내린
규모가
스트라이
##물질을
드라
모나코
貴
식사를
입장입니다
앙드레
곳곳에
##공원이
##하우스는
##art
증거인
후기
자연을
원자재
면목
가우
두뇌
간디
하루
##對
유인
무소
칠레
국내에서는
##저널
만드
비상사태
증가율이
체육관
##고등
이로
전담
201
장려
멋지
丞
공판
아드보
##후생
직전
東
기라
장타력
오솔
순응
원내
흔쾌히
우선순
①
지킴
##😭
##가입
최종일
인정하지
불펜
리모컨
##샤오
막기
만들어내는
##돈나
그때그때
하다
사그라
耐
서적
옆집
벗겨
사천
해명했다
브라이언
교두보
가족들은
승려
닉스
잡고
경쟁사
##껏
##🧡
유토피아
섹스
군부대
흑백
골다
감정을
##튤
##념을
6300
준용
스토리텔
##력의
앞머리
많았다
위원장은
캐롤
산티아고
구원파
프랑스인
연면적
##ana
재앙
이펙트
추석
남녀노소
셥
##실베이
광안
##열차
관절염
맞습니다
관계자에
##큭
나름
예금자
##☕
갑오
폭풍우
캐치
넘겨졌다
메타
남학생
##도
종반
파키스탄
##돈
유희관
박현주
미운
4년
##코노
잠입
최고경영자
어째서
정갈
동아시아
통과했다
독도
주먹
레프트
신한
국가인권
일상
220
##기념물
봉건
##보사
쏴
베푸
앨리
116
##규칙
식구
孫
##3명
##페이
필요하고
##나연
도핑
후작
##룹
이벤트도
호응을
##미도
상공인
감추
핥
예비타당성
도보
수치심
##하기가
순자산
법을
이집
の
포획
##위에
언론이
토양
닛산
마인츠
압둘
동상
SU
1935
##타이
정당
##I가
라던
##여자
하오
현주
구급대
유진투자증권
측면에서는
##치료제
나타난다
##사회복지
##주차장
김선우
댑
디스크
궁금
중견기업
##워서
관대
##였
##고사
김관용
친문
갈구
싸이
✌
정대세
숭실
수출의
있습니다
처벌
기지
뚜렷한
옮겼
柱
금지
빨간
오의
선거를
한밭
공부
싸여
반박했다
광범위한
##짜리
변장
이수지
##뭅
아이디어를
극심
치프
##똥
처분을
체계를
실마리
4학년
대강당에서
클립
맡길
##듣
질렀
##델피아
##담을
묘소
굳어지
추첨
장면이
삼림
비트
끌어들여
pat
적과
其
아파트를
법이
모더니즘
가르친다
##똘
활발한
##clee
폿
##거든
기술력을
km
##브릿지
##론가
담대
추진할
##슌
작동
##일관
발맞
##리사
어우러
한차례
순천만
아이스크
##지급
CA
베이비붐
질이
안전사고
乡
기증
퀘
매장에
3월까지
##라시
##게임의
키프로스
피폭
그릴
정근우
협의
힐
700
블로거
빠져나
😊
이마트는
##’
지만
어려웠던
작용
건도
모나
소극장
청신호
사법
경찰청장
쩌
##ark
br
현금을
12억
꿋
##부와
10월까지
##인민
장시간
##스터디
대책을
콘텐츠
뤽
시멘트
분데스리가
Go
訴
Vol
등장한다
타순
송금
침식
##관실
묻어나
녹십자
일주일
똘
發
토너
감소가
##왐
모멘텀은
윤리위
서울에서
라우
방학
시달렸
고궁
凶
시승
삵
명쾌
안쓰
es
##ven
毅
명확
사태
진부
##고등학교
청문회
지점
겨냥
상태에
드라기
양국
역점
노하우를
대금을
##중이다
3010
신용등급
올드
돌아온
무허가
轉
卦
우뚝
노선이
엄태
조민
##엥
천연가스
스탠더
고압
쌓아
##비엔날레
##뎬
헌데
은빛
##과정에서
커다란
##로우
게임에
##퉤
##은행을
철도청
시내버스
명심
음악회
Not
납북
##ED
교통사고
생산할
감춰
##00
췄
sa
금액은
중간에
오렌
신망
크리에이터
불쌍
유공자
##디아
##쨍
발효
##📌
국면에
쿰
##개국에
이상호
일으
대할
##el
맹세
##없
연습장
##회담을
물러서
##으로도
##뤠
멈추
커피를
heraid
매리
재현
##조세
프랑코
금일
##며
초록색
부원
##「
확인하는
4층
인원이
##사로서
행장
총살
설득력
정모
소모
품의
느껴
##경영을
명창
제품들이
트레킹
위생
분간
준동
진나라
창설
어뢰
마련한다
에스토
누볐
##웻
##서류
구자
터뜨린
활성화에
10분
여론의
##훌
장실
##oz
최강
전준
돌파구
랜
국립중앙박물관
주장하는
##번스
##57
총성
揚
tootsie
##틔
題
##뗍
굽히
상황이
##안은
강병
##진의
신청은
底
물어뜯
펀드에
수원
건축
텐데
##ban
##쏙
옹진
사례가
이서진
점잖
김태만
당협
한다든가
경력이
맞먹
##대에서
검진
3명을
바로잡
수온
28개
무궁화
청구를
정책은
녹록
아이즈
중문
의미로
넘치는
맑
##케스트라
때가
최소화하는
오락가락
마왕
소문
기술을
맞게
월간
뉴트
지금보다
##승인
##티켓
해안
과음
심지어
고스란히
이끌어
원이
더샵
지니고
조그마
##3억원으로
##번호
Cont
##총
홍보물
##00억원
그리스도교
바오로
민자
##샘
시장조
허비
않을까
제정신
##市
안타까운
##ᄏ
##푀
새싹
##뽐
유희연
다국적
휴대폰을
대출을
성공적
1984년
브레인
삼양
감량
심야
감소와
CMA
##함께
똑같이
본의
금감원이
##클릭
승소
신용대출
분유
乃
싶
##전시회
彼
벤처
2011년
在
##슬로
은지
인성
단상
부드러
장직
제9
끄
##av
속성
히메네스
빈다
자는
수출에
##unn
최다
터전
##소프트
##산지
달라졌
##됩니다
토
국민주
팔을
지역에서는
짦
그게
##캣
지동원
##복을
츠
달의
인하여
결전
시노
##클레
내심
알몸
논의하기
가능할
최준
쇼크
##PGA
구구
수입량
취업
가이드
##변
아이덴티티
부역
불어난
양측의
斬
터라
##ma
원동력
사행
운영위
이토
지원
브레이
날로
◆
括
##3년생
뒤바
좋다는
배성
##포트
갱신
퇴적
탬파
교두
우익
습기
##인스
월별
대사
##치기
느껴진다
##전환
##방위
라드
##ure
오래가
##갑
김종인
외곽
달할
되면
부식
창출과
회부
나타났
지지부진
##health
通
요율
란스
소비량
##yl
포기하고
服
개인정보
중에는
매사추세츠
밝혀질
##지사가
방청객
##벰
법원에서
카를로스
고기
지방자치단체
않는다면
😁
첨가
재규어
##라이어티
19일까지
영향력을
글로벌
늦은
##자면
##67
노력도
공연은
세계로
장신
정창
문답
Richard
##bs
마요
입후보
개와
영남
포의
때보다
관계자가
숙박업소
##낌
계세요
아난
살충제
닫히
구한
부가가
141
##횡
놀랄
##시스템의
○○
평택시
손혜원
교체
연체
Thomas
룻
적용했다
##만여
도사
참여했다
##까진
도급
어슬
서울이
이용한
##기획관
##일비
해서
Pop
대답
재소
호스트
호미
##명의
기록했는데
값비
기아차의
형국
단일화
거의
유창
천연
?
##공원에서
폭투
스파게티
수소차
##걸스
학교장
분쇄
##티의
##꺼
##史
##예원
만연
커리어
위층
##ider
인스턴
##自
철거민
商
관도
대상
펼쳐
전국적으로
만약
투옥
사유를
이희
##결연
협상을
##꿔
농업인
김필
RA
대천
참여한
콜라
동반성
족발
##무스
불렸
해일
필
블룸버그
본토
背
##대에
플랫폼에
골대
##갭
##iness
팀워크
채산
◀
치열
세르게이
3∼
말아
일으킨
##격차
126
수주를
기여도
##和
##파스
독학
啓
##얏
유상철
세무서
해결사
##러움
협력할
믐
이상인
원희
칼텍스
##itz
비틀즈
단말
줄다리
##국장은
생육
##조사가
##불리
건대
##ight
기밀
##했지만
카를
##렸
사정을
한국소비자
금융업
##관은
##겠는데요
##방식을
히틀러
팜
견해
서성
아이를
쩐
동네
상당한
패러다임
붙였
2위를
최초
酉
##濟
보여주기
##ryu
부담금
栢
배로
드러내
제품을
흥국
어렵지
5가지
어딘가
6개월간
인조
로비
휘파람
##배
##쯧
도착했다
추방
주장도
##에게서
8월에
톱
##누스
으니깐
종목에
중단된
의미심장
전과
부대원
도도
천
높여
전염병
##운데이션
##세웠
극적
##쩡
여수
##링을
대폭
뛰어들
총학생회
뒤에는
##몸
상실감
##품에
특징이
최종
로라
보탬
20∼
출루
마침표
맞벌이
일거리
##류를
글을
필두로
사슴
김천
태광
의대
낮다
##할지
암스
##VE
농촌
구식
霜
키움증권
##텅
조우
아린
아티스트
##팀에
坐
##유
##단체와
말했다고
차의영
##하였고
접하
0505
때마다
##삯
전당대회
엔터프라이즈
KRA
역임했다
##층은
태화강
초고속
Pr
##광역시
촉감
##점도
##뭔
불명확
소울
##볏
총각
Die
나서서
놓치지
괴짜
##변경
##억원에서
동장
파이프
제외한
정치적으로
##뮴
와서
뗄
커지
##rew
좌전
할인을
건데
##만8
김현
소송이
꾸며졌
완화하는
나아
##했
다간
주고
시니어
##젠은
##Y
라인을
자립
적도
만하다
lovelypsyche
있겠습니다
끙
재무제표
##koo
이미지와
노린다
원론
##몬트
##척을
당사자
엠블
##옵
휨
##레이터
고개를
안중근
##영화제
##꽝
자연재해
사드
한달간
섬멸
輿
추진에
신고리
廢
논제
박기
아가씨
네이버가
##형을
##쥔
복잡
답니다
륙
밌
수출
##직을
##1
든가
노릇
엠마
통신사
산업혁명
BJ
정운찬
##만명을
##뻔
賊
디폴트
될
양구군
입력
다니
해남군
##TRA
뒤돌
굣
##꿈
아이엠
윤종신
##에른
LG유플러스의
文
地
槐
김민성
움직이는
금물
RC
한양대
청탁
늘었습니다
아이스하키
완전
간의
기나
멤버십
들어도
인터페이스
##🎁
##투자
조각
1만원
集
##🤣
거리를
##학교
캠프
참석한다
##ree
숑
문체부
세태
##73
셀카
##푸른
굴러가
##내장
맨
그쪽
해수면
변속
한남동
쨌
염증
##4
남양주
신경질
##쿰
笠
##차로
2006
명백히
의원이
##항암
학년
어수
프로파
한국체대
우경
것이죠
으므로
##여명이
##리
빼먹
법무법
##헸
아이뉴스24
상세
트라이
요청을
##미야
창립
장비를
##밀하게
퇴원
업계와
포퓰리즘
혹은
단면
아이템
가져갔
이산화탄소
김소
슬쩍
되는지
에르메스
고증
效
블레
環
##이나
恒
면적
병
1년여
슈가맨
속수무책
##드래
쌓은
표면에
전국경제인
主
##선거관리
포함해
끼는
농림축산
처리를
虹
서울아산병원
눅
비중은
서울시교육청
##ole
숙명여대
약효
마련된
##부자
기니
래
빗방울
샤넬
자행
da
##직한
2주간
등교
검토하고
차량과
##철
##았기
에프앤
시기를
3월부터
중얼거렸
##하던
노원
조순
콘셉트
소용없
절단
##ee
gl
니다
##예방
##닐
성
##＋
ARS
회의
요구가
##아무개
대보
앞장서고
곳으로
##폐합
부자
##일치
연기금
1955
안행부
彦
##CO
淡
##환경
분야는
가리키
경외
검사장
Fl
조바
랜드마크
채태인
하이라
##도리
발작
22일부터
인수전
수입이
##라스
연단
컴퍼니
동명
##듦
마흔
러시아어
만들겠다
polo
오후부터
##이치
받거나
바르샤바
##쫀
##어질
프로페
긁
##급여
커플
느린
장진
##유치원
박민
실시해
##미의
##조인스랜드
주력하고
##찮
김동
만져
트와이스
瞋
뺨
글루
이상으로
기동성
열한
거포
국내산
재난안전
기획됐다
ev
못할
기초연금
재래식
직원들을
비금속
10일부터
들여온
##명에서
DSLR
김여정
##듬
##증은
자나
워낙에
주승
버림
친일파
따지
##법도
##吉
##0년대
SK이노베이션
UV
Op
은행원
##開
癸
##────────
웁
받았다
활용한
업무방해
層
아연
허심
저임금
##년
기일
세력
경영인
백두
##미오
##토시
가석방
##남도
##宇
미공
모터쇼
##렉터
찔렀
장
장유
##숨을
추천했다
빼놓
것일까
내전
맞대결
6가지
진통제
자유로운
갈치
촤
총재가
烽
牟
경희대
도와준다
##구와
유준상
토크쇼
박승
##ger
##데이트
1위로
단선
##신은
들키
상트페테르부르크
화단
날아오
한신
옹진군
##까지의
10명
자격을
대응책
티모
기대하고
보세요
주장
덩샤오핑
발언
수습
한인
따스
유승
##n
우려
중금속
아구
열고
국토교통
##진료
사귄
##소닉
합리적
##량은
2심
씸
##와
will
검장
꼈
##칫
##our
kW
쫑
《
이뤄지고
##사진을
정기적인
단통
동티
인공지능
##봇
멀티
보좌
컷오프
트렌
義
1700
☏
코스닥지수는
뭉치
기력
1998
텔레콤
공방전
점화
##31일
고척
走
감기
퀘스트
미만으로
##5억
수첩
표를
##라우저
노동자가
🍫
차별화를
차지하고
얼라이언스
달성한
박헌영
捕
텐트
현대그룹
1등급
노동자의
진행했다고
##소연
소통을
돌며
빛내
##사한
업무를
예고편
글자
집중호우
탄자니아
##메리
광구
후세
##ular
항생
현재도
지속되는
조선사
공동으로
器
성화
##하를
페더러
느닷
버전으로
##움
##시대
⑶
묻지
##시위
15분
부양책
굴복
상품이
후추
에덴
그림
곁들이
힌두
罰
A3
공격진
##꿋
후끈
이승우
서민
##란시스
п
##혜택
스캔들
칼럼니스트
##프가
라는
정청래
박동
점유율을
니콘
북서쪽
##문화를
St
보호관
136
디디
육중
컸
방지법
정한다
축출
##아니
팡
내한
자니
수시로
양길
열병
차은
특히
초창
추월
꾼다
높았고
가망
이사직
퇴직
##도우
사료
한다며
##웸
##함은
업종
끈다
豚
고기압의
중앙위
##화력
##스케
전경
항공우주국
점수를
##웡
딜링
대만
붙잡혀
적인
시늉
도곡동
관
제재를
우수사례
잘난
동창
5600
일본식
미백
여관
규율
송두리
］
忽
먹방
오두막
의왕
데이터센터
상업용
베를린
북한은
관계없이
##25
꾸렸
리노
유상증자
돛
븐
첨단
아주
##MCA
답변을
##아이
이백
경력단
##42276
미성년자
변호
주머니
행사에
학문
제철
바래
기습
실업률은
국토교통부는
창녕군
헬스케어
최인
엊그제
식스맨
##┃
만과
Co
##하기를
국립공원
꺼낸
출범식
아이에게
소방당국은
양정
##μ
부끄러
과
##가구에
##사들은
앴
특공
전야제
엎드려
##iation
##쳔
##산을
받았
채운
GP
재미없
자위
모델이다
자동차의
볼라
관행
##룀
배부
있을
##방
돕는다
##쩌
穆
##항이
외압
##ney
밤낮
김종훈
꾼
송원
##oud
##羅
다같이
사용할
상황이라
##그룹과
빗썸
緯
연관된
우수자
단의
많지
영역
컸다
망
순순히
벗기
⑦
취업을
피해자를
발병
31
무겁
##위원회의
國
지지도
지켰
##글로비스
방안도
마니
봅
대표이사가
중재안
엄청나
盡
뚱뚱
프리드리히
쟁이
험
예비후
##주군
코로
인삼공사
庶
킷
##⑨
맞춘다
##네트워크
그물
##나귀
뗌
##피아
##펀드의
男
안팎
桑
개강
금액의
😏
##▣
식인
262
체험하고
연수원
출산율
Af
3배
헌정
##스텔
##륜
##U
##화학
간수
우수하다
해낸다
##LB
##차의
회원이
끓인
박재홍
##권이
##시브
낳고
##이와
des
국력
칼륨
불확실
佑
들어오는
부당하게
믿고
##郡
잘못을
시구
아메리칸리그
정점
왼쪽
NY
리기
주민은
이태임
여성이
관계자들이
##박이
Par
의견
양손
벌어진
들여와
##000여
##적ㆍ
자판기
##스프
세종대왕
에일리
보이스피싱
14일
선고받았다
만두
##지기도
암세포
접착제
국빈
##壽
##崔
코어
이뤄지기
전망이다
신앙
팎
비율을
고가
편안하게
캡틴
내국
몰살
생애
키웠다
백자
##시스템을
뫄
찾아가
기업을
일까요
판교
##관리공사
가면라이더
탈원전
보건
최고급
유추
자잘
중개
##월드컵
禧
</s>
체험장
가습기
레이어
얘길
꿈
빠지지
경위를
마오쩌둥
##파일
정체성을
##ium
전자제품
장의
넷째
적
롯데케미칼
##ｍ
벌어지
반발이
밑거름
##증진
##어넣
철인
슬그머니
신지애
리지
불안감을
동계
처장
골동품
yo
le
기록을
대장
##브리지
1층
카페
##mula
구축할
1004
에다가
생각났
총력전
지나간다
방법에
FTA
장년
결의
##다임
##피드
##書
다음달
때
마련이
##ron
6학년
꾸민
시녀
jungha
슬로우
##른다
찢
##port
왕복
돐
단지의
김동진
수용소
vol
##동네
##부양
短
툼
본사에서
sk
젯
어택
##문으로
차량으로
페더
기간에
부정적인
시안
440
건너편
솔솔
거센
박제
조업
당인
갖고
독거
카메라가
뵤
나
올려다보
출연해
풀타임
액티브
감소하고
##공단
만물
##장벽
펴
경우엔
도피
능동
얀
하나를
근무자
모비스
敢
##했던
##CG
맛난
도저히
정부서울청사
견학
명백한
풍랑
자라
차로
디시
富
개막식
##베르트
천국
근로
기선
성지
칸
이야기다
혼신
##pa
여행
명단에
##킹
들일
시도를
10∼
##리즈
##얘
집단
동일
formula
들어봤
炎
프롤
일본에
낮추
용선료
어디서나
흐트러
##힐스
시급하다
站
누님
의견서
잡지
회가
회사를
##日
해상
##분담
강민호
모티브로
5200
리안
포옹
227
군에
##:
로와
개편을
##제주
릇
##otor
기술력이
측면
고선
시행사
忍
싣고
될까
처분
생겨나
배급
고용이
##주년
키드
단군
끊겼
##감을
FDA
##민당
물티
품목에
##텐더
##포장
갑작스런
이름의
임종명
스피커
착안
##냈
##oun
조언했다
＝
##놔
여파
3000
이발
##으나
##치
대강
지난달부터
복고
메카
색인
외교장관
레인보우
##⇒
전쟁이
평가를
##대체
울주
##야드
晟
키신저
##add
容
놔야
##겪
경험이
혹자
##빽
칭찬
사외
##G
##스카
전세금
맹의
진드기
##잘것없
오리온스
나오는
PMI
특전
단초
촉구한다
연어
중원
##종과
천식
판단된다
물과
양길모
생일
벌점
##시로
공대
##보와
전환할
예정으로
0108
김소현
燃
사의
측은
스크립트
탄자
정하는
타결
기압골
##칙을
화이트삭스
있다면
기발
앵무새
##일스
살펴야
##정의
부패
있느냐
이재
웅변
푹
한국에
##元
국민적
김동철
성북
땔
##enc
옵티
115
골퍼
장소는
맥도널드
돌파했다
##해보았다
줄기세포
##보증
록
##변조
느꼈
10명이
거기서
가정용
사발
에어백
톈진
취지에서
나이가
해결할
오전
저택
문고
당정
##ena
나성
파가
소프라노
릉
공석
시끄러
완도
이혼
밑으로
##블릭
시위를
3자
단점을
##나무
동영상을
요구된다
변화와
대남
눔
1명을
뉴욕주
사지
##림동
2명
우려를
세외
##사이버
LINC
필요로
비바람
별장
겨자
분수
ㅠㅠㅠ
김동주
보통
舊
공감언론
받아들여야
이휘
뱌
오가며
쭙
##藤
초중고
궂
System
아스카
초래
예쁘
임대주택
근처
##증으로
##붙이
쿠스
지상파
마실
연수구
다카
숨소리
국세
태양의
전라도
춘추관
##로울
기반이
수직
패널
미상
도희
아제르바이
이보영
##더링
잊어버
다음은
우병우
누가
Sim
피보험
전환이
##가치
##텐데
쏠리
##리당
강속구
and
##퍼드
아시아나항공
출마를
滿
野
근시
Fin
상장을
##엔자
조여
##과도
지양
##53
셋톱
太
##즈는
넥
##객
사업자를
뜻한다
얏
대상이
黎
지역별로는
펨
##實
안전한
惑
추세다
責
안내문
각양
판
끝장
휘성
배울
##의대
blu
두려움
업무상
다분
6년간
서울시내
##ding
##정산
포스코
WTO
경종
되도록
스크
끔찍한
져서
질적
게다가
##day
말끔히
달러화
##지역
##단체의
앙골
BL
높을
건에
있었는데
에서도
시한부
아쿠아리움
##쪄
일은
케네
앗
Ge
##정원
해결하고
아침
상황으로
김승연
SK브로드
야식
끝나지
##천군
##했을
##resident
묻히
와중
노다
##관에서
##메이카
야지
켠
박지성
##ple
한나
메이크
Hot
##본다
수치가
인슐린
1980년대
도비
##uy
대어
같았다
원본
그와
끔
播
손길
넘은
##있던
##병원은
##내렸
덩치
##나우
이지만
뒤쪽
있었으나
내려온
배제
의도로
##값이
바위
yna
점장
##그라드
##t
6월까지
캐머런
가벼워
발동
평화의
직원은
전통을
김환
귀여움
ㆍ소
杭
우면
말랑
빈자리
김흥
향상에
남이
즉사
여소야대
항만
##진진
예상했다
魚
1921
##여대
양식장
악화된
눈높이에
전치
네이비
퓨어
개발로
##임이
640
##烈
##о
##VD
일차
프로그램의
대화록
낭
戒
조난
우루
민낯
악질
이국
장내
이유도
퇴근
##DS
醫
찾아보
가토
듀엣
가라앉히
##27일
료
겠다
##데르
대부분은
해줘서
구상
오찬
##모듈
한탄
##34
했으며
표기법
연신
오랜만
문성
이며
##컨트리
닐
##ᄋ
실익
사운드
##여금
쿠페
소정
강팀
지속하고
오늘은
19
보임
농식품부
피트
##주행
##면적
징
##거렸
사람들에게
##지도
명함
수하
텄
##상이다
정보공개
수준을
아름답
경영에
##해주
대표적이다
부문은
판매된다
좋
서늘
연골
##정비
##댈
##저가
뒷
##문고
숙성
돌아서
뚜
머레이
화재로
여고
##일으
시중
##itch
##길동
찰나
프린팅
녁
행자부
##릎
탈레반
하승
최시
##뭣
스테이션
으로
모색하고
좌측
요금제를
권상우
##💓
량
에세이
##검진
전월
개선이
꼭
희롱
부임
국제학술
꽃밭
윤태
폭발적으로
현영
성실
슈타인
결합한
열중
수제
##법이
OC
##잡고
류준
친구를
##얀마
밖에도
2시간
소셜네트워크서비스
코엑스에서
측면에서도
마일
클리닉
모레
##ety
만장
주장을
그칠
##du
##🌷
미뤄
번씩
연산
동선
단일
뉘
##시키며
수권
낙찰가
합법화
##제일제당
실력파
돌아와
니콜라
송중기
국회가
스미싱
##크림
기상청은
##패
요령
##팔트
##여건
입문
사람들도
##스타디움
신화
##여왕
는지
미국에
셧
국고
잡기
아이의
##종양
##un
色
##스민
72
생각한다
설립
##201
급격한
대미
감청
훨
##햅
##습기
장동
10만원
분말
##7억
##잘것
전등
남자가
변화
##mar
답장
##공장은
정비
BSI
철도역
코카인
악단
설상가상
##위원장과
지속해서
넘어졌
총리와
조선중앙
시스템이다
네온
와이프
##PI
벚꽃
약진
##여름
진행되는
궁정
레닌
결승점
커스
서부터
영향에
두껍
최창현
막막
영호
비교했을
##🙌
타리
주가는
##세무
홈피
##치가
악물
수해
##변호
동부
##어진
##른
免
지멘스
에스케이텔레콤
한센
測
##™
유리
료의
##까봐
송아지
##됐습니다
##틈
주목받고
송승준
자랐
betanews
재계
익힌
보인다
퇴거
##유통공사
자유민주주의
##않
간식
미자
정렬
##들은
라지만
차창
충전소
##조원
회장의
사법농단
매체는
요거트
프린터
당선작
III
##둑
는다면
평창올림픽
SK하이닉
叢
하부
##死
##㏊
자양
작품상
프러
시
구입비
##민주
시사회
##블랜드
딸린
이외에도
##능력시험
밧줄
옻
스케이팅
다가서
정신과
도식
리포터
연출
판단하고
황금빛
제품
해져서
한미
한마디
##16일
뒈
마이스터
줄게
향이
중요성이
##J
lkh
공기청정
컵스
떠들썩
전문대
담배
새콤
바이올리니스트
패트릭
즁
씽큐
방식에
코소
##상우
##뱀
착실
손목
본부장은
저장
7명
교착
실상
한라
방콕
태반
하중
디제이
불가사의
샜
북한의
대부분
총생산
챙길
##팹
수록
후루
배제할
공정위
주총
더욱
자외
위헌
풍족
토가
훔쳐
초속
세트장
발
탰
치욕
돌아가는
현대제철
멕
論
bbc
라파엘
계급
지영
##호선
방불
지적이
##언론
아냐
공장을
##江
form
예정이라고
탄탄한
만에
사무관
UP
빌
차이는
품질과
발포
섭씨
플라워
賞
享
이튿
듯
깔리
##urt
##하고자
진주시
소재를
가량의
##흑
행사에서
확대하고
재의
강연회
##TS
작자
##지물
부스를
요건
시트
종점
공유
##민주연합
치료
투자의견
커맨드
오스트
장승
##가운
박재
photo
가평군
##㎏
##원의
##능한
레베
하게
나가고
밝혀왔
진보
김영광
贊
슬기
목포
정면으로
진보신
대표인
일찌감치
납작
줴
us
##마디
오락
##라니
텼
돌리
중소벤처기업
##회
럽
경직
가득한
벤처캐피탈
3일까지
##림으로
치자
압록
북송
국민들에게
강모
평온
용량
이들에
늪
1950
실명제
담배를
氣
얼짱
투자해
야겠다
##벵
숟
##꺼기
프로그래머
증평
근절
산
##IA
Her
솔트
慣
스털
같다는
##읽기
영재교육
신혼부부
프로젝트
동시대
val
책략
저렴한
##사회를
db
사이트를
친해
칠곡군
불과해
줘
##돼
중앙선관위
야심차
이랬
김광현
##젖
뉴스쇼
##페이스
하강
##유진
##지구
한진해운
##海
##ern
당국은
일사
일본을
아우르는
무협
최고위
똑같
##경색
중독자
자율주행
한국말
꼽았다
아니라
##구에서
끝난다
##뭇
잖
鼠
중단을
독재
밀어주
##장수
롸
##소
du
나아졌
망한
삶에
##되고
일가
게을
그린
어느덧
심사위원
남방
##되는데
##초
조종
움직여
상관없이
해결
의미의
낮다는
##avel
堀
##동생
막
10만명
樂
춘추
비대
홀로그램
경도
##지우지
자동차세
명작
리얼리즘
KA
정류장
여중생
25개
임창정
축조
##A는
삼는
##판으로
금화
시작을
타이틀곡
차지할
##드는
살아있는
59
스나
확대하기
뗏
늘어선
파리바게뜨
사자
##되기를
AR
티저
미국식
어치
리투아니아
##흐
케이뱅크
##계를
737
하이브리
소송을
국부
디올
향하는
기차역
5위
##겹
과연
당국의
21일
잿
한예슬
169
티켓을
거스르
시아버지
단언
내용도
##슝
입대
알루미늄
사들인
식생활
디너
어쩜
호소했다
산부인과
##만큼이나
kkj
폄하
返
전염
펴냈
영구
望
검소
공작원
패스트볼
이르
부정부패
각질
모든
##地
##잡이
빨치산
피아
인양
##레저
디스코
간호학과
계망
성과는
네놈
지름길
인상을
데가
##ays
수억
##̥
천혜
##les
##ign
##리드
330
서명을
담론
##구는
우리의
##뜩
농어
##TE
##부인
북대
##토리
##위반
결정은
의
##플렉스
가도
제2의
극복하기
역차별
소비자의
상파울
투자자
##진영
당내
법제사법
감사원은
##이
연세
모양새
관내
개선책
떨리
봉합
원효
##타는
스킨케어
급성장
따낸
##에만
후각
기업들과
남서
##ited
장학생
4대
미약
인사청문
멈추지
돌풍
가늠
겁니다
의기
##봉사
##기아
상승폭을
갈리아
연령
##₂
지리
특정인
경북대
백령도
올랐
와인을
화장품
의기투합
##대책위원회
##낄
피부에
양념장
대서
지방선거
쿠션
##진강
22
쳬
장화
깔려
055
내다보고
##의
TIT
국민
ksw
신흥
올려서
재정난
캔자스
미드필드
##체에
울리
불이익을
경제성장률
##지수를
얼룩
선택을
예매
##oth
##와이드
어려울
용적률
##융
table
식약청
보편
##억
일원에서
바라는
자유형
대우그룹
풍광
브랜드와
용이
터뜨려
##탔
혜택을
디스플레이를
피드
서울시는
##군에서
LG그룹
거울
鍊
불안을
##껌
써서
##뙈
금융당국의
##시
##권도
##ock
증정한다
단계별
##지출
모습과
##수목원
##안내
무전
카누
마르코
체어
랴
전통적인
##벤
무거
지쳤
신성
##ro
##등의
##줫
내로라
1903
나로
학번
호흡기증후군
정두언
쨈
달랑
맹점
하면
워낙
##제어
향후
##집은
췬
워크아웃
강산
정하고
4년제
모시
尼
##뎀
co
##ex
탈삼진
##무역
쉽
##사업으로
40개
##보험을
되게
못한
단장은
대통령령
분류되는
##상태에
전달식
##비타
전보다
나뭇
해바라기
버클리
아파트에서
##광역
##밖
촉각
상부
향
拘
자긍
한화케미칼
대구는
기술원
능히
찬의
##쏠
페널티
날아들
##때
к
instaf
##식이
##대표
레몬
밝은
유저
욕하
뿌
중심으로
SK하이
출중
불거졌
복숭아
游
##티아
목수
##냥
준비에
탓
##보로
##미술관
효과적이다
윕
g
찜질
##㎖
보도에
##협
홍찬
요지
리츠
다이아
계약은
가치를
배추
프리랜서
커트
모은
wh
기록했으며
십시오
스펜
##진다는
遂
무작위
달러의
사로잡
나주시
두
실전
상층
휘둘러
공정거래위원회
##린트
##ization
웅진코
HDMI
##모터
주어
꼬박꼬박
GNP
농성을
㈜
##심으로
##차익
작가의
영장실질심사
##엔드
##났습니다
##72
실의
##아비
미역
##j
소송
넷
##커녕
헤어져
함양군
개당
도어
##객을
여기에
길들여
仇
무리하게
비서관은
##층으로
규제가
적시
손민한
십
리뉴얼
##면서
1920
LS
퍼블
##개정
잡을
쇼미
네모
노프
눝
는군요
미움
##측에
안토니
디바
마니아
덮
조윤선
머물고
박주영
100대
##형근
체
평가와
씨와
##당국에
수량
부도덕
드러났다
다룬
빼앗긴
중화
박혜
시전
##이스트
농작
학장
완성도
##셈부르크
수익성이
본연의
약값
rub
집약
축산업
포스팅
시간표
AV
고추장
지역구
SSD
못하
법제처
박보
책무
외국
캐리
##박람회
맞췄다
없는
오동현
##큰
##ther
데이터가
##김치
대소
저비용
##ㅋㅋㅋ
청과
전멸
구대
최소화
급격하게
##으면서도
감히
간암
쓰촨
##체결
##과학회
격상
훼손
범한
으려
계류
##사건
##법에
무적
리도
해답
증액
朗
85
기기에
바리스타
##나가겠다
##농장
고르바초프
록밴드
들어간
꽹
완치
고달
8시간
해수부
윈스턴
##크스바겐
##트의
##예진
검정고시
사과문
##뀨
플랜트
판도라
봉의
언어
활용하는
카오스
##았고
킬로그램
##9억원
우리에게
24시간
다치
브러시
윤현
느라고
##000원이다
##그러진
교섭
##혼
윤성환
##ud
비은행
휴먼
##acy
##ᄇ
##인트호벤
인천
筆
비와
노선을
좋아요
추상
골반
저스틴
승진
신선한
고시
##c
프론
업그레이드
##son
접수를
개통
불공정
쯔
墨
용적
##헤드
유보
값이
##ford
차우
양승태
복지부는
##될
##게이머
教
30년
AB
맥도날
평의회
##테인먼트
강화해야
했는데
##렉션
급여
##징어
##성기
순매수를
좌완
대부분의
패하
교묘
위업
김여
언저리
가리켰
영장을
##반사
이목을
문제
메이저
민심
금천구
맡아
라이트
初
좇
##㉰
피상
##식에는
와우
명시
5분
더럽
daum
관리사
취지다
왕의
계수
레스토
##제당
양산
##신라
중이고
예측
경수
이종걸
Tel
안산
간선
절반을
질환이
##셔서
무선통신
##÷
서진
홰
아니지만
미연
##텍의
촬영한
협조를
됐고
m
사상의
시야
보여준다
노사가
개탄
범타
세월
피어
각인
##총을
##넛
##서울
1∼2
간에
언니
##상황에
교인
수입차
식당
다발
2가지
금지하고
e편한세상
최연
style
##출혈
강의를
860
냇
자녀를
가르치
추세를
인데요
부가
사찰
시위대
서클
쿠바
맥도
낮아진
인공위성
늑대
김양수
나오기
끈
##페르
앉은
오픈
브리티
하승진
행정안전부
파로
BBC
권고했다
蒼
스냅
뭅
##기간
F
관계는
인수했다
##리히
경전철
학생부
해인사
알갱이
治
竟
빙자
答
참석해
바쳤
쭈
미납
말씀하신
뇌출혈
부인과
외에도
짓고
지구의
##닌
원자로
가와
관의
##필품
원년
##em
증권거래
하체
##보복
황태
症
##츈
넘
숙련
2022년
애틀랜타
hgryu
hjpyun
크
4200
기자간담
##🙆
점에서
반군
에워
심오
ssjun
춤추
은행권
지사가
##교가
간소
사항
오인
일산
군의회
버스
전해진
인감
전망된다
대법원에서
건물을
넣어
도태
불가피하다
등단
물러섰
동양증권
##자기
##톡스
위협이
如
폈
##테말라
메워
조목조목
화성
서기관
善
살아온
시온
다정
성장세를
대설
캔자스시티
##관리법
실시하는
##스코어
꾸리
투자하고
두는
노부
명
6월에
##소재
부채비율은
허황
적용을
공동연구
##눴
태수
구단
##기간이
장난감
##시아
제스처
##여명
대립
수정
##하는
국제표준
무시하고
가르
한샘
선녀
카드사
피해
##졌다고
이상민
법적
양조
정홍
황의
둥
패자
발굴하고
환자들의
동결
이뤄냈
깨지
사용한
네
起
육아
##제안
米
엄격
추억
미국의
아우크스
스펙트
筑
##슈타
##자키
겹치
##주는
##장관
강점
사실관계를
⑤
상추
##켐
유전자
광저우
이홍
부릅
跋
거둔
시민들은
##000명
사태의
퀀
##실장
살인
打
사안이
그렇지만
도시계획
##되었던
미술사
##🍓
특정
##웁
보수
빵빵
걸어온
##런스
카메룬
##권에
##테이션
우습
청구했다
고건
덱
溫
##현동
나가
인선
일궈
원안
호텔에서
로봇을
빠르고
나이키
##발적으로
lim
몰랐
일화
영지
##유는
도중
쭤
문신
##세
안타까워
랜딩
단속을
인구의
조현철
스런
與
반복되는
코링크
##뺌
리플
확대되면서
구조조정이
합당
뚫고
窮
대조
알베르
냥
조진
사회가
멜로
자책
봄철
##산업과
면허
레오
##풋
그린벨트
띕
진작
험한
클리어
##인식
##들린
예사
상이
나팔
RO
최저임금을
##조약
없었고
振
해피
点
투스
3D
쑥쑥
귀한
때는
환원
##alk
##백신
두드러졌
통폐
접근성이
비난했다
야근
##니아
효과
같이
구직자
맞출
어워드
경
폭침
##더멘
당하
화답
千
비기
##ent
무자비
쏘
다이어트
輔
징크스
4분의
##자로부터
자재
##acho
유기농
##사가
금융위
2016
##유한
통진당
##DAY
덕담
집중력
없
##arm
대주주
양띠
인근에서
클래식
이화여대
연계해
북해
##aint
완도군
기업으로
정상적인
av
때에
몰래카메라
여성들이
1억5
눈
시기가
노라
역삼
##구역을
발생
##맟
100억
가명
이마에
##다리
난사
일정한
##심히
맹자
왕자
출금
원내대책
개발은
뱅킹
##申
가지는
동국제
만이
##운서
팬들의
##디자
##갯
것이란
착륙
장항
곳은
지원으로
쌓았
둣
239
챔프
청부
##기록을
so
웨스틴
##ym
대망
앞서가
연주자
산발
개정된
계획이라고
내려다보
분석한
공매
영향력이
##TB
##{
##선스
데스
황무지
쯩
진상규명
제멋
대손
박찬욱
斯
진료를
兄
강지혜
개학
##밋
위축
토스트
세대를
##조와
리얼미터
마가렛
Can
난치
아로
##숙한
join
기구
풍경
盜
##산동
선발투수
8도
육안
브리핑룸
이장
행보에
##💜
##물에
경고
##♣
중지
##ㅁ
실리콘
검찰청
world
도축
시뮬레이션
브리핑을
어울림
몰리고
거역
##기술의
스카우트
잡은
국토교통부가
##계
기의
비웃
##시켜
대의원
않다
회수
##└
산단
1250
발렌
외교
##레이저
##600
비주
1959
줄기차
정상회의
거명
수퍼
영월군
세인트루이스
기웃
윅
내진
교보문고
김동연
오늘보다
##하셔야겠습니다
##폽
집필
##RS
일본인
휩싸인
적극적
항아리
敦
##확산
##근호
##카를
##좆
적십자사
MHz
변호인
##끈
먹히
걸까요
##았던
평가가
해설사
600여
850
선수권
특정한
##티나
황사
강하
사과
저기압
산출
등이
소지품
상여
무용
절박
부른
호수
봅시다
할증
##보살
##마니
##ola
택배
fl
☺
통보했다
勞
퍼붓
서바이
고등교육
폐쇄
소요
호송
고이즈미
증진
참전
했다고
창업을
로버츠
곡
##보라
푸르지오
피하는
구민
편한
##례
##드림
다고요
직불
포가
강동
승점
##니의
겸하
근간
재혼
불의
G20
랄까
◎
김황식
검정색
상트페
시작한다고
mkcho
윤형
수천
예년
##kh
##님을
쏘아
##맛이
반증
##현상이
번개
순이었다
##져야
만만치
부모가
통사
시작됐다
훔쳤
종합부동산
주루
##촉진
발가락
##렸다
##아산병원
역시
소비자물가
317
텍사스주
생식
個
김형
##stal
것이고
과열
##말라
오름세
페트
그렇기
팟
급락세
거품
힘드
##공학과
정철
트위터
현대로템
##댄
##베스트먼트
상품
50년
전기차
2세대
21세기
썸
##ott
방문을
차량은
牌
알려야
막아냈
휘닉스
뱃길
이통3
신호탄
뜬
허용
베네
학년도
꿀꺽
타격을
산업통상자원
##ㅋ
할머니는
##민주당
##하라는
장제원
견조
이루어지고
응답했다
##메르
이뤄지지
혼돈
바라보
kh
##미지
초순
##모어
##들로
탈
##옅
뇰
맴
큭
##DA
플랫폼을
##민주화운동
KING
활
##버려
실재
26일부터
유권자
蘊
솨
판매량은
가르친
음식
##려서
4차산업
肝
다니까
자격으로
쾌적
진료
##㎜
변해정
폭동
안국
로부터
아파트가
負
##い
조사를
our
##우
NFC
안내서
##맴
##도전
보호막
오케
노동시장
##섬유
차근
CN
##돼지
레베카
츤
##만큼
편익
보헤
울분
##뮨
part
함장
30명
냉철
시험지
노동력
초도
동생
으십시오
모건스탠리
늘린
꼰
안겨
昊
##추어
경영을
스러우
애리
프랑크
뱃속
전지현
민생
이후에도
아닌데
파스텔
과기정통
마련해
전방
##富
불협화
차원
국방부
달해
##appy
몇
피닉스
알아본
홍명
불행히
자평
안산시
##운대
규탄
여제
##즈
수익금
##뇌
밀양시
##해방
드높
대적
JTBC
정회
碧
프란치
##임금
발주
평균점수
##니스트
적발된
변태
報
과언이
13일부터
강화하기로
알렉스
높은
경악
걷기
숨어
구약
포고
편집국장
돌아다녔
##신고
##당성
주민의
혁신
##류에이션
공개되지
##췄
척결
리전
함평
이로써
상작
옹호
GD
##윅
시범사업
広
##에셋
##덩어리
금오
오히
무표정
확대와
백성
안정환
공격적으로
##ack
오산
##지의
남양주시
##만기
특목
징수
Art
##ot
##사인
##워야
남과
최강자
辣
각오를
4만
11번가
견해를
##리언
썰매
둡
ISO
체득
##냇
있어야
218
마린
어요
##기반
높다
눈이
촨
모신
168
비상시
민화
스에
심의위
브루
남북한
열자
개악
맞선
이외
여리
현직
생태학
##툽
인정하는
졸리
적당히
게임의
##바오
약세를
SAT
培
냉담
물로
대통령도
##ning
어기
미역국
##회복
연합
구태
##장의
말한다
연행
哲
측에서
보합세
원칙을
優
인도
##ins
##그로
268
스테로이드
유적
어라
없애
##소년
기자의
##쏴
노이즈
서로를
엉망
서점
##이니
첫
##속에
정조
실태조사
숙인
왕과
필수
경비대
형광
##문서
와야
넣은
##습
등부
##측이
환전
자동차에
가이드라인을
마술사
한남
양동근
선택
순종
매달려
##ca
CF
##에서의
##분은
딥
결정된다
##형태
B
##ー
##살이
##Mbps
선물
농정
기온은
##퇘
한때
겉보기
헛되
뻣뻣
##삔
언론
상황입니다
강태
##시설도
요충
매서
##유공자
적용되는
갔다
내셔널리그
##줄
빠른
12월까지
##ss
도대체
##입니다
은행의
되겠다
##랗
##서양
아킬레스
##체로
엘피
보석
이택근
세기
변질
흔들림
스핀
가족
낙원
박종진
미첼
登
아뇨
들어섰
##격
이륙
과천시
##전달
라시
##종에
哈
활용하기
사랑과
채택
잇따라
성장
##투리
축전
^
이용을
##左
##켕
브
입장에선
국무총리실
수준은
액세
##해안
측면이
##월
귀중
대등
리모델링
guggy
목판
벼락
아리랑
진행돼
예비비
##크는
중요
##or
##티브
빙상
제휴
05
##배로
##패션
##조치를
빱
미비
젼
衣
프레시안
사이클
강등
박영주
여자부
##순이익
비늘
客
장거리
##e
송영
카다
##석을
##쪼
심리학자
似
마감일
이을
##펙스
9200
##惠
동부화재
훨씬
묵인
##튕
박희
두려웠
늘린다
##증의
스타일
[MASK]
##52
악화로
나스닥
##교향
양가
##argin
##코트
球
내에
최성국
르노
亡
산업은
##yc
마음이
불만을
아이들을
초점이
입출금
냐고
제보
2분기
전략적
뜨리
기간을
입은
jae
매니저
방향은
朋
폭을
##매기
경장
새누리
직경
박범
278
매장이
확정
##모병원
촉매
濃
##콥
their
##뛰
바다
머무
##프로그램
원내대표가
출발한
그리구
족
금강
민원실
아베노
153
갖추고
##수출
랑
MIT
의식
異
폄
문물
쭉쭉
다람쥐
국무총
3국
시실
탑
설치를
3410
袁
##귓
자료에
1800
모델명
안토
##붇
##린
지금이
노력을
악한
##조5
##시장위원회
아미
누르
##리스
😄
이율
나섰
균
계산해보았다
이천시
ㆍ외
소화
촉진
넓히
곶
##왔는데
많았습니다
##회와
잔인
##까지도
산하
혈관
##길은
좋아해
세종
박광
對
고시원
다녀온
##臺
색이
차범근
일상에서
##골을
##긴다
##ruct
청동
패티
##쇄
뒤집
가려
##캇
전신
운동화
늉
상점
디딤
辨
보좌진
Star
이만큼
##니를
못해
##빚
거라는
祝
##ix
경주마
##기본법
거래액
GE
JW
통틀어
밝히지
아득
쓰레기통
자긍심
치도
방영
중앙일보조인스랜드
##―
부교
##制
다윈
작용할
카터
계열사의
##지방법
수상한
##ision
칼리
일어난
미들
사립대
주영
초석
거뜬
입장에서
찍은
유경
##인삼
¹
##차기
##태용
##스타트
신호등
김씨가
##했어요
##bi
피디
OTT
##미래
##ms
연락이
명주소
니즘
가야금
키
가까스로
기
##렀다
##장과
보궐선거
공급업체
강풍
질질
올해로
##省
##루를
입국
거치
작물
##핸드
남재
매주
패의
룔
고기를
제어
##잉
라스베이
사용자는
앙상
신선식품
핵심이다
##냠
계의
##가지를
정체가
##경선
이용자들의
알아차리
##8년
열
학
뜨겁
유재석
만족할
대화에
좋겠습니다
too
도망쳐
진해
쾌속
방향
사저
했어야
##어를
원통
전체적인
기간과
##ael
##깍
상담원
##임
足
참석자
마디
##멥
ㅉ
블랑
여겨진다
이벤트로
##열이
기이
##소스
교구
신수
##네즈
RT
다트
내부에
고종수
한해서
왜
사이코
飛
##규제
부분의
붙여
KTF
빳
뭉쳤
추정하고
##주의료원
입주민
##성이
##티노
##校
번거로움
윤두
어서
박근혜
햐
식민지
생산한
수기자
은근
보십니까
주석
민정
학설
##숨
##노소
등산로
우려도
애덤
그램
올라섰
냐며
치사
더라는
##뤽
표출
##ab
##타페
골자
미친다
대체로
예비군
수공
##VA
태양광
詩
어렴
##능력이
메이커
King
챔피
귀속
스타킹
피크닉
점진
넣
α
생태
##테크놀
##퀀
daily
유효
광활
시행규칙
영리
발자국
노홍철
##무소
특검법
##宗
##승지
심
촉구
태어나
##ram
공모
원판
캠코더
증조
현우
이문세
늘어
##7명
리바
바운드
사격장
물에
IBK
치러졌
고인돌
점수로
##수입
##땅
사항에
소동
##미널
##억달러를
틈새
조성을
분식회계
##ings
면역력
휘두른
건축물
컨트롤
김양
흥원
https
공기를
즉시
7억
말씀하셨
상속자
세번째
POSCO
노출
##어라운드
축구장
한구석
##큐리티
성모병원
위해서
비례
이승
정취
적정성
자민련
퐁
##아나
강력한
##수행
내친
魔
악재
결부
##방어
##해양수산
초과
단어를
강간
변수로
4일
방송에
젤리
필립스
##㈏
괴상
##ren
粗
진달
원상
##서울병원
높였다
##스크림
반납
##지수가
매일
##더위
시기와
주축
시카고
이뤄졌다
year
대합
und
자주
##창단
1965
욕의
##긷
갤럭시S
스톰
##지는
기술혁신
功
연남동
개최했다고
원권
처치
맛볼
198
도전을
보건복
매니지먼트사
미지
情
##샾
부르크
##어난
취득한
서평
캐디
제명
##돈을
##대회에서
忌
눈부신
심혈
##y
내달
조소
선언했다
서양
보호무역
##멩이
##적이라는
산업이
장지
##셤
스포트라이트
연구결과는
##縣
불가피한
문전
뒤에도
가까운
산만
쫌
槪
실천
끼치
동심
##꼴
출신인
##릇
78
##사진
연호
훈련
십니까
미묘
공동체
우거진
금융통화
소령
신경
떡
나라의
후보자
지은이
기획
##베이스볼
誰
당했
##십시오
난다고
자다
들려
어용
명명
문정
솔직
##명과
로컬
일출
주워
joins
감독관
유도
폭행을
초점을
##공주
정치자금
##어머니
##창
##베이거스
시술을
##파견
용모
빠져나간
이현
##젠테이션
삶과
어떠
달기
전근
급변하는
매력
여행객
##ㄴ
지으며
##루타
고해
이거
##만을
150만
이상이
##실의
국내로
=
‧
##도의회
##남
출연료
이정표
치료는
육성에
##산은
159
##억달러
##수익
##쌉
하락폭을
##ani
때문인
전셋
##식으로
브론
썽
장세
NHN
부천시
〔
콤플렉스
김난영
시그널
##分
스피드스케이팅
레전
벅찬
몰
##티코
박광일
縛
들은
담
성기
##게임즈의
##ans
인물로
음성으로
듯이
##분자
퓌
레미
쌍방향
##츠
줄어들었다
다임
포틀랜드
##그라운드
특검은
김재욱
##쟌
라이프
자락
출하
수포
탈해
웃었다
##淸
나름대로
조직의
##음
올립니다
성능
戰
걸레
하이트진로
##중독
삼성전자는
##eter
터득
어주
틀을
파밍
##았다
기념품
남단
보름달
자
유비
보일러
##은행
다분히
進
찝
만나서
구분해
여기저기
입혔
款
##달아
사회를
구할
집에서
국방
易
##였습니다
테이션
구속
##조사와
학생들이
무엇을
관측이다
상
공개된다
유상우
##기상청
분분
썼다
##츠키
변방
##대포
독창
##opyright
검찰총장
응시자
2급
않겠다
세우는
##실질
날인
건배
1944
과천
예리
##ichard
##죗
과학기술정보통신부
낑
사진제공
##브란스
65세
제출한
위스콘신
서대
부족하다
다하
자아내
드디어
か
뭔데
스마트폰으로
주의를
Will
2235
대전시
瑜
제격
교전
잉크
교육과정
질환이다
지주회사
김자
2266
전매
잠자코
가입이
##교실
##롸
이충
배출권
##룸에서
##LR
God
보여주고
##스피어
사전투표
어떠한
침팬지
##보에
용해
##마라톤
에버랜드
미스트
##세의
본격적인
유머
우라늄
적절한
월트
맛있
20만원
일침
우이
텅
종대
옵니다
갤
명부
상승하고
응징
##척
니까
자신감
커
##ion
##님의
##郞
끼여
16개
匠
동아리
대중교통
투숙
의도가
##age
업무가
인분
스완지
콩고
##얌
##공간이
결정된
##쫌
지소미아
찢어진
💘
올리
##취
갖춰
##침을
생태계를
날아온
달라지는
##이즈
신과
웬일
##리면
조교사
1일
수비
깊은
##tt
금융감독
박태환
옷
##상공회의
古
다릅니다
응할
∼
關
한국토
悌
통과
##판에
머의
전임
지역주의
남남
舌
더블
적정
한국개발연구원
최형우
정열
대상국
梅
연동
##밝
심술
지형
국민권익
1588
단
구조
마십시오
미시
정의당
퀸즈
疑
김수
포니
돌아보
후원금
싸우
炯
##검사
항소심
모셔
무리수
사르트르
어웨이
레이디스
엔젤
못박
서버
점차
##정책연구원
##낵
빨간불
대체할
팔레
##주체
안호균
Book
진경
연제
1만
다뤄
꿈이
##회의에서
법무부
##톤의
관여한
후발
원료
우려는
요구하는
藥
수치
##연장
확고히
김상수
치가
스파르타
답해
##못해
덕성
인맥
사회에
넘어갔
늘
카드
폭력
타이탄
##도로공사
근본적으로
국면
##가에서
참여자
婚
슬롯
##각시
안습
나우
와사
서프라이즈
매킨
상과
##존
포항시
6600
웸
고추
##수리
예능
해본다
예뻐서
단지로
유방
반딧불
만들어야
사마
방법론
이병훈
북아프리카
##키지
파도
浮
웨스턴
달성하기
도스
##66
사태에
집착
더라면
추가적인
##이상
참석할
2024년
##가고
##식물
연해
우울
財
貫
##이즈미
원기
##첨단
중임
실속
##파트너
##읽
검사
정보통신
꼬집었다
떠올랐다
伐
##oll
##5년생
국도
다면서
신데렐라
점주
##시에서
지의
왐
경상
특성상
밤샘
풀무원
##업종은
YMCA
품위
##섯
일본이
미워
유동성
정윤회
이진영
##홀름
##소년단
에스비에스
##났
문법
0014
정신없이
창사
라이플
클라
최순
Mr
가덕
환대
##uz
##로벌
별의
##가요
식탁
이동통신
##버둥
나이프
한국에서
KBL
정찰기
재판장
천체
주소지
의도적으로
고통을
표창을
💃
듦
지스타
108
전래
##ition
공세를
니코틴
##교육청
여포
오븐
##산단
모발이
헤아
큐레이터
엑셀
임종석
8900
##쎈
연구소
시절부터
잊어버리
핵심기술
튜브
콩
수요자
수요자들의
올시즌
兩
##ㅔ
간다
##언
였으나
유니버설
##리면서
핵심적인
9800
애국가
승부욕
우시
##프로골프협회
채용비리
장치를
분위기
아사히
천천
방문하는
were
##D는
##앵
##박스를
결실
관문
##들까지
향상을
캐시
이영
레어
조치로
##밧
식량
빨갛
하락하는
정도가
##佛
합정
Pat
보증
##리에
권력을
羊
상영
만든다
운영하고
여도
공습
쫄깃
##진흥재단
후반전
지점장
##권을
기념관
비대면
해보
교가
설치했다
맹목
배려
않는다는
상세히
970
昭
퇀
##하이
##환경운동연합
뷸
임동
무심코
삼국지
배고프
투수
모바일로
캄보
대표의
증거가
고속버스
연금술
##영이
##祖
다음날
##서스
##대응
巨
코나
건립을
땜
시나리오
노천
##파트
정보화
듯하
ㅋㅋ
반짝반짝
##지원사업
##차장
아르헨티나
돕고
##js
##륙
##덜랜드
집에
베베
##매일
##세데스
이재정
통계
이걸
##신호
##창고
조선중앙통신
대법관
국제공항
수단
##ime
분기점
현충원
무주
바닥
##석유
객관
우승을
리에
##ervice
송병
##83
적나라
정근
가위
##DI
##하곤
장비
##해야한다
##지사와
##협회에
임단협
현실을
##⊙
금융권
속한
조회
100억원
조성되는
빼돌리
##딱
중랑
빌딩
김연
출신
##이었습니다
##클리
##낸다
토이
밀가루
선명
jung
김현주
장로
보여
혼란이
##억5천
##리티
추구하는
헐
선순환
측량
##스타인
집념
간장
지린
태백
259
##합병
성인병
금융투자협회
녹색
차를
원활한
사외이사
．
수락
##베리
변함이
진출했다
##샤
서비스를
리버
뛰어넘
생산성
라는데
어르
수익률이
국내총생산
##시세
LC
Ltd
유목
##6억원
숄
녀석들
일문
콘텐츠에
진행하게
다가온
공동의
호세
직렬
深
진단과
인원은
미쳐
positive
꾸려
접속자
유정
##업무
먼로
##게트
뇨
꿈나무
##EZ
고화질
월드베이스볼클래식
부피
무책임
이중
방침입니다
##line
안전하게
아마추어
##화산
촛불집
크고
##op
宏
##왕산
命
cat
즉
구체적으로
제반
##임을
빵
연재
상승한
성능과
상승과
억제하는
애국심
구역
수하물
표현을
##절감
##잿
명품
밝혔다
대안을
아니라면
##뷸
아미노산
right
재건축
갑판
塘
840
주민
제일모직
얻
집행유예
##수의
불확실성이
장상
의혹도
압승
패셔니스타
지원하겠다
정부군
진입로
용산구
국무회의에서
소식에
기대하기
선거구
세차
페인팅
대응하는
국회는
뒤졌
##aw
##박물
함
개선에
급식소
영상
만이다
보살
국민들은
##폭탄
춘천시
##다니며
골라
섭렵
넥타이
American
점검을
대회에
강조하며
리티
##psyche
정승환
아랫
漢
중앙지
문민
##공항
##협력을
17년
이내로
##요양
향한다
녀의
차우찬
카운트
틈
1909
물꼬
에픽
주택도시
진동
심해
간통
이익
기아자동차
내면서
웬만
통찰
터뜨리
범벅
##인데
무능
축제를
KBS
일단
것일
카트리
##만5천
절호
🍞
구성이
권했
검역
보수당
빌드
적응력
소나무
인지
刺
崇
##사상
##절차
튕겨
채워진
##힙
말린
##각각
배열
구심점
등불
지원된다
일깨우
교육생
이달부터
다가섰
암기
시행하는
##던
ㆍ수
##타임
쫘
##WA
##가드
ez
수개
재외
국정농단
400여
루비
이단
돼도
원활하게
상품인
처남
지마
##찡
중요하게
바이러스
김경수
##라엘
갈등은
LNG
실과
김미
자야
정돈
성장하고
규제와
에디션
##염을
하반기
##창호
않거나
어렵다고
##종목
##드에서
29
##전철
##됐다가
라식
간편하게
##기에서
##증서
한미약품
액면가
서울을
##졌
골목길
입성
문진
##지수
##들보다
현빈
순천시
방어구
토로
촘
나타
번쩍
스파이더
가끔
주례
재확인
으랴
형태로
거치면서
##리어스
읶
코코
Ad
중점
##트륨
대낮
연구가
매입
##esk
1936
발레
수돗물
##🏻
모델인
힐링
넓혀
한계선
℃
감정평가
우정
들려준다
이물
온기
靖
죽
##파크
##배추
걸작
주전자
Ⅰ
그쳐
🙏
설명서
성장률은
##뷰
구글은
기본계획
##원이
다소
사납
덕수
##발력
박물
도끼
헤게모니
Law
총매
국회를
꿔
잠재력
##하나은행
##등급을
보
##텐
문건
기승
페스
두만강
사위
미생물
##다가
그러므로
수입
##내티
##it
퍼블리
비틀거리
쑥
기여할
사별
전남
시공간
현행
급
횟집
##앱
sun
의외
뉴질랜드
팔자
경영
##뇐
먼바다
##처분을
묻어
신청해
##스토어
색조
개선해
전년동기
##M
쏠리고
40여
解
시행된
독
업계에서
구성된다
한눈에
비롯
형성하고
방침에
##2억원
##비와
만루
인터넷을
개체
화로
##쯔
징검다리
내년부터는
김지
12개
##초등학교
고려
본격적으로
19일
회장도
지진
비리
표상
일본은
##우회
##쟁
교도소
디
##기로
줄줄
청원군
질까
칭기
但
꽥
동일한
하향
단거리
장준
##바토
로코
인수한
관계자는
##휴게소
겄
##븐
해결해
오리온
hg
바쁜
##투아
##光
방증
##경보
초고
##건설
德
미디어
이후
정보도
변함
생각을
유튜브
답례
해야죠
아비
손쉬운
연중
세이부
찬사
토기
싫어하
아토피
종업원
휩싸
이롭
한국식
스미스
기차
제1차
더냐
신청한
疾
전군
별
가족들이
조지아
##고개
예단
기우
##렀
물기
땀을
##꾼
고졸
신다고
막대
초
돋보
##td
평가액
##또
##봣
재위
揭
피렌체
태어났
강의실
외야
##29
김두한
##저축은행
엄격한
##stem
로페즈
##있는
흡연자
호소
심수
##│
2위
UBS
론칭
레포츠
벼룩
투합
##00억
##퓰리즘
🙄
##작을
경품
##yst
posit
은영
##해서도
##팰리스
접어든
4분기에
최고점
기초자산으로
지원하며
yjc
##ys
##round
떼
김종민
올해의
올바
파장이
##MB
시범운영
빠뜨리
펼
紀
응모
평론가
상시
쫓
모르게
스코틀랜드
##터널
넘겨진
C는
완성도를
크라이슬러
종의
개선을
창원
끌어갈
제일기획
음성군
태동
밀리
발칵
양천구
##문회
라고도
열대야
세입
특혜
마카
레이더
내리막길
게임업체
거렸
이것
##현장
해고자
에베레스트
손꼽
##전담
파이낸
구조조
안될
최양
캠페인
헬기
##기록
사회로
랐
사례는
##린스
##湖
述
부활
아름다움
신사
황우여
펀딩
초음파
장려금
어렵다는
연평균
튀어나온
##빠진
핵
사업부문
##렉트릭
건물이
퍼거슨
기사단
용기
워커힐
뢰
##ace
심각하다
##혁신
금이
무차별
결과로
무인기
트레일러
오클라호마
운동에
된
가능하지만
Elect
호남
소식을
궁
포브스
나선다는
공간이
조선총독부
하천
감사를
놓이
모여들
##바일
연다고
엄벌
부차
지자체
법사
##사용
이윽고
輯
챈
52
##미애
드릴
장엄
圖
##코리아는
발급
##jt
196
노장
진한
特
레이
##테니스
##&
사측
오승환
고민해야
TOP
재해석
아내가
掌
웅
15
정교
중앙은행
##땃
제때
몰지
認
벤
유병언
방법
##과대학
동방신기
롯데는
소지섭
대상자는
일에
손쉽게
양일간
이창호
과오
학사
보위
트럭
다방면
고대
근력
콜라보레이션
##마가
몰라서
성과를
보장을
서울대
오른손
미쳤
방법이
현대증권
증가하고
##핑
다름
내밀
에너지
각층
暴
가점
丹
##데요
攝
모스크
임진강
상황이었다
##70
7일
스며
특급
##좋
소리가
##온다
조식
친형
루타
설비를
플랫폼은
##력도
6200
사이트에
불쾌
단락
##방지
고양시
유우
경영난
비위
災
윤정수
##호한
낸드
안철수연구소
지나칠
우리나라
가상화
가능성
양사의
기사를
팽
##자금법
매지
전남대
투자로
통수
훌쩍
난색
미리
연결기준
t
내성
응시
중심의
12
영락
밖으로
프로젝트의
##｜
거리가
주최한
##삭
뮤직
##뜻
패전
이르는
제약
수술을
##신한
출시됐다
월급
##헬스케어
##모터쇼
함대
유통업계
##널
고민이
|
제기되고
##智
씨를
금리인상
합병
상륙작전
자란다
불출
거치지
##bert
직업을
한국교육
대규
자치구
김경문
##셔티브
동안의
##괭
미터
마그
마담
##으로만
커쇼
##mer
조기에
늘었고
후식
총사
그렸
##는데도
기념행사
연우
##교도소
될수록
아우디
달라졌다
김수영
입사
성추
示
음해
귀환
##감은
연예계
천둥
覆
스텔
수현
##인치
5000만
더했다
발탁
줍니다
빌미
to
신라호텔
발간
가격이
동갑내기
친구와
##쥰
부부
##보트
##변동
신데
언어학
으루
중소기업진흥공단
현재로서는
##렙
자이언츠
한주
코딩
##해운
비상장
→
자본주의
졌으며
와라
면면
770
함께
지뢰
공룡
통치
진로
돈의
리퍼
업체를
황창규
골든글러브
헌터
##톰
경복
##진에
##렐
##다듬
초심
지원했다
타협
루
##일보
아버지
적극적으로
천연기념물
##000억원을
양상
경신
선로
##쁠
##T를
당신이
생산
계승
##낱
이스탄불
나올
종양
영적
로밍
Class
스타크
##묀
해협
##돕
불과
기관의
수행한
상명
##미경
##쉐
##줌
공백기
사업으로
가교
맞는다
dios
종군
유나이티
##수술
게스트하우스
이목
신격
샤브
정민태
늘어난
##싼
메인
##담회
법정
하룻
적립
##망
인의
특별히
신다면
박원순
미쳤다
##ㅗ
FBI
기간별
닥쳐
계정을
##암
선정한다
불복
노력과
테크니
##퍼블릭
휴식을
훈의
헷갈리
못마땅
상황에서
자유분방
##업법
言
##만6천
포미
여세
의의
##케
##점수
1400
남한산성
굳힌
##청장
지킬
1위에
##오브
분홍색
윤곽
##분으로
각국
따내
자식
응집
ᄀ씨
앞세
##워졌
인상과
At
탕감
길에
우도
##심판
50대
서태
모르
수비대
공간
亥
뎁
하루에
샌드
쭈꾸미
로이터통신
##브
처하
달려들
##업체가
수그러
정황이
##공원을
자랑한다
롯데전
건너간
정부세종청사에서
소방서
파이널
4번
여기까지
어리
세무
노크
銀
##게스
농장
휩쓸
##니는
컴퓨팅
##중간
보살펴
세계관
영의정
국가정보원
희미
배구
덜컥
##터리
기상청
尙
설립된
경합
공양
##오지
형주
도는
새로
라데
비롯한
##전공
열혈
미식
남짓
피해액
##이익
##과학기술
제공한
전무
원한다
##만금
##벨
영월
채의
##기지
옐
감소를
공고를
켭
5명을
의미다
잡화
설비
라이온봇
##ong
##직에
격파
넥스트
規
교
php
투신
정치권
배치
선장
##놓
대당
맥도날드
##iny
그루
전북
달아오르
명목
우승자
서로
이름이
해와
##위도
특별
웨이브
🍃
##보단
八
미니
줄여야
몰락
달러를
무기고
분수령
못하고
지시한
조훈현
여신
뎀
논의한
bet
궁극
##가면서
##메이크
##서원
시민사회단체
이른바
창호
##딜
넷마블은
국제올림픽위원회
남상
뙈
##눝
##왔던
일들이
태어
##자식
also
귀로
복숭
이지
문득
공학
소방본부
할인된
##미사
##마루
어질
제한하는
##라인드
던졌다
나날
협의해
제거하는
##혀
##평동
##명대
└
맡긴
倫
경기와
높인다
바코드
누설
끽
##echn
3년
##혜영
개천
정윤
무너져
경험할
오랜만에
라서
배고픈
傳
수익률을
사항은
풍부하다
##해져
프라이버시
##상황
##ge
김익
##교향악단
업체들이
총파
하트
1910
von
신속하게
##😳
원세
전도
##밸리
드릴게요
##쏜
개인투자
사역
지역에
문화관광
코리아는
化
중견수
통고
담당자
管
엘리
유도할
퇴임
구축함
분석이다
백지화
##충돌
1963
##행장
소개한다
운영한다
ha
##ents
유형
파트너스
할리우드
##주들은
대게
업종별로는
임무를
포천시
맛스타
바이킹
이익이
제원
2월
##닥
수소전기
##연수원
스타디움
여성은
학습지
##선거구
7천
엄선
우지
調
더해져
##름
리브
##규직
##nam
폴리스
삼성전
밀도
싸늘
20060
##넴
증평군
##머니즘
##궤
##ze
미치지
가속
대치
증가했다
왜냐하면
이영표
##둘러
민정수석
##성
TC
첨가물
##창동
북한과
##보고서를
전태
신한카드
##뭡
生
일리
##장으로부터
선보여
기업에서
레이드
10개
계획
##인구가
금융당국은
과목을
탈루
샐러드
Ste
한다면서
##퀵
꾸며진
이헌
경동
방안은
채팅
쿠알라
##銀
중국어
감동을
하락해
단숨
재정경제부
러너
col
우편물
협의회장
진행이
난제
##습을
조범
성당
묘역
##달
##지청
그
오메
튀기
镇
아이팟
PI
이룬다
미취
정상급
##달리
통제력
version
김하
末
해내
문수
위에
안전망
반짝
修
마음속
##캐피
##7년생
##상자
대표작
새정치연합
국방장관
ENM
##랄
자매결연
뜻을
위화
시마
증상을
##몬드
##ied
안병
##달라고
공공연히
개관식
종합대책
천사
떤
모멘
메뉴
##레어
##카미
구로구
유죄로
擇
겐
##해지고
배치해
##만만
의견을
쑈
학습
수주
무관하게
랸
부사관
위스콘
분위기다
疏
오래오래
제법
키우는
##마는
킬
##뜁
소주
태평
특별법
##책을
간간히
사이에
지속적인
키프
##픔
##代
였으며
팽팽
기스
민들레
무도
함정
지키기
##탯
거액의
사용자의
국세청은
등심
학파
다우지수
토마스
브로드웨이
라스베이거스
할로윈
많아
보인다는
중종
전면에
팔달
쁩
10조
300만원
쾌거
훈장
오호
은행들의
년도
진흙
뀨
가산점
취한다
브래
샤이니
박병
민원인
2030년
편이다
##등이
중환자
식용유
##조는
「
어벤
##원장
##어터
속의
목표를
매장은
트로
본다
60여
서열
텃
로저스
삭
전세난
낭패
여객선
일회
한국항공우주
확대에
거쳤
얘긴
##세우
좀더
총영
##교육을
##7억원
요구할
미래에셋대우
부심
피치
임플란
##하기
멈출
김형섭
진수
당면
폭주
##영
내력
조롱
국기
분담
행과
루트
##ivers
가들의
ICO
푸짐한
설정하고
힘들
##ash
art
한국소비
GDP
能
트루
성남
이코노미스트
하버
오페
nhs
위해선
##작용
수년간
升
##섰다
샌프
유승옥
##과제
##ii
바싹
편리하고
작
##웨이트
##t을
##액
녘
##체능
두른
5400
싫어
가져온다
증권사
강조했다
##론과
전역
##인베스트먼트
집어
##위안
시티즌
코엑스
患
부과
取
줄무늬
후임자
아프리카
아버
벽에
㏄
##시킨
네트워크를
망령
##鄭
##텼
자동차가
만들어졌다
##길을
향했다
##昌
정식
현대화
줬다
갈비
##길이
패키지를
##디
접근법
요소
KPGA
株
헝
##ff
화해
##판을
NEW
마련
항이
준의
못난
미처
약서
계도
3억
마스터
##감한
66
울주군
미주
초보자
김봉
慮
##뉴얼
장점이다
오영
이순
가라
##괸
결투
##ground
소득을
외교부는
센트럴
서울지역
직불금
；
잠자
성과급
달라붙
검찰의
##카와
##칼리
##요금제
픈
통근
문화재청
무늬
유발
어선
오노
결과가
얼큰
##ique
##룬
30분
전철
등의
3월
##킬
운동장
선발전
##압이
##문트
출시로
PA
##지연
##잠
해석을
엄청
경영권
수소문
평가도
유무
##ocial
괜찮
잠실
경내
탔다
##3는
##내과
성가
161
고발장
가족에게
사용된
조선인
##하느냐
어때
열악
ins
##門
파우
淫
위증
높고
작품은
안간힘
좋고
지원하는
요리
브리스
탄약
상승세
개를
##주의보
지켜보고
##N
##+
##소득세
컥
연구비
廳
통역
마지막으로
탄력을
제휴를
삼겹
다했
강재
심판
##더니
아쉬움
거론하며
역할이
떻
TEU
卵
현지
살해한
정수
눈초리
가성비
시리즈
찬성
##東
1976
〉
밝혔
스타
##농단
최우선으로
리라는
##둠
가까
##6억원으로
캄보디아
정인
언급을
인디언
촉촉
안정성을
전거래
##ber
泉
살려야
시각을
##㉯
정옥주
해달라
유서
##led
감출
일조
수개월
부장판
관청
덧붙였다
엌
서울에
보도한
范
2008년부터
파견
오픈마켓
플랫폼
7명이
값
##🙏
백종원
라이온
틀어막
특성
저지
국은
류중일
sds
##접
조명
김동욱
##역사
절경
##칵
뒤쳐
후진타오
구보
##텁
##시도
##루미
##극을
노력했다
온난
문경
##7년
바닷속
##방을
미러
##래기
세출
ㆍ정
조선일보
우물
min
쉬우
##스트는
##라인
정직
##ech
취임식
협연
임했
##가
잔여
##는지를
총무
신세경
석패
유통
##6년
화보
노린
영진
계셨
망토
중환자실
지금까지는
원로
##기도
압구정
돌풍을
대책은
##amp
실증
민영화
시름
만나고
기다리
§
倒
추세가
신예
舶
문의
점자
##시한
숙녀
와인
일고
부조
##tp
【
패러다
말라고
농축산물
초음
##등록
부산시는
바람직하지
나노
교육비
나고
시선이
##가수
기업이
##준영
밀어
김포
노트북
내다봤
다반사
스파
##등을
라네
##ense
소개해
##당국은
나옴
##묄
가능합니다
앉
으로써
ь
교감
##ⓑ
전상
실수요
##센터를
그린다
알파고
##소개
채워
강화
초토
##寶
C
소망
샌디에이
晉
애플리케이션
戦
3위
급락한
송편
붙이
포켓몬스터
##젭
존속
안드레
대상의
2018년
후손
시의회
책임
충전
선후배
##그룹은
곧장
넘치
가져야
사나운
급인
##출소
##으니까
080
레그
冀
다이렉트
仕
##ights
募
조달청
세네
풀어야
##번째
최대의
121
翼
모사
뤠
렌터카
##법상
대대적으로
석유화학
돌이
시장은
한국감
더불어민주
KOSPI
불어오
##결
王
##가구를
##지원센터
로로
바니
각색
진에어
##안건
3일부터
해준
분명하다
##사회복지공동모금회
젓갈
패션쇼
##수석
호르
벗어
##아파트
##힛
상장지수
수상작
카즈
襄
소외
박의
앞에서
쌓아온
느끼게
132
처럼
말자
새마을
계신
##확률
예산을
무엇이
주검
##어내
씨도
돌진
억만
##관리위원회
헝그리앱
양안
##ft
떠난
트렁크
카사
CCTV를
순천향
미만의
##미르
기용
마키
##이도
골망
사무실에서
헷
전체
##쭤
최문
적당
협업을
동종목의
##태를
##칠성
##나래
참사
##우수
한국도
흉기로
좋을
##연구원이
배변
50억
커뮤니케이션
kt
형태다
##방에
［
LG유플러스
가져가
242
늘어지
발돋움
힘을
봉사단
온도가
취업준비
##깽
메가
착실히
체험할
자일
##실히
인체
꼼짝
##61
##스런
##뉴타운
다른
상납
수사를
##급식
살아가
동정
수고
고유의
##바게
유통업
괴
##합
섭취
떳떳
기득
채소
##했기
무신
씨앤
##로워
예
카메라
я
데다
1997
발표하고
조금씩
하정우
촵
직물
생산과
##였는데
머뭇
마이애
부도
구매가
환기
##므
긴박
##98
##돼서
금성
##동아
이상
차는
권능
##㉢
潟
문과
수교
##센터
설파
##주주
에메
입주한
이태원
독설
##꺾
캐스
##답니다
부가세
남기고
개정에
사명감
보성
##곳에서
##정책에
리트
클린
성균관
蜜
조카
##체험
분노를
나포
반항
옴니
마친
NYT
##앤
내려진
##100
시간
投
##eal
지속적
##속
##르기
##씨에게
스포츠서울
솽
골자다
▫
레즈
인자
서울남부
##해를
기온
미래에셋
##녀가
n
함수
강원랜드
토막
아무도
##진흥원
튄
덥
##란히
물색
주려
기업가치
알파벳
북단
성도
뤘
캘
롯데카드
##오를
윤일
바를
##행을
위주
순환
풍기
그르
연약
걸어오
핵탄두
꽂혀
가벼운
단가
관계부처
그려
##이온
##줍니다
교육에
##주로
##휴게
강박
체결했다고
두려워하
##러워
수석은
밖
일컬
set
밀어붙
플렉
##협의
ㆍ
##지에서
##들레
##바라지
금년
##터가
##볶이
##지원
꽁꽁
위급
다기
##플랜트
끊임없는
##숙
互
애틀
##가구의
이니
##cc
발끝
차지했다
노동
전향
##설을
##분이
푸
지민
한다는
해체
김이
챕터
귀감
감액
표의
힌두교
##플릿
밀접한
😝
메이트
##세서리
유상
머니위크
##同
##느라
##퍽
고배
SBS
비노
만수
즐거웠
강화될
해골
증대
편리
에밀리
쿱
중앙아시아
소수의
́
수순
이어받
분업
환경이
패
카인
게양
전문성
법정에서
씬
지역이
성장성이
##17일
제레미
##＝
비벼
자세
껴안
개선안
10월부터
이걸로
재단법인
##₁
##럿
야당
열띤
별도
py
국
##🌿
지켰다
바구니
질감
##해도
고용주
돌린
수밖에
재판소
이순신
사들
레버
올라
입고
전체적으로
지휘관
##た
1989
가공
간신
##실한
폴로
##ire
진찰
야합
##통령
투항
앵글
제목으로
##뢰
##적이고
##파원
##나이
Fed
9월
못하게
##보존
경험담
44
따를
보관
저작
경제지표
두세
회장이
해병대
빅뱅
만남을
자리다
양강
자제
동방
사연
##승부
사막
미대
##협상
가축
즐겨
에볼루션
보호자
##쓸이
배경으로
차관은
##주인
괴롭혔
착취
조정이
##총련
장경
가맹
내려가
디지털
기획전
빈민
051
부설
순위가
하여
단말기
ᆞ
度
탈옥
학기제
골동
연일
정도
삶은
빠짐
르노삼성
베팅
매달
아시아
단계적
선포식
라울
증상이
蟲
240
이동할
정비사업
기성용
교대
팔레스
친척
합의에
화장실
선풍
##폿
##ourn
##층에서
설치한
##통신사
사용량
희생
코스피가
나타내
數
오솔길
닦
적격
주름
그중
but
감동
우수성을
訟
탐지
교육인
각각
물리적
지출
상장사
##서부
이을용
비안
박순
##욕장
아마존
방위비
魂
민병
전관예우
참가한다
지방세
인종
이벤트
하나하나
이용객
##4일
晋
따라서
청원
##ich
##레
다지만
중년
매운맛
6월부터
•
위해서라도
##경북
직원들과
##얏트
퓨
다자녀
##탸
노력하는
유성구
칡
인피니티
던데
서재응
내보낸
챙겨
다큐멘터리
변화하는
경우는
##頭
##플라자
썬더
##음에
🐶
##행선
##프팅
代
홑
된다
##펫
##특례
군기
牙
##다나
쳔
##렌토
미정
##공급
설명을
있는데
손오공
9600
속사
륀
하고
국민은
寄
##urch
순손실
배틀그라운드
전곡
엷
잃게
말소
끼워
휘감
가깝다
달려갔
사회자
가져올
무당
##서린
주화
##洙
DM
드로
껌
항생제
사정관
부검
按
방안이
발견되지
맡을
찧
시스
약한
##agram
붙잡혔
죌
쿠데
달려
유명인
##ily
##받는
##과정
모텔
370
##처럼
he
##보는
공격을
낸다고
부릴
##워즈
선호도가
##국의
##깁
거느린
##eth
배달
대주교
진행된
##걸음
스즈키
##뮬
단결
제출
누릴
특설
문어
이용자의
뵘
Play
대청
##현실
아랍
하버드대
##反
##3억원
버려서
팸
따온
借
가수
선정했다
자철
형사합의
2016년에는
##語
고객의
줄였다
오카
마티스
해도
후계
자장면
도와줄
##花
오만
##어나
안심
골절
강령
##💕
요구를
중대형
지원하기
성동구
게임으로
res
단축
청양군
먹거리를
##守
낱
##욧
확률이
##공사가
카나
황석
삼성과
든다는
##합니다
##sych
거머쥔
##체는
는군
부호
##녠
##고는
흑색
蔣
문희상
입장은
코칭
不
플레이트
메가폰
寒
소통하고
마이클
이끄
배드
끼쳐
낸드플래시
역부
여명
##남면
빙판
##yr
Sup
탄력근로
마두
보상금
왕인
추산된다
##려면
##구요
남극
문제점을
녹내장
領
##율로
친근
위자료
💪
장영
왓
ᄆ
##가이
황우
전우
강화하는
##학사
##abc
##자에게는
구마
스마트폰과
무한히
끌어올려
##게이션
약속을
##인턴
훤히
##등학교
게임을
택했
전갈
##시죠
엔진을
로버
모습을
금정
322
검사의
염경엽
##농도
집요
출두
讚
모로코
저도
개칭
현대상
감소하는
악재가
수두
상대편
시장에서는
피노키오
예산은
원형
북동
##가람
순위
##の
꼽혔
식용
단합
이연복
㎘
절전
플로리
건강한
않은
##턴
##쁩
Ann
지렛대
행태
대면
공소
무성
사로잡혀
각국의
번호를
판서
김씨
시스템으로
법과
##르타
수렴해
##컴퓨터
정창오
혁신도시
지참
창업자
쌀값
##뱃
목표로
개편
겡
어찌나
제도
폭도
측정기
합격점
세터
희망하는
##라스틱
콕
피식
의원님
파파
뭔가
함락
민선
이견
진단을
광진
마치
등에도
지켜보
온두라스
계약을
못한다면
통운
##RI
망원경
##멓
321
##케이드
조리
국회
발전의
##기구를
정작
단도
드림
수험생
##어와
##관에
활동하고
페라
##o
걸려서
##아졌
FPS
##발의
달려와
##분석
념
웩
##워
나일
##ate
색상
##yche
나가야
사령관
원내대표의
투덜
War
##ine
효린
하버드
##여정
세상을
##ic
신창
성폭행
實
##서전
대기
##맹
##세븐
일가족
냈으며
6배
각종
에선
2월부터
송호
북면
주미
##연합회
산하기
##돋
하루하루
말없이
통화
리어
旺
##좦
순조
전화번호
설악산
交
영화진흥위원회
진도군
##Ⅱ
##ID
풍년
한윤식
##데이터
워터
떡볶
쌍
20년간
원불교
종료
아름다운
하라
도교
##았는데
허의
페어웨이
쓰러진
理
31일까지
자신들이
극장판
캡처
젠
불러서
이미지가
끼어들
件
세운
창업
역사에
업종의
동영
##1개
방중
е
##완전
劍
고르
can
돌봐
싱크대
##옻
##방과
줏
청룡
대안
305
##스럽고
닷
##협의회는
명도
껐
동강
주가도
해양수산부
우왕
찬란
삿포로
공화
한국외대
##회담
##비드
주도로
##9개
잎
▷
型
무등산
##갱
블루스
食
김남주
위해
##긔
피폐
에이
내려졌
##거래를
수출입은행
결제
##투사
##마스터
##자리에
오늘과
董
부딪쳤
2010년부터
수채
아닐
인들
잠잠
##름을
##화가
브룩
수작
툰
하시모토
육로
祠
마주친
찾았다
휘두르
침체기
쓰여진
##ouse
정몽준
일괄
공장에서
화이
문호
收
소견
혁신위
##ov
감미
##PC
파묻
하며
개발이
로스앤젤레스
의무를
이기주의
과수
시드니
악성코드
명예퇴직
덩어리
골목
##뫄
키를
킬로
健
##재단
짚
피고
3사
NH농협
원광
요법
##활성화
김진표
청량리
공정위가
진흥청
휘두
명이
오르막
유심
유도하는
恨
공통점
통증이
빴
匡
강사로
잇따르고
##트리올
ㆍ경
ㄹ
직이
구매
MS
탐험
난데
jinxijun
최대한
해당
귀의
썰전
원더
##수요
협약식
##ay
거부
상하이종합
황룡
앤서
이건희
설정해
공탁
급한
식수
##게임
세계
복수
##만달러
출시가
멜버른
##의료원
추진하겠다
직시
##에너지
획득한
뒹굴
##금도
원하
억눌
연예인
솜방망이
스프링
1942
수면
수사관
##의무
의료관광
장윤정
보낸다
파이터
##ess
1937
##생활을
김민석
##충원
투자자들에게
자른
##ien
##벤처기업
##소생
##사업의
犯
지닌다
큰손
파악하고
포화
트레이더
투자의
2종
##만대
어두운
자유한국당
양돈
華
鵬
기여하는
전에는
##8개
##볼
판매에
전해졌습니다
##둘기
##9억
사방
沃
허름
내용으로
작가가
##물량이
##모금회
밑에
라자
냉면
신탁
상호금융
라가
혜택
스릴러
身
무사히
번째로
벌써
추가해
월스트리트
금융감독원
안기
蓋
양육권
##치인
작지만
식장
##ero
다면
도립
센서
처절
##64
경제는
단체가
체중
불균형
##요청
고창군
역류
고무줄
驚
##요금을
개최했다
이메일
뙤
##동력
##le
밀리언
장소를
곪
악동
정관용
##니당
산업부
##pe
撫
종교인
개구리
##ke
GTX
##애애
##공헌
일수록
##㉮
##도어
매력을
정보부
최정
실탄
생각하면
한컴
가속화
본사가
##리라
풀려난
##테네
2015년까지
각각의
단층
샅샅
##産
Life
아역
최소화할
##친
##준다
##선은
가만
보안을
퀄
가담
수혜주
갈라진
정동영
토고
슝
려는데
##하하
계획을
##주일
##빗
백은
포뮬러
사안에
위스키
##루스
##뺑
정치적
내세
이차
라트비아
##살
안정적으로
##💃
경쟁률이
적혀
介
검단
앞줄
군사분
거쳐
266
크게
補
HE
돋우
납치
솝
달도
클렌
이벤트는
위로금
廷
##키
주간사
##회사인
麻
##섹
##eck
중소기업
추가경정
성적이
수도권에
사회에서
##三
##백산
방향에
즐겁게
##심원
조재
엣
의과
관련이
시킴
##5억원
세금이
에르난
2900
앞두고
역사관
##⑥
성장동력
높아
안대
학생들의
고조
직사
왔
연구를
North
입담
##휀
판매가
황교안
##금액이
##방재
과도
움직인
탁상
된데다
학생들은
1회
##통이
좐
항암
##갈이
사들여
식스
##샬
##공대
sue
교학사
느껴져
차지한
대구은행
황정
##다고
유니버시아드
남성은
바친
팬텀
아까운
창세기
최측근
정희
바쁘
얍
##하루
올라갈
조언한다
山
케미칼
그쳤
주문
입힌
톳
그친
반가운
David
올려야
한국외
노스
생활이
데일리안
했는데도
##😚
불문
대상이다
경매
반발했다
후면
350
심포
공장
손상
##nn
실려
연정
재회
Ab
고사리
보청기
綏
곤살
저성장
257
one
응원단
늦어도
꾸몄
##공동체
그를
긍정적인
CIA
어플리케이션
개별적으로
##통합당
##ᄃ
윤병세
넓게
1992년
실시된다
천안문
이종일
크리스탈
je
안겨줬
##마일
스럽
롬니
##시장의
##연수
192
사병
##워드
제도가
제3자
##2부
거리에서
눈과
위치에
필요성이
##케이스
묘목
침몰
과학기술정보통신
일용직
##도도
주로
충분한
중고차
한국국제
윤석
수양
서한
어디서
여성을
합의가
있게
令
雲
전제
퇴직금
이프
퍼시
급격히
유심히
##수로
동이
목적으로
시스템도
장성호
##완
장애물
불과했다
##쌍
경제의
##仁
제기
##진흥원은
시차
선과
아도
##연재
魏
##협력
##솔
탈의
요구해
윤도현
銃
수중
의장단
삶이
##vere
어떨지
글렌
##ew
柏
나중
언데
##정책을
되
꿀맛
尺
떠오르고
백팩
만성
만족도
##멱
베르나
저녁
##탉
이보다
건강하고
천적
부산국제영화제
##름이
억제
슈퍼마켓
##비즈니스
저고리
##레이크
의사가
실렸
뢴
##다닌
효의
아들의
##윔
시설물
승무
이승현
김세
##오일
직원에게
낙폭
##hel
함부로
벼르
악취
##프의
탄소
금융위원회
저
스카
번번
센스
김지훈
인사가
자고
우즈베키스탄
생명과학
興
kcal
輝
##안토니오
컬
##교사
##작
왓슨
북핵
고프
##률
더러
속칭
영종도
##58
벨기에
출발점
##차트
오죽
끝나는
컨셉
갈등
溪
벌칙
검은색
제출하면
##프는
가입을
환경운동연합
했을까
##ersion
##만7000
유형의
대통령에게
##♀
냄새
추진위
##카펫
광주시장
다인
문방
원스톱
##핫
##겁고
##8명
운행이
송종국
흐리
##아티아
##파
일러스트
상대적으로
##미어
상용화
운영하면서
유량
백서
프로젝
塚
조부모
태백산
류성
##센터의
아재
원샷
##ht
퍼스
비문
닥칠
##✔
KEB하나
炳
##반
퍼팅
추징
롱
##성모병원
연설문
코란도
깼
##사이
##장면
교무
GC
포함된다
식약처
간사
##왔
외모
##형제
쟁점
가의
##기에
##행
난의
나란히
향토
이전에
허가를
##미사일
##이익을
당을
선배
굉음
##풍이
크로아
제시된
미각
씨의
강타
홍준
포르투
부산국제
札
엠넷
GM
조세
##년의
이들은
##란드
##겨워
설의
이병규
##RE
맹렬
형평
##작은
귀여운
산호
##창훈
항공사
午
조리법
줌
삼성서울
입에
이노베이션
12시
##빈
me
##😉
##임수
##red
공상
부회장의
##蘇
나침반
We
##망에
무림
Con
##ific
만의
마르티네스
브라질
##2년생
어로
이회
정시
경복궁
##진호
##차곡
##qu
차인
##래도
일상을
깔끔
보은군
기대와
어의
중국인
헨리
분립
유연
주방
감형
주택담보대출
##조의
하락세가
청소년기
측면에서
장르의
강사진
遮
##프라임
일변도
특별전
주사위
빌릴
##렁거리
##위에서
교량
코스로
씨티그룹
김정
비용이
카테
##용희
##락
2조
댄다
가를
오스틴
올스타
정찬
##각형
위나라
##미로
않더라도
윤기
凉
더라구
供
사할린
현악
병원장
무너뜨
##얻
##르는
##생이
사건의
기다릴
목소리
에프티에이
아닌가
준비를
1904
용품
유자
연령대
누굴
이방
##모션
##시장을
다각화
이어지
강조하고
구별
구청장
플루
김혜수
배합
갤러
결손
맛없
하락하며
##대화
##찰청
기복
무언
개요
패럴림픽
귀성객
산업
기능으로
만든
동태
다섯
##허브
쿠알라룸푸르
##차근
속에서도
보훈처
반의
통과를
잠기
깨어났
피츠버그
##Ⅳ
##영어
그래
수전
##라를
윗부분
##ment
프로젝터
미르
썩
배경
국군
대서양
정부서울
##정통
##날
시스템과
문영일
수의사
동작구
애리조나
민원이
##투합
주
버립니다
히로
94
오라클
Er
박정규
강원대
아수라
##녘
국내
나온
디아
데려가
##등은
웃돌았다
No
님의
##똑
지령
자영업자
[...]
